[PAD]
[UNK]
[CLS]
[SEP]
[MASK]
!
"
#
$
%
&
'
(
)
*
+
,
-
.
/
:
;
<
=
>
?
@
A
B
I
N
O
S
Y
[
\
]
^
_
a
c
e
g
h
i
n
o
s
u
|
¡
£
¤
¥
¦
§
©
«
®
¯
°
·
Ð
×
ß
æ
ø
œ
ƒ
ˆ
ا
ت
ح
د
ر
س
ش
ص
ف
ل
م
ن
ه
و
ى
ي
।
॥
॰
ং
ঃ
অ
আ
ই
ঈ
উ
ঊ
ঋ
এ
ঐ
ও
ঔ
ক
খ
গ
ঘ
ঙ
চ
ছ
জ
ঝ
ঞ
ট
ঠ
ড
ঢ
ণ
ত
থ
দ
ধ
ন
প
ফ
ব
ভ
ম
য
র
ল
শ
ষ
স
হ
া
ি
ী
ে
ৈ
ৎ
ৗ
০
১
২
৩
৪
৫
৬
৭
৮
৯
ৰ
ৱ
৷
ᵜ
–
—
‘
’
‚
“
”
„
•
›
€
₹
™
→
⇔
►
☺
♣
♦
➺
ﺀ
ﺍ
ﺎ
ﺣ
ﺤ
ﺪ
ﺮ
ﻃ
ﻑ
ﻟ
ﻣ
ﻤ
ﻥ
##য
##া
##ন
##র
##ি
##ত
##ে
##হ
##ব
##থ
##ট
##শ
##ী
##ঠ
##ফ
##ড
##ক
##ল
##প
##দ
##ম
##ই
##জ
##ভ
##ষ
##স
##চ
##গ
##অ
##ধ
##ৰ
##আ
##ণ
##ৈ
##ঞ
##ও
##ছ
##ঙ
##খ
##ং
##ঢ
##এ
##ৗ
##ঝ
##উ
##৭
##১
##ঃ
##৯
##ঘ
##N
##২
##৪
##৷
##০
##ৎ
##œ
##৩
##e
##৬
##৮
##ø
##¤
##¦
##৫
##®
##ৱ
##ঈ
##u
##ঋ
##ƒ
##æ
##ঊ
##ঐ
##™
##£
##s
##i
##n
##g
##¯
##¥
##°
##I
##h
##o
##ه
##ا
##ر
##ي
##Y
##Ð
##ن
##ى
##م
##ص
##ل
##ﻟ
##ﺮ
##ﺣ
##ﻤ
##ﺎ
##ﻥ
##©
##ß
##a
##ﺀ
##ﻑ
##ﺤ
##ﺪ
##ح
##د
##c
##O
##ت
##و
##س
##ার
##ের
##ো
##ান
##যা
##যে
কর
পর
##ছে
##লে
##িন
##কে
##তে
##লা
##ির
##াল
##ায
##িক
##াম
##বে
বি
##াস
##তর
##তি
##াই
##িল
##িযা
##িযে
##াক
এক
##াজ
##টি
##েন
##েশ
বা
##পর
না
##াদ
##াহ
##িত
করে
##াত
আম
##ীর
##ছেন
##বার
##নে
সম
হযে
##না
##াব
সে
##যার
##টা
নি
দে
##েল
##কষ
##ঙগ
##রে
##বা
##নের
##লি
##লেন
##নি
কি
##কাল
##দের
##াপ
গত
##কার
আর
তার
সব
সং
##েকে
জন
##িস
পা
##িতে
##োর
##োগ
মা
থেকে
##ওযা
##ীয
##তা
##োন
নির
নে
##কর
##মন
##দেশ
##যান
এই
##দর
অন
##াড
##থা
##গর
##বি
আস
বল
উপ
গতকাল
##িনি
যে
##টে
পার
##দধ
##বর
জান
সা
বলে
##খন
##রা
পরি
হযেছে
সর
##মি
##লো
হয
##মান
##রি
মে
##মা
রা
##াদের
##লাম
##ধান
##ংলা
বিশ
রাজ
বাংলা
##কা
কা
দেখ
##যের
##জন
##ডে
কিন
যা
দেশ
বয
নিযে
বাংলাদেশ
পরতি
অভ
##তরী
##াকা
##াকে
##ডি
##যন
গর
##নধ
কার
মান
শর
দিযে
হই
করা
##াগ
##নদ
তাহ
##যোগ
##বস
কে
##েষ
কিনত
আমি
বে
##তার
মধ
দর
##দিন
আগ
##টার
##মে
মত
সি
##পি
মহ
##চছে
##ছি
গে
##ষট
আমার
দিন
তো
দি
##ানে
মো
কথা
তিনি
##সে
নাম
হাস
আপ
আজ
##ষঠ
##জে
কোন
##ঙগে
##কত
বিশব
##বং
##দি
##তন
##কের
হবে
চে
##সি
জনয
এবং
##বাচ
##লের
##েখ
বর
##নার
সঙগে
##মী
##াজার
কো
অভি
##কতি
##সত
##ডা
মধযে
পে
মন
দই
করেছে
জাত
##চার
নিরবাচ
##যাল
করিযা
##লিশ
এর
##ছিল
##চি
##ীগ
##মার
একটি
কষ
থাক
ঘট
##ভা
##ীন
##বল
##িকষ
কিছ
উঠ
##রের
##ঞজ
##টির
##সব
##হত
চল
##োধ
কেন
করতে
বছ
তাহার
##ানত
##োনা
##শন
পলিশ
ভার
##েলার
পরে
##িজ
##লায
এখন
সংস
করি
##তব
##চে
মানষ
মখ
##ওযার
সরকার
##াতে
##টের
গো
সময
বযা
মি
সথ
বলেছেন
করম
জাতীয
বিভ
##ারা
রহ
লি
পরধান
##মনতরী
##এন
##ীব
অর
উদ
##েলে
আল
##নায
অব
কহ
ইউ
##ানের
##োক
##নী
লা
##ণে
কাজ
##ানা
মনে
২০
ছিল
##ালে
##জি
ইস
নেই
আন
##যো
##ষণ
##বাদ
হইযা
ধর
হচছে
##লার
বির
##বাস
এলা
##ভাবে
##ানি
রাজধান
আওযা
করেছেন
বড
সাম
সেই
আই
লীগ
কম
তা
অনে
##াডা
একটা
করোনা
##ারথ
শি
##পরে
##তম
আওযামী
##শি
আছে
বেশ
বাস
শেষ
##োট
অস
তিন
ভাল
বিএন
সন
সহ
অধ
কোনো
মাম
##লপ
তাদের
##তের
ঢাকা
##রাস
##ারণ
উপজ
শিকষ
##ঞচ
##বদ
উপজেলার
দেশের
পরত
##থম
যায
##ামী
সপ
জে
কমি
##কষে
করেন
নিজ
পড
উত
গেছে
##োস
##দা
অভিযোগ
নয
বলি
কাছে
সদ
##িলেন
##িনন
আশ
পডে
দল
##িনে
##থায
মার
বাড
ইসলাম
##সহ
##নন
এম
বস
আহ
নতন
##িসে
আগে
##িম
##যনত
রাখ
মাস
##ৎস
কহিল
##তরা
বছর
অনেক
হত
##গরাম
##তরে
##সথ
##টক
##খানে
লাগ
##ারে
গরাম
##েনট
এবার
##বেন
শেখ
##ারী
এমন
সভ
##বাহ
তারা
পরথম
##দে
তবে
হাজার
মতয
পথ
##ংশ
চার
##তিক
##বহ
##দযাল
বিক
##বনধ
##াবি
##সয
বযবস
রাজধানীর
হযেছেন
বনধ
##ালের
##থয
টর
##টর
ইন
অবস
##াইযা
##গঞজ
গেল
##চছ
##মদ
##পাত
তমি
##াইরাস
##জা
##পতি
##যাম
##িকা
টাকা
নাই
ফির
বহ
নামে
##ানো
##যাপ
পরিচ
আদ
##গলো
ছা
অনষঠ
তাই
##দধে
##ডের
বলিল
পরা
বিভিনন
##কি
##লেও
##রণ
আপনার
সমপ
বলেন
পাশ
তোমার
হা
##লাই
##াদক
##কায
##কাশ
##তির
##ীতে
সাধ
তাকে
দেওযা
গণ
##বাব
##যায
এসে
##িকি
বার
নিহত
জানিযে
বিষ
##ডার
##টট
পরযনত
ফট
##কল
১০
যেন
তখন
পরায
ছেলে
অনয
##ারথী
মেযে
##াধ
আমাদের
##িকার
ঘটনা
##ভাইরাস
জীব
অপর
শহ
রে
##পে
আবার
করোনাভাইরাস
##খে
রো
##সট
##ীরা
সদসয
দিকে
ভা
বাংলাদেশের
##সম
##বিদযাল
##দন
##যেছে
চটট
সমপর
##াকার
চো
মযা
##ধয
চেযার
হাত
হাসপাত
##ছিলেন
করার
##ষটর
##ভাব
##দার
চটটগরাম
ইউনি
বিশববিদযাল
##সের
##িতা
রহমান
মতো
হোস
হিসে
ভি
কল
জেলা
সড
দিতে
অরথ
##োল
##াপতি
চাল
ধরে
ডাক
ভালো
ঘটে
##রম
হিসেবে
নিরবাচন
##তয
##ণের
##বেক
খা
শধ
দেশে
এত
খে
হার
রাত
##লাহ
দেখা
##ষটি
পাচ
##জঞ
##তেই
##বেশ
##তী
হোসেন
##ডিযা
##তত
শিশ
বঝ
লীগের
##গে
বাহ
বিরদধে
সাধারণ
গিযে
বিএনপি
##বির
পরশ
সাবেক
##পা
আমাকে
ঘো
##সর
আগামী
একট
##পরের
##চিত
আপনি
শন
##াযের
##যর
বলিযা
আরও
কেনদর
##মের
##িকিৎস
উততর
##াইল
সিটি
সংসদ
পাঠ
পারে
উপজে
##গা
ওই
##কেট
সো
পি
##িলপ
আদাল
চিকিৎস
পরধানমনতরী
চা
যদি
কোর
মর
আলো
##কালে
##ধর
ছাতর
##পার
##মিক
এলাকায
সভাপতি
দিযা
বৈ
##তরণ
কাল
##উন
১৯
##যেক
কারণে
হলো
##ঠে
চি
##এস
চলে
উঠে
ফে
ভে
সার
দিযেছে
##বান
##পোর
##যানড
মানষের
##পরি
##পির
##তান
##াকি
ভাব
নিজের
##ভি
ওপর
##নদর
আমরা
##ফতার
##দল
বঙগ
##থে
জাম
কলে
##িনা
##মাণ
পরতিষঠ
##ীদের
লোক
পরকাশ
##নীতি
##বো
##কষা
২০১
নেতা
বরি
অযা
বিচার
##করানত
ঘটনায
মাহ
গরে
করিতে
##হি
পাল
টে
কেউ
##মযান
##ভার
দলের
##গরহ
সথান
মকতি
##হার
ঠিক
কত
হলে
##দধার
##তায
ডি
হতে
হাম
রেখ
##পের
##জাত
লাখ
##তিহ
রাতে
বেশি
##বী
বযাং
##বের
বিদ
##ফল
রযেছে
নদ
একজন
##বয
সদর
##ষে
##ফর
সাং
নিরবাচনে
ঘরে
ভাই
##োযা
সমপাদক
পদ
##মবর
##কষণ
ভর
হাতে
আইন
উনন
##শা
ছোট
##কট
সংগ
##সা
তে
##চচ
গরেফতার
##ীল
##কস
##যোজন
সাহ
##জজ
##ালি
##তরের
রেখে
পৌ
থাকে
সিলে
রোগ
##হা
##বারের
ভারত
##করম
বঙগবনধ
##দিকে
##ষণা
কযেক
নিশ
টি
গা
##ধি
চেযারমযান
বাডি
উদধার
বিশেষ
সমম
##াপত
নগর
জানান
চৌ
##াৎ
কলা
##বিত
বিভাগ
খল
বিপ
পরিচাল
খব
ছাডা
##তো
জানা
হইতে
মিল
খবর
কলেজ
##গম
সিনে
দা
##েশন
সডক
শাহ
##ীত
করছে
দকষ
##নিক
নর
সামনে
ফটবল
করমকর
অংশ
৩০
পরী
যখন
সনধ
##বাধ
বিএনপির
চোখ
আবদ
মাধয
পাওযা
কখন
চাহ
হতযা
##কেল
##বাহী
বাবা
##যনের
##টায
##িযার
দিল
জনম
নিজে
বো
##ইযা
করিল
গরামের
##খযা
##িণ
রি
##াইন
তল
মল
মাল
বছরের
মাঝ
##াডি
দশ
বনদ
##জর
অনষঠিত
##থি
মোহ
##েরে
সরকারি
##ণড
##েনে
কাম
##াডে
সির
আসিযা
##শাহ
##জনের
নার
##াযী
সতয
##ধা
সকালে
হওযা
তথয
খান
চেযে
কন
##ডিযে
##াতা
গরহ
আকরানত
ভারতের
পরাণ
##যম
কোটি
##সং
শনি
##ীরঘ
##াসথয
##িজঞ
আহত
নারী
সেন
যাচছে
##ফা
১১
মহান
তৈ
পরারথী
রাস
##ীরে
দাড
পরসত
ছিলেন
যাবে
মস
শিলপ
ভো
দীরঘ
আবদল
বদধ
লকষ
##চিব
যাই
উপজেলা
##াজী
করপোর
ঘোষণা
বলিলেন
আনতর
মহাস
দিনে
সকল
দেখে
##শোর
##চছেন
##ঙগল
##তিতে
##ঙগা
##কারী
চাই
পাক
কী
দাবি
##মল
পরেসি
জিজঞ
সকাল
হক
##কাপ
হল
দিযেছেন
যোগ
উৎ
##ঘট
যক
রাজশাহ
ফল
আব
এস
হে
বলা
থান
##িসি
##জাতিক
ইং
বাজার
দকষিণ
চৌধর
ওর
##এম
জা
##যোজ
##ৈতিক
কাপ
ঘর
##যারি
পেযে
সথানীয
##ভব
##ভে
##যাস
আনতরজাতিক
সবাই
##ালী
এসব
এতে
হাসপাতালে
##লেই
##াকর
চলছে
বিশববিদযালযের
##ামমদ
সাথে
মাধযমে
সবাসথয
বিষয
হওযার
হইল
ঢাকার
##ারি
##হে
##গত
পান
##েষটা
##পন
##শর
##োজ
জানিযেছেন
দটি
১২
একে
পলিশের
পরব
আটক
সাত
হাই
##শে
##িদ
সরকারের
মখে
যব
##ডাই
করবে
##টিতে
সমমেল
##চনা
অপ
মাদ
বিশবকাপ
##পকষ
পরশন
জয
##বায
মামলায
পরতিদিন
##াপা
##নৈতিক
অভিযান
বিমান
##াকষ
##সন
জল
সংবাদ
আট
গান
##ডেনট
রাষটর
##োপ
দরঘট
রপ
লাশ
##আই
একই
অত
বসে
সতরী
আতম
##তমান
##মাকে
সালে
লিগ
দায
ফের
লেখ
##িনী
##ঠন
উপর
মামলা
নানা
শরমিক
##পরণ
##শয
##চর
তলে
সিদধ
##যামপি
হঠ
তত
##ঘর
##তাহ
মেডি
উপল
##কিন
রবি
##গন
আনদ
দবিত
যান
বন
ফেল
##চছা
উল
বরতমান
##টন
##কতির
##গঞজের
শকর
১৫
##লাল
##মেদ
##মব
##িযেছে
ইউনিযনের
##যামপিযন
অফ
মৌ
হঠাৎ
দপরে
##োভ
পরেসিডেনট
কমিল
##চচি
সরাস
বযকতি
নাট
পরস
সরাসরি
পাকিস
অতি
##মর
দিনের
বাই
##ানোর
দাব
বের
##বারে
অভিযোগে
##োনার
দবিতীয
##মপ
গাজী
সৌ
নেওযা
##বাধীন
ডে
ছাড
করছেন
পারেন
##দান
লাগিল
সমসত
সক
সালের
##থার
##কয
কারয
দী
##ছিলাম
নব
##দী
লে
সতর
##াজে
একবার
করিকেট
কারণ
দেওযার
বগ
ছয
আনদোল
শীর
যেতে
কিং
জীবন
পরিস
ফিরে
##ঞজে
##েরা
পারি
জিজঞাস
চযামপিযন
ফর
সেখানে
আলম
যকতরা
তৈরি
##তরণাল
এলাকার
বরিশ
নী
বিদয
খালে
চৌধরী
আসাম
উঠেছে
মনতরণাল
সারা
সী
নিরদেশ
##টাই
মধয
পরণ
কেনদরীয
ফলে
কখনো
##বাদিক
##মত
পরশাস
উপলকষে
থাকা
বোধ
ছবি
পো
##মণ
পরতিনি
পন
বিজ
ভোট
রযা
##ঙক
সাংবাদিক
গহ
ঐতিহ
সরব
বহস
আদালত
##সিং
উপসথ
মাঝে
বলতে
মহানগর
মারকিন
মোহামমদ
নৌ
পরিষ
ঘণ
কান
ভযা
##েশনের
দেয
মেডিকেল
বেগম
অভিন
##খান
মানব
এখনো
রাশ
বহসপতি
##জীব
আহমেদ
তাহা
##লোর
গিযা
তাল
ভয
দেখতে
##মাতর
করমকরতা
জাহ
টা
গরামে
বাহির
মাঠে
##ফি
##ছা
ভব
ঢাক
মারা
##ণী
তোমাকে
মজি
মঙগল
হলেন
ডা
চলচচি
দঃ
লইযা
এন
এখানে
দেন
##রথ
দরনীতি
হযনি
##বোধ
##চেযে
জো
##মখ
##পাল
খেল
রান
পাই
##পতর
##ামে
##যাত
##করা
রং
বযস
যাওযা
বযাংক
করায
##ষিক
##রত
পরয
মযাচ
শির
##ারের
বধ
আক
##ামা
করত
দেব
মাতর
##তারা
সবচেযে
চাহিযা
মির
নিউ
##গের
আযোজ
##বনদ
আলী
বিষযে
##াট
##ফে
শেষে
ওযার
কমিশ
কিশোর
সট
##িনদ
অবসথ
রোহি
মাদক
সংখযা
শিকষা
শিকষারথী
পাশে
এমপি
শকরবার
ধরনের
হাসান
উননযন
পরচার
কমিটির
মনোন
সমস
##শী
বাডিতে
##শক
দেখি
পডেছে
অবসথায
গলপ
বিজঞ
##াসে
##মো
দাবিতে
ধীরে
বই
##াযণ
জানিযেছে
নিশচিত
পরযোজন
বাংলাদেশে
অথ
যত
ওযা
হাসিনা
চেষটা
পরিবহ
বেলা
নিরবাচনের
##গরহণ
এগ
সবাধীন
##টো
##ঘাত
দিবস
পশ
১৪
কারযাল
##জার
##পরিয
বিকালে
##যকত
বিদেশ
##ণঠ
##কম
##লী
করোনাভাইরাসের
রায
##ভর
সবার
কোথায
শনিবার
শীরষ
ভাগ
শতা
জানি
রাজশাহী
##বেদ
##াদা
নিতে
##িব
বযাপ
লো
খালেদা
সিদধানত
##জের
সাডে
মামলার
##াসের
##গরিক
কহিলেন
ময
দাযিত
চাপ
মেযর
বহসপতিবার
পানি
##চল
বযবহ
##পলে
##মবার
রহিল
পল
##সার
বেডে
ভল
##িযায
হলেও
পরো
শাস
করমস
##আর
করমী
পরক
অনযতম
শহরের
সিলেট
সমপরতি
ডাকতার
ফার
তাহাকে
রম
উঠিল
চিন
এটি
শা
##টিং
আসনে
##শেষ
হযেছিল
তর
##গঞজে
সনদর
এটা
শরে
##সল
পরতিনিধি
গেছেন
উই
##টস
লাল
##দদ
রবিবার
##রিদ
##োধী
মযাচে
সপতাহ
##তানের
##ষের
##কেই
উদযোগ
একাদ
অভিনে
সমযে
একদিন
হতযার
ছে
##ামান
##ধে
##বেদন
আসতে
মাথা
কষে
##হের
পারটির
রাজনৈতিক
দাম
##ণিজ
##নাথ
##তরীর
থেকেই
করিকে
সিনেমা
কেবল
ফেলে
##েনদর
কাট
ঐতিহয
##দধা
কঠ
##তবয
নাগরিক
কমিটি
##যাপী
##ধার
জিজঞাসা
##থাপ
বিযে
##নাকে
পতর
##নদে
খো
##াযক
বিশববিদযালয
জেলার
পরীকষ
বাণিজ
ধরষণ
##িনার
##মক
##াসী
বসিযা
১৮
বিস
পথে
রেল
বৈঠ
##ডিও
বিভাগের
আরে
সমাজ
কিছই
একাদশ
টাকার
##াতের
নিরম
পরিবর
যাব
থাকতে
জনপরিয
নগরীর
উচচ
অপরাধ
##ফিক
জায
কোথা
বান
বিকষ
ধরম
##রাষটর
মিনি
পাশাপা
##নত
পাশাপাশি
জি
তদন
##ষয
অফিস
নিঃ
তোম
গোল
নারাযণ
##লীগ
নিরমাণ
২৫
ভরতি
সষটি
সযোগ
পৌর
আসামি
সাই
পরতিষঠান
চপ
##লিতে
সংশ
বসনধ
সৈ
##শীল
##পত
##ঞচল
মঙগলবার
##হীন
চলা
পরিবহন
##িরা
বিশবের
##হর
##ডায
##বযাপী
##ীকে
##খানি
পরিচালক
দাযিতব
গরহণ
সংঘর
শিকষক
জার
দজন
##গলোর
থানার
নাকি
##যেন
পকষ
সংসথা
##ণয
##িনীর
বধবার
সাকষ
যারা
যাওযার
ছাতরলীগ
হোক
##খা
বাইরে
হারিযে
##কারি
বযবসথা
##যাগ
সবামী
উপজেলায
বোর
সাল
দেশটির
আছেন
##বাল
বলিতে
ধার
৫০
কাজে
কমিশন
##ঠি
বিন
কষম
নমবর
মাহমদ
জাতি
##াবাহ
উদবোধ
চোখে
লক
খেলা
কষট
##গার
পরতিবাদ
পরিসথি
রাশির
##ধযে
১৬
গাডি
যেমন
##পরাপত
##োরে
সখ
নাটক
##াজিক
বরাহ
##নাম
দঃখ
কাদের
##বাজার
##চা
মালিক
যকতরাষট
ইতিহ
আজকের
##জজামান
দোক
নেমে
##উদ
পরেস
সোমবার
বিশবাস
মখের
শো
সাজ
##িযাল
কাছ
##সিল
ছেডে
##ভীর
##িকত
##চয
নিযেছে
নামের
গেলে
ঐতিহযবাহী
পালন
##নির
অনযায
পরিবেশ
কেমন
পরিবারের
মনোনযন
ঘম
নিযন
শত
##িসট
দরত
##মনি
মাছ
জম
##ময
##ফোর
উদদিন
আসে
সীমান
দো
মহাসচিব
উঠিযা
পরতযা
জবাব
১৩
বাসায
বাডির
পশচি
##োনাল
আললাহ
জমি
অচ
##ধব
##ানতি
ভাঙ
তোর
মতযর
বিল
পরকলপ
আযোজন
তব
শভ
##মধযে
আসনের
##শার
সথানে
অধযাপ
খাদ
জনগ
কাদ
করবেন
সামাজিক
মহি
##িট
যবক
##শিলপ
সটে
সেত
চলচচিতর
এগিযে
হাসিযা
কযাম
সংকরম
ভালোবাস
কাউন
মাযের
##নড
##িনের
চর
পরীকষা
##েলের
##যেল
টরাম
খলনা
সতযি
শরেণ
করপোরেশন
গডে
চায
পরভাব
বযবহার
সমা
ঢাকায
২৪
অধযাপক
ঘটেছে
বক
শিকার
পায
##িং
##ভাগ
জিযা
বযবসাযী
অভিনয
মিথ
কোরট
বাল
##উল
##েনের
অযানড
##তল
##ৈধ
রাজধানী
অবসথা
সবা
কোথাও
বিকষোভ
শবদ
অথচ
অবৈধ
শনে
##খানা
গরতব
সংগঠন
বরিশাল
##িকলপ
বাণিজয
##ইন
পকষে
পাঠানো
হামলা
দলীয
চাদ
সনধযায
ফোন
তরণ
এসেছে
বাজে
মাসের
সপর
##কান
##ঙকা
##িরে
সনতর
কামাল
ঐকয
কথ
##দায
সনি
##ডিত
পরিবার
থাকবে
বরাহমণ
##তরক
চাক
সেদিন
##বারষিক
এলাকা
##ণা
##গান
যাতরী
আপনাকে
আলোচনা
হযত
বাদ
মনতবয
থাকার
উদদেশ
অনষঠানে
উপসথিত
নেতত
বলল
##পাডা
ইনটার
সনধযা
একেবারে
##বত
কমল
##মিন
টেসট
শহী
##তাদের
বিচারপতি
##েলি
মহাম
রহমানের
দদ
শকতি
লাই
##যাশন
মহা
বযসত
ইউর
আত
২১
##এফ
##মিযার
ধারণ
একস
অনতত
হন
এমনি
##ছাডা
সমন
আদালতে
আনদোলন
খন
শে
সল
##পলেকস
অপে
কণঠ
ইতি
উৎসব
১৭
##ষা
##ঙগি
বিকাল
##ালো
##াযন
পরিমিযার
পিছ
বসনধরা
সটার
##গরে
করপোরেশনের
গল
চরি
রযে
তারকা
##েনার
যৌ
##ষধ
জর
বেসর
##নীতির
কষেতরে
জাতির
পনর
##কারে
কিংবা
হযা
ধান
##যদ
পডা
বাসতব
যার
বাব
##বাডি
ঘরের
চী
জিযার
শার
##শের
দিলেন
নদী
বেসরকারি
পরারথ
সমসযা
আদেশ
হাজ
মারচ
সচিব
বিপর
আলা
ইযা
মযান
সপোর
চেযারপার
ইত
##বলে
##কদের
করতপকষ
তারপর
বকত
নিরাপত
পরযা
তাক
রাখতে
পরিচয
মিযা
##চাল
ওযে
##বরতী
আহবান
চালিযে
সমমেলন
কাহ
আচছা
খেলে
##াদার
২০০
তদনত
আগের
জানায
##াযোগ
অবসথান
বাধা
মাথায
আফ
ফরিদ
##াতার
বাংলাদেশি
##মিতা
আয
দেখিযা
নিজেদের
দীরঘদিন
শরী
কষতি
আগেই
ভারতীয
##গাও
হো
##জল
এরপর
##ঙে
৪০
##মনসিং
আকাশ
কপ
ছডিযে
করলে
অনধ
##ামল
খর
কযা
তাহলে
দাডিযে
টানা
##বদধ
মযমনসিং
দফ
বাক
পরিকলপ
ভিডিও
ইর
##চাত
ততীয
করমসচি
জোর
মানে
##াসহ
হাসপাতাল
কলাব
##ৗশ
চলতি
করিলেন
নদীর
অনি
##কো
##ঙখ
পারব
মহাসড
কক
দরঘটনায
##বাড
সনতান
পলা
আইনজীব
আসছে
বললেন
পাব
কষণ
তেমনি
আযোজিত
শতাংশ
##ঠনের
আরেক
টাই
ফি
ছি
তই
হাসপাতালের
##পথ
##বিষয
##িলের
লিখ
রযাব
রকত
মাসে
বযাংকের
মজিবর
অনর
গরপের
##দয
##েনি
পঞচ
##দরশন
সরবো
চিকিৎসা
যাহ
##টিক
##াবাদ
বিদযাল
কেহ
নিরবাচনী
মকতিযো
চির
দিনাজ
কারাগ
শহীদ
##ততি
##ীকার
##পণ
আসা
জনমগরহণ
পরবেশ
সথাযী
জিন
নিক
##যদধ
##ডাইযা
##বধ
পরদান
সেটা
রাজনীতি
খার
##শিযার
দবি
হর
##করিযা
যকতরাষটরের
সবি
রাগ
গাছ
সিনেপলেকস
হওযায
দখ
বদ
অসটর
এদিকে
করোনাভাইরাসে
কমার
পদে
##দরে
সথাপ
##ভাবিক
গেলেন
মোট
বাজারে
বাচ
##লিম
নিরবাহী
##ষঠান
ওযান
##খালী
পরাথম
থানায
##টিকে
সিরাজ
পরাথমিক
সবপন
উদবোধন
গলা
দষটি
##গো
খাবার
##লযানড
২২
মধমিতা
নিখ
##জান
##িযাছে
##িতয
মেযের
পরতির
বষটি
##ভোগ
##ানির
##ধানে
পেযেছে
সৈযদ
##যাশনাল
ঠাকর
কোমপ
বিকরি
খাত
কারযকরম
আবারও
উন
চান
##রল
##োধে
সাহে
পরষ
নেওযার
পরসতাব
জনের
মনতরী
পডিল
টেন
##সাই
পথিব
বযবসায
ডর
তাতে
গবে
সরবোচচ
রংপর
##ংস
বছরে
চেযারপারসন
##োড
জেলায
অতযনত
##সবাজার
ককসবাজার
##হন
সমভব
কলক
##ৈর
যোগাযোগ
থাকায
বাডছে
##মনতরীর
আননদ
ডিসে
পেশ
##ভত
জনযে
লকষয
সপোরটস
নিযম
খেযে
ভেঙে
অতির
ইক
আগামীকাল
২০১৮
ধন
পরবে
##ইউ
দরঘটনা
লেখা
সৌদি
দপর
কাটা
শরীর
সমমেলনে
দমন
লডাই
##বযকতি
ওবায
লাভ
২০১৯
##বারষিকী
গাড
##িতির
পাশচাত
মনতরণালয
গভীর
পরতিবেদ
থাকিযা
##যানডের
তী
ভারতী
রাখা
হাট
ফেসব
অধি
সভায
ইসলামী
চনদর
আসন
##বনধন
ধরষণের
অতিরিকত
টান
সমরথ
নিরাপততা
##দাস
মজ
ওবাযদল
সেবা
##মাধয
মাঠ
কমিললা
কারযালযে
রযেছেন
থাম
##পাদ
##লিষট
##লকষ
##িতার
হাসিনার
সহযোগ
পরিবরতন
ওষধ
##মেনট
জানতে
##সিক
সপার
##শিলপী
এনে
কেটে
বিপকষে
মধযেই
চযা
পাকিসতান
জেনার
নিখোজ
ইহ
নাজ
কাউনসিল
নো
জাতবযকতি
বোঝ
নাস
##ষেধ
বাধ
মোক
ইউনিযন
সটেডিযা
সাব
##পরতি
আশা
অপরব
নজর
মাই
সিনি
চিঠি
##যী
##শবাস
দেখিতে
পাহ
হাসি
ইংলিশ
##যানমার
##উদদিন
সনদে
মিযানমার
তলিযা
হম
আমের
আপন
কষি
অজ
##পাড
##সী
কমিললার
পোশ
নিযোগ
চটটগরামের
##মস
##গধ
সিনিযর
আধ
উৎস
সেরা
মেঘ
করলেন
খাওযা
ধরা
আগন
##াকিব
গলি
##সময
মনতরণালযের
##যত
##জডে
করোনার
ভগ
সরেশ
##মিটে
তিনটি
মনের
##ামর
##পরা
##নদা
সমপরক
বিনি
##কটর
সংশলিষট
অসটরেল
করোন
টরাক
অনযাযী
কথাটা
থাকলেও
##বাসী
লিমিটে
ভেবে
পরসততি
টেলি
মকতিযদধ
জেনারেল
খলে
##ঙকার
নিষ
টেক
অভিনেতরী
গার
বাতি
মসজি
পরিসথিতি
##ামের
##াইতে
কলেজের
রকষ
সমযের
বগডা
যাচ
চলিযা
নান
##ণঠে
##িলি
পডিযা
##াধীন
সংকট
বযাপার
ঈদ
##খাল
সমমান
ভিতরে
অঙগ
অধিদ
##শেষে
দৌ
তেমন
কমিশনার
খাদয
##োযার
অধিকার
##হাট
বদধি
মিরজা
মহর
অবশয
এরই
##জনকে
সিং
ফেবর
দিলে
শরেণির
খারাপ
##চের
হামলার
##েস
জানে
নিজেকে
আবেদন
##বলীগ
আকতার
জরি
জডিত
##রির
চিতর
##ভো
বযবসা
চড
বসত
মহিলা
নোযা
মদ
সভা
ফিরিযা
বিষযটি
বরতমানে
আফর
চকর
কাউ
আদালতের
জামাল
অচলা
অগর
পাকিসতানের
ভযাবহ
##সিসি
লিগে
শিরো
কঠিন
##োনালড
আবল
টরামপ
##ডির
##ামীর
পররাষটর
করেই
অযাড
##ঙখলা
যদধ
যবলীগ
##ছান
সমভাব
ডিসেমবর
কমে
করো
যগম
শিশর
থানা
##িকায
করী
##টিউ
##কিং
নিরাপ
চোখের
##ফার
সংঘরষে
##ধিক
##তরি
ছাতরী
##সংঘ
বিদযৎ
গঠন
কবির
দোকান
জিতে
##বিক
##শিযা
##োহ
পারবে
পেছ
বযাপক
##েনস
যেখানে
করিকেটার
শানতি
##গীর
জীবনের
বঝতে
অধিদফ
মোব
মাদরাস
জাতিসংঘ
ডিজ
ধাক
৩৫
করমচার
বিরাজ
পোশাক
##গঠ
##লেখ
##াকত
বিপল
সই
২৩
বৌ
শহর
##াননদ
আসি
##জনয
বযব
বঝি
ইতিমধযে
##চারয
##গলোতে
##ডাতে
ঘণটা
সবাভাবিক
গরতবপরণ
ডোনালড
পরধানমনতরীর
##সথান
##বনদর
জামা
এছাডা
সংগীত
উভ
জঞ
পরতিনিধিদের
চরম
২৬
বিধ
উতত
বযবসথাপ
যাইতে
জঙগি
##েক
##থমে
গোলে
##াঙগ
বাঙ
কিনা
সহকারী
চাকরি
##বন
লিখে
টাঙগ
ছাতরলীগের
পাস
আগসট
পরিচালনা
ইহার
মড
##ইল
কারও
খেতে
নেততবে
##চরণ
হইবে
কলযা
পণয
বিব
##নালে
সমাবেশ
কথায
যথ
২৮
##পল
ইসলামের
সত
##শনের
##সটি
জীবনে
জগ
##াযার
সংক
##শালী
একা
বাবার
দেবে
পরিণ
ঘটনার
এদের
বটে
##াময
পরিয
শরীল
সোহ
জমা
নিষেধ
আনি
চকতি
অসসথ
জানযারি
##লোক
নও
##ওযে
পেতে
##লাইন
গড
তরা
রাম
##রয
নিরবাচিত
##কিছ
সডকে
##যমতে
হাজির
##ষিত
##টাকে
উৎপাদ
নিউজ
সহায
পাশচাতযমতে
##তাম
গাজীপর
সকলের
বাকি
সাদ
##াবে
বললাম
রোহিঙগা
ওঠ
দিক
##মকে
সমপরকে
পরিষদের
বিজঞান
শনিযা
মহামারী
ডবে
বাজ
##নাই
##িসটার
কাঠ
যাচছেন
সবামীর
বিযের
পাখ
মিনিট
পরের
রব
সংসদের
বযাট
##টিযে
##বিরোধী
পরযকতি
বিবাহ
সংকরমণ
বকে
আমির
সফ
গৌ
সিরিজ
দবার
ভযে
মাত
পরমাণ
বাছ
##াবর
ভিতর
কালো
ভোটার
তাকিযে
সমি
হইযাছে
থাকলে
মানষকে
কমিশনের
লকডা
৪৫
##নো
বেডেছে
আইনজীবী
একমাতর
বললো
বলেই
সোন
হযতো
দখল
রাজলকষ
অনষঠান
গাযে
##খযাত
নীর
পিতা
##তাই
##াইনালে
বলছে
##চেতন
পেযেছেন
পরশাসন
ভবন
নীল
##বিদ
নাটোর
ইনটারন
এল
নই
সংগরহ
পৌছে
পানিতে
পরসকার
দরে
যশোর
রেকর
##ঞচলের
ঈদের
শানত
##শবদ
##সেল
##েরি
##বরাহ
চিকিৎসক
##নিরবাচ
অগ
দরকার
অবযা
এপর
উদযোগে
এফ
ভোর
##বিনদ
শহরে
জিনিস
জলাই
ফেন
সবাধীনতা
মকতিযোদধা
কারাগারে
##গল
##িলো
মোটর
সেনটার
উললেখ
ফাস
শী
##তানি
গোযে
বাহিনীর
অতিথি
##ফরন
আলমগীর
মলয
রাষটরপতি
বগডার
বযাপারে
সোনার
গরপ
ধরিযা
কযেকটি
দদক
##জেনট
মখো
পযেন
২৭
করব
আসনন
পরান
দরশক
তোমাদের
##যাদ
##বাডিযা
কিছকষণ
দেড
সবজ
শিব
##ঘা
সেতমনতরী
অনতর
জানানো
টরনাম
##ভিড
##পো
জারমান
মনদ
হিস
##যকষ
##তনে
##ফের
##বিতর
##মিটার
শিকষারথ
নদীতে
সফল
##বছ
পরথমে
বিতরণ
শেযার
চকষ
জারি
আসার
হতো
ফিল
ভাইরাস
উপা
অবশেষে
পরিচিত
দাও
রাসতা
##টিভ
অনমো
কট
একাডে
পরিষদ
অল
বোন
পরতিপকষ
অসতর
সনতরাস
দৈ
ভাস
মণ
##নগর
পারটি
নিজসব
১৯৭
নিশচয
ডেকে
পারিল
আছি
মেনে
হাল
শিকষারথীদের
##গঠনিক
##তঃ
##তনতর
পারেনি
ঢক
সারভ
##কটো
জনকে
লাগে
##খয
রাজধানীতে
জামিন
মোবাইল
জযা
##ছিলো
সাংগঠনিক
করল
পৌরস
ফেবরযারি
##যনে
##দিনে
কলাবের
আমিও
গাজীপরের
যকতরাষটর
ইনি
আসিল
কাজের
রাখার
রোগী
##চালক
বীর
গোপাল
সথির
২০২
অনযদিকে
ইউরো
মোকাবি
উচিত
##টিশ
ফটবলার
ফেলিযা
ফাইন
##ানস
সাংবাদিকদের
পাচার
##ীগঞজ
সেনাবাহ
পরিকলপনা
##েনটের
নাডিযা
##করণ
মানববনধন
করমীদের
অকটো
কোরটের
চডানত
##িশ
##িকের
দিদি
##লাইহি
চিনতা
দোষ
সপরিম
##চছেদ
##ষটির
জাযগা
##গায
নেতারা
অধিন
##দেহ
##িকভাবে
##বরণ
আনা
এযার
তযাগ
##চাপ
তালিকা
মিথযা
তহ
বিদায
নিজেই
পবিতর
##িকর
সামর
নিরমিত
ইচছা
সরে
করণ
অনযান
নিযেছেন
কাউকে
রেকরড
ভম
##োদ
##লাস
##উনড
খেলতে
সোনা
বলছেন
চযান
বাম
হরি
##ংক
ছিন
ভোগ
##মখে
পাওযার
পরতিযোগ
খজে
তাম
শামী
##তাব
##জজা
##াপন
##দিনের
বৈঠকে
অপেকষা
ইনটারনযাশনাল
ইচছে
ওকে
ঘিরে
##পিএ
কাজী
লকষযে
পরীকষার
পরিণত
উপরে
এলো
লজজ
হচছেন
##শনে
##চনায
চটটগরামে
সাহেব
##জিযা
কয
রাজি
অরথনৈতিক
পরকাশিত
বৈঠক
অনযানয
গানের
দাযের
ফলাই
ইনডি
বেন
ইননা
কারযকর
ইতিহাস
জনগণের
চীনের
তাড
পরিমাণ
পরতিবাদে
দলে
নারাযণগঞজের
পযা
পাইযা
পরেম
অধিক
লকষমী
অদ
##তরিক
পরতিটি
সাকষাৎ
আমিন
##ীরণ
##সান
##াদি
নিচে
মখোমখ
সহিত
##পোরট
সটেডিযামে
ভিনন
##টোর
কাগ
পরসতত
লেগে
শিরোপা
##থির
##টেন
##ৎকার
এরশ
হোসেনের
বিদেশি
জররি
বাছাই
রকষা
সবে
বিরোধী
ডেঙগ
এপরিল
সংকরানত
গোযেনদা
##উর
##াজের
বনধতব
কনযা
রকম
##মনা
পরদরশন
উপদ
কিছতেই
মৌস
রোহিঙগ
তৎ
ফখ
সফর
##বযে
তাহাদের
মসল
চলাচল
##িষট
##চক
ভালবাস
বাহিনী
ইংলযানড
জঞান
দীডাইযা
মখোমখি
তিনজন
আটকে
ওযেসট
আদর
দটো
বনদর
##জায
সবীকার
##ঞচলে
গাই
##নদের
##ফিজ
আসবে
##মানা
বিশিষট
দরবত
বরাজ
চলবে
আবাস
চতর
দিচছে
মিলে
##ভাবেই
অরথনীতি
নিযনতর
##ষক
##উনি
বরণ
ফেডার
গযাস
সংসকার
বলিলাম
চিকিৎসাধীন
সনদেহ
জট
পাইল
##নয
##লক
##ছো
##কালীন
নেত
রেজা
রাজলকষমী
কবি
##কৌশ
##মানের
আহমদ
চাষ
সংগঠনের
বনদনা
নিঃশবদ
সযার
##বক
##মির
##কষেপ
সমপদ
##াধিক
আবদর
আখ
পট
##গরসত
কোচ
মডেল
অধিনাযক
কানে
তরি
##েনদ
নিরযা
বাহিরে
##ফিল
এইচ
গঠ
শের
##এই
হাতের
##িলোমিটার
আড
##পটে
##াদর
গণমাধয
বনদকয
বিসতার
অযাডভো
মঞচ
দরনীতির
##ঙগী
পরতিমনতরী
খোলা
আফগান
ওস
জাল
৭০
##বাগ
পডেছেন
বিশববিদযালযে
কঠোর
ঋণ
##করে
##মহ
##মকত
বেচে
মখয
হামলায
বিসম
গোটা
সহজ
পরথমবারের
পথক
##খার
যাও
উততে
আডাই
##মিত
বযসী
ধারাবাহ
ফখরল
অযাডভোকেট
বযে
করেছিলেন
রাখিযা
টরেন
বরিটিশ
কাপড
অবযাহত
ঝকি
জানেন
থাকি
হাউ
##ঘাতী
ওযানডে
তীবর
হজ
##শাস
কষমত
কেনদরে
ইকবাল
৬০
সমিতির
কারাদ
পরযাযে
দফা
ভযান
ভোরে
##সযের
##গিত
##শিযান
সবিধা
চীন
জযের
নভে
##ভকত
করেছিল
সবরাষটর
পারবেন
আঘাত
##াসথ
##াসীন
এবারের
সতরক
##নতি
##সতফা
সারভিস
সসথ
##মতি
বযরথ
সথগিত
বঙগবনধর
কাউনসিলর
চাকর
সতরে
##লিক
পডতে
বিচারক
টার
##ীতি
দেখন
আরথ
##িতেছে
##করি
আসাদ
শতাধিক
##তবে
##ললাহ
কাশ
কষক
বেশী
নৌকা
আগরহ
ওসি
ওঠে
শব
৩২
সমরণ
বেধে
সবাইকে
বিদযমান
আপনাদের
কব
শীত
##পরত
উদযাপ
অনেকেই
ভোটের
নিরদেশনা
কযান
জব
ভকত
হেরে
মেজ
ভারপরাপত
পরতী
সডকের
##এসসি
বদলে
কিলোমিটার
ভাষ
আলোচিত
নরল
অকটোবর
ষোড
মিডিযা
সিলেটের
নারীর
##চরয
##ভিত
চলমান
শয
বিজি
আযোজনে
কযামপ
নিযমিত
##মীর
করমীরা
অশ
উচ
কভিড
সবাকষ
ভারতে
##ছাতরী
কষমতা
ঐকযফরন
বিনিযোগ
পিস
অভিনেতা
নসর
পছ
সপষট
বলিউ
ধারণা
##সটিটিউ
অবর
রঙ
রিজ
##কাব
পরকৌশ
##টিস
ফটবলে
নিযনতরণ
ওপ
ঘা
বযকতির
ইনসটিটিউ
কথাই
জরিমানা
অনমোদন
##থর
##কলা
গেলাম
কষমতায
বউ
##লিযা
##ঞা
##েনা
নেয
বিরোধ
অসহ
আহবায
টিভি
আহবাযক
##জনে
##ঘাট
##েনটে
সমালো
মনো
অরথা
আইনশ
আনদোলনের
নষট
পিযা
##সটে
দেখিযে
গোলাম
মিলনায
ফা
দিনবযাপী
সাহায
অজঞ
ছবির
পত
মছ
##গলি
##রেট
কারখান
নারাযণগঞজ
মযমনসিংহ
বযবসথাপনা
৩১
##িতেছিল
উপদেষটা
গলায
যকত
##গির
##ঘাতে
পরযোজ
বাগের
পাবে
ওরফে
শাসতি
জাপ
ফাইনালে
বায
সমবনধ
অনেকে
একটখানি
শিরোন
ধারাবাহিক
এরা
পেরে
রিযাল
হাক
সংসারে
করিম
পথিবীর
জবদ
নেন
২৯
##িলাম
##তক
##েশনে
সমতি
আনষঠান
অসম
নিরাপদ
জিম
নযায
##মশ
##কারীদের
বাসা
লোকের
ভিত
##বলি
##কেটে
##বেল
##াসট
নিমন
চালক
বিসফোর
নিউজিল
ইমর
চমক
জোট
মশ
##দির
করিবার
ছিলো
সিলেটে
দাযে
পতরিকা
রিক
করিস
সংর
বিশাল
আশরয
চলেছে
উননযনের
ছেলের
##াদে
ঘাড
বাত
গঠিত
সিন
##শবর
##যোগয
অভিযানে
দরবততরা
আইনশঙখলা
জডিযে
ভাডা
ভবিষয
বিশবকাপে
আও
কবে
পোস
ভরম
পাশের
মাহব
রাসতায
##নদী
বেরিযে
মহাপরি
নিঃশবদে
পয
পাপ
আরি
##মলক
রাননা
অনধকার
##খালীর
তান
হেল
পরতার
মাকে
খলনায
সীমানত
ঝিন
লই
পরনো
মজিব
তোমরা
কপিযে
মিন
সাকিব
##জির
##চির
রমেশ
ছিনতাই
কষমতাসীন
##মমদ
বললে
থাকেন
অলপ
ফোর
লাইন
নিরমা
আশচরয
##বাডিযার
সমার
অবাক
শাহজা
পী
সিক
##যাক
পরাক
##কালের
দেখিল
বনদকযদধে
সবজন
ফিরিযে
নিষেধাজ
অভাব
মহিম
তাও
বিজযা
দয
দাদা
বাপ
বলেছে
সদসযের
বিমানবনদর
বাতিল
সবাকষর
আইনের
ভাবে
এতো
জাযগায
অরথাৎ
কই
লজজা
##জিসট
বাং
##াতায
##জনক
সপতাহে
##ডাইল
পাযে
বরগ
নিহতের
করীডা
জবা
##ঙকর
করন
পরিশ
অযাস
শাহজালাল
ছটি
মতে
##এক
##িনদা
##কতিক
নভেমবর
শাম
##ওযান
বিদযালযের
ফস
##াকস
মিছিল
মরযা
ভবনের
তবও
করোনায
তরাণ
##কণঠে
সেপটে
বিজয
বিদেশে
মোটরসাই
বাগ
আরো
রাঙ
অরথমনতরী
যবকের
##মখী
বিজঞপতি
আধনিক
##কির
পরচ
উপায
বরাহমণবাডিযা
মিলনাযতনে
পরম
পরও
জনস
গরতর
আনতে
সপযান
বরাহমণবাডিযার
উনি
শবাস
##হান
##বাগত
বিশবে
দরজা
##সিটি
সকলে
গবেষণা
ফেসবক
ফাইনাল
ভমি
শক
সবরণ
বরষ
আশবাব
পরশনের
রোগীর
শিলপী
আললাহর
কাহার
মকতিযদধের
নিরযাতন
টাক
বকের
করেছি
সাগর
সনাম
ইংরে
পরশাসনের
বাজেট
আতঙক
চতরথ
##দানি
##তরাজ
পাঠিযে
কডি
ফো
হজর
##ডিতে
##ালার
বহত
##উজ
##ানতর
বেতন
##ীবন
অরজন
চারটি
##তানতরিক
ফারক
শারীর
ভমিকা
ঈদল
চক
নন
সেঞচ
##গরি
##বসত
বিশবকাপের
ভবনে
##বনদরে
চযালে
মোকাবিলায
ছট
রসল
##ওল
##যাট
দেবদ
মানিক
শরদধা
কিছটা
আদায
উদদেশে
টাইগার
পাহাড
উপাচারয
কলপ
খেলার
##ামার
##লিং
বেশির
সদসযরা
চালা
রাসেল
রাজশাহীর
কৈ
কেজি
অপেকষ
অসটরেলিযা
শামীম
কথার
জিত
লল
##ঙগের
আসেন
সহসা
সমপরণ
মসলিম
মহাসডকের
কোমপানি
লিমিটেডের
পযেনট
সচেতন
##হরণ
##াইদ
##িকাংশ
বারসেল
১০০
চাহি
নিতয
রাই
##গরী
এমনকি
জীবাননদ
আবদললাহ
পরকলপের
আফগানিস
গজ
ঘন
ডলার
মিস
##হারা
আরব
##তবড
ইউপি
সমপনন
জাহাঙগ
ইযাবা
খাতে
গলো
হি
##ানী
পেছনে
##ভিততিক
জাহাঙগীর
অবি
আকর
এভাবে
জজ
জবর
বযার
৮০
##কাতে
আজও
পৌছ
নেতরক
এলাকাব
অধিকাংশ
পডছে
অরথবছ
##ফিকল
দিনাজপরের
নজরল
সহাযতা
হসত
পরামর
##বেগ
গোবিনদ
যাযনি
খলনার
আলাদা
চযালেঞজ
##কষম
আসলে
পরতিবেদন
দরযোগ
ঘোষণ
যকতরাজ
দম
##কষিত
##সংযোগ
উৎপাদন
তীর
নায
পাযের
##পথে
##ারস
পরাজ
পারলাম
মহামমদ
##চছনন
বদধির
দেবতা
বযান
##বিল
##াজন
মহমমদ
অভিযকত
মনতর
নরসিং
অপহরণ
পরীকষায
বকতবয
থে
মের
##ইযর
আরজেনট
আপনারা
নিউইযর
পনরায
অসং
হাও
বযকতিগত
বোরড
ইঞজ
সাদা
##বাই
##দবনদ
করছি
##াজি
রাশি
##োসিযে
যবককে
রমে
রহল
শনাকত
##বিষযক
বাঙালি
গৌর
মৌসমে
চোর
পাচছে
##দরশক
সংসদীয
পরতিষঠানের
মাদারী
ককসবাজারের
আরথিক
জযে
পদধ
##ভেন
##হতযা
পরতিষঠাতা
অকস
##িদধ
##তনের
একের
চৌধরীর
চযামপিযনস
##বাডী
ডিজিট
উপহার
দিলাম
সংসার
গোপন
সামান
কলাবে
রপতানি
সিরি
ধানমন
মাদরাসা
বিএস
তারি
পরতিষঠা
পদমা
সেনা
পরিসথিতিতে
নাক
পডি
রতন
##আপ
##লাপ
##বেলা
একাধিক
মেলা
সংসদে
ভালোবাসা
গযা
পাট
জিজঞেস
সংশোধ
নিষিদধ
টেকনা
কাব
যাক
##জাল
##াজা
বাচচ
রাখাল
খবই
পশচিম
আবাহ
ইলে
কং
পলি
করলাম
কৌ
কষদর
লিভার
ভরাময
টেলিভি
ওদের
ওরা
৫৫
##াওযা
##বিতে
##বলের
##ণীর
##কেও
সরবরাহ
তাহারা
আশঙকা
মরদেহ
মালযে
তালিকায
পরতযাহার
##পাডায
ভরামযমাণ
কমান
বেল
মহরতে
##লগন
সরয
আগনে
আজিজ
চযামপিযনশি
##বাজারে
সামানয
মেশ
রাহ
সাপ
##দম
একক
সবপ
২০১৭
সিলেকট
শকতিশালী
যৌথ
শিকষারথীরা
অযাসোসিযে
সান
আমদানি
সেল
যাতরা
কোযার
সাংস
শারীরিক
ঝল
দজনের
পেল
##দো
##করমী
##যোগী
জাক
##নযা
##কমার
##নেল
##েষট
##ষণের
নরেনদর
খাই
শৈ
##শনার
যাতে
যাবার
বযসে
##দিষট
বরং
ভাষা
জনগণ
নেততব
অলি
ইম
মকত
মকতির
চিহন
সাহস
বিপরয
টাঙগাই
খোজ
জেরে
যাদের
শটিং
##গলা
নিরযাত
নিরধার
বারষিক
বযবধানে
টরা
ঢকে
পণ
##গণ
##াদেশ
##কষণে
##িসহ
##টারস
উততরা
২০২০
সেপটেমবর
শপথ
সষঠ
##হাস
##খের
সফরে
ডিজিটাল
দারণ
হদয
যাতর
ভারী
##বাসীর
অনরোধ
পৌরসভার
লনড
##নিযা
##চনার
বিসি
বাধয
মতযবারষিকী
##পাশে
গহবধ
পররাষটরমনতরী
ষোডশী
সতরা
আলীর
ভিড
তথযমনতরী
লিগের
সখী
দষট
হচ
হিনদ
##পষট
##যাদি
কৌশ
মেযেদের
বরিশালের
নীতি
যন
হদ
##টাও
ডিএস
টিকি
ঠে
পের
##লযানডের
##জনা
##ভায
##সতা
##চন
দেবেন
##যানস
##ছিলে
বিকলপ
পানির
ফেরার
##মবরে
গাডির
খশি
জেল
রও
লেনদ
সশ
##শত
সবর
সাফ
সিদদ
লাগিলেন
ইতালি
হাবি
##হিত
##যাব
নেতাদের
যেসব
আকরানতের
উভয
খায
দেরি
মক
পরাই
বলো
##হাটের
মিনিটে
সামরিক
খানের
তেল
##সতর
##সটার
দিবাগত
##সবরে
##ঞচিত
শনয
কেনদরের
নইলে
এলে
কবর
হতা
পিটিযে
পাখি
দাস
##ধারণ
ধাককায
লকডাউন
জলে
বলন
শরীরে
শনানি
সতরীর
চাপাইন
সমাজের
##ঘন
আসর
যদিও
নসরাত
চাপাইনবাব
আবহ
জবাল
দোযা
মনি
##চেন
শরর
শনতে
ভাইস
বিভাগীয
রিমান
পরাণঘাতী
অফিসে
সপতাহের
অনরধব
কযার
ছো
##কানত
##চিন
##চিতর
পডার
এসেছেন
মযাজিসট
দাখ
টের
দান
বযথা
ভাবতে
পালিযে
নিযনতরণে
ওযাস
##িদল
##ডো
##াতন
নিযেই
পথি
১৯৯
ওসমান
কংগরে
##তলা
##পদ
ইউরোপ
ঝিনাইদ
নিষেধাজঞা
##নর
##সির
##সিযা
##ণডের
##ঘরে
বিবে
রাধ
আশরা
বঝে
বোরডের
হিসাব
অসহায
অসংখয
আপিল
কোনদিন
করিকেটে
পকষের
খরচ
যাহা
ইনদ
গতি
পরবরতী
বিছান
দযা
কিনে
বরাদ
রহিম
অরধ
আইসিসি
##তিকর
গিযাছে
নিরমাতা
রাঙামা
সমদর
সাফল
পরতিদবনদ
যানজ
গলশ
হমকি
অধিদফতরের
বাংলার
পকর
সঠ
মাটি
##রাতে
বযয
##ডিং
করিযাছে
মেযেটি
মিলি
রাশিযা
শভফল
পরতিবেদক
আচরণ
খনি
পানে
বসব
বিনা
মেরে
শোক
না৷
##বিধান
বলার
তাহাতে
মিযার
ডিএম
##শেদ
সরবশেষ
অজিত
উযে
শযে
##সক
যাবেন
চারজন
মেযেকে
যাবো
ভদর
##ভেল
মনির
পরশিকষ
কষণকাল
জেনে
করলো
বিতরক
কিছদিন
বডি
##লির
##জাহ
##চো
##িতাম
আতমীয
ফরিদপর
রোহিঙগাদের
পছনদ
পরভ
রাজা
সভানে
পরাচ
##ালিশ
দাডিযেছে
##লাললাহ
দবিজ
খাতন
কাগজ
বযারিসটার
নিরযাতনের
উযেফা
টযা
ধানের
রক
পরিত
##মনির
দরদ
পরেমের
বিশেষজঞ
বিমানবনদরে
সমভাবনা
সপযানিশ
হইলে
কীভাবে
তততব
জমিদার
সাহাযয
সতরাং
ফলা
করাই
করলেও
সনধান
সদসযদের
ভাঙগ
হামিদ
পরতিবেদনে
সবেচছ
##দিক
পরজন
##দেশের
অনমতি
মেসি
হাতি
মনোনযনপতর
বাসতবাযন
পথিবীতে
সাডা
আসছেন
রাতরে
কারো
ভাবিযা
সনধযার
রাসতার
সনতরাসী
দদকের
পথিবী
আবেদ
এশিযান
##ভাই
##ভারে
##েশবর
সদয
অনেকটা
পদত
শরমিকদের
যানবাহ
হাকিম
##িললাহ
উপনিরবাচ
বেদ
ইসরা
সমবনধে
কপাল
পলে
বরে
মঞজ
##ষকার
##াতাডি
সংসথার
##গরামে
করমকরতাদের
সাললাললাহ
কষতিগরসত
এশিযা
ভী
মতি
ইউনিভার
নগরের
পরিচালিত
পরশাসক
জটিল
পরামরশ
মযাজিসটরেট
বাট
মহাজ
অপরি
নাটোরের
নিরধারিত
ভিকষ
##যং
##কসি
বাঘ
রহসয
দশয
নীচে
উইকেট
কলযাণ
সাংসকতিক
অকষ
ওযাল
খাতের
##লভ
কিসের
সবকিছ
রেস
পালিত
##ভবনে
##থাপি
পঞচগ
আবাসিক
মোটরসাইকেল
অগন
পীর
হারা
হযর
মানসিক
বিশববযাপী
করিলাম
জাফর
ছবিটি
চাম
ডাকা
দবী
ধাপ
##নান
##ফাত
##তেও
মাশ
পেলে
পদকষেপ
লেখক
নবীন
##োহী
বিবতিতে
আবর
জমে
ধারা
##পী
##জো
রাতরি
সহজে
ফেরত
ঘণটায
টরামপের
সতযিই
পরতিরোধ
অযান
উড
জেলে
##মাৎ
মোড
ডাকাত
তলতে
নাটয
নেততবাধীন
ইমরান
রিযা
হায
##িতায
অনস
অসাধ
অনষঠানের
সৌনদর
মযমনসিংহের
দফায
সংকটে
আছ
##জয
##বেশন
##সেইন
নামাজ
সদসযকে
জনমদিন
সবাধীনতার
ঠাকরগাও
রশি
##ফরম
##তিত
##িলার
একর
##কাঠ
তোলা
উঠতে
ভাইযের
ফরিদপরের
দৈনিক
রেজাউল
এতবড
চেষ
বী
ভলে
সষট
সেমি
##দেশে
শরমিকরা
অবসথিত
ইতিহাসে
ইহা
##কণঠ
##াবাড
করমকরতারা
শিকষাপরতি
পশচিমব
পরারথীরা
অধিপতি
আহসান
##সমযান
এতদিন
##ছাতর
পরযোজনীয
দিনাজপর
এলাকাবাসী
গন
তথাপি
দেহ
সবলপ
অভযন
উঠছে
ছাডাও
মসলমান
ভট
##চনদর
জনযই
তাহারই
১৯৮
রমজান
তাডাতাডি
চনদ
টরাস
ফাযার
##মায
পরই
মাথার
##বরত
বাসের
কযেকজন
দিলো
ওযারড
একসঙগে
কলকাতার
হোট
##ানতে
পরবাসী
বেডা
মেযেটা
বঝিতে
বিষযক
গাডিতে
অবরোধ
##ওলানা
আলাইহি
মিজ
রানের
হসেইন
##তপর
নাহ
সোজা
সভাপতিতবে
ঘাট
হবি
##বীর
বিড
##রিদর
মেযাদ
##টরিক
##এসপি
মৌসম
পরচারণ
কাটিযে
গলিতে
জাগ
নিত
৩৬
রাজসব
শিখ
ভেসে
সথানীযরা
অথবা
ঘোষণার
গঠনের
তাপ
রোনাল
##কমি
##ভী
##গতি
##কেলে
কিভাবে
এইবার
কারা
বহি
বিভাগে
খানিক
এসো
কাননা
পরচারণা
পঞচম
অকসমাৎ
আউ
ছর
ঝড
রানে
বিজে
##াবল
##ীনদর
লিও
ভাঙচর
শভর
বিদর
গেলো
##চছিনন
চিকিৎসার
রাজশাহীতে
নিকট
জাতিসংঘের
আওতায
হজরত
সেমিফ
উজজ
জের
যগ
পরকরিযা
নিচছে
কমিউনি
দলটির
পরতিরোধে
শরীলঙকা
চযানেল
সেঞচরি
অটোর
জলা
##সবর
পাথর
মোশার
আনোযার
##দৌ
উপসথি
টানিযা
উদযাপন
ঠেকাতে
##টেড
বারতা
অংশগরহণ
সাতকষ
##ামলক
মিযানমারের
এরশাদ
ইলেকটর
ইঙগ
তণ
রই
লট
ষড
##ফন
নিহ
তালা
দেওযায
##বাবর
কোরআ
নিজেও
যবলীগের
দেবদাস
##নতরী
##ীবাজার
##সরগ
##োযাড
কারযালয
ধরমীয
দজনকে
অশর
এড
গম
টিম
##াশ
এখনও
সনতানের
কলেজে
রোগীদের
মাদরিদ
অনিযম
সমিতি
অজঞাত
##জিত
##যেই
##ালির
দরবল
ঘটনাটি
কারযালযের
গরি
তাজ
##পতয
##দধি
পরতিবনধ
দরভোগ
ঘটন
আলোচনায
ইফতার
খালি
##ঞছ
সবী
উননত
ভযঙকর
জোটের
শাশ
লালমনির
লিমিটেড
নোযাখালী
ঈদে
ধবং
রাশিযার
রোজ
পিছিযে
নীরবে
অটোরিক
বজর
৩৩
##ছডি
##াকারী
অনত
পাচজন
তালক
এনামল
ছটে
পরযাত
##িযাছিল
##াবন
হারিযেছে
তৈরির
পারিবার
ধাককা
গাইবান
এজনয
চাপা
টেনে
##পকষে
##সাম
জানো
অপমান
পনঃ
মনোনীত
বিদযালয
পরদরশনী
এশিযার
পিতার
##হল
##মাস
##ানর
পরিযা
মেহের
মিরপর
ছিলাম
পেশাদার
নিরমাণের
ছরিকা
নিহতরা
ছবিতে
##নযাস
##ডেন
মাযা
বাসিনদা
পাচটি
পরিষকার
বাসতবায
দরিদর
##দানের
##মতো
##কোর
বিপিএ
সংলগন
##রাট
##লামবর
##যনতর
নাটকের
অফিসার
যৌন
গাছের
থেমে
আবাহনী
##াসত
সেখান
##বরধ
সামপর
##লাইযা
রেখেছে
শিলপকলা
এএফ
তফ
ফলের
শেরে
##ংসা
##নিযার
##দরা
জানিনে
কষমা
ইরানের
লিখেছেন
টিকিট
মাশরা
ঘটনাসথ
##রী
##টেলে
বাডিযে
মাসটার
সলতান
আগামীকালের
বযাটসমযান
##িললাহি
পযান
##রো
##াসিক
লোকজন
মলত
আতঙ
তারিখ
##বরষ
উঠিলেন
বযাটিং
টিপ
বগডায
জাহান
যাওযায
রবীনদর
ইঞজিনি
কযারিযার
সভানেতরী
বংশ
শকত
শোনা
##ভাস
সেলিম
তারই
দলটি
গণতনতর
ঘোষিত
করমসচির
সচিবাল
নীরব
অঞচলের
মোর
শরি
৩৭
৩৮
মাগর
নিরধারণ
পরেসিডিযা
পরতিদিনের
##তাহার
আকবর
শাসন
সংকরমণের
ইট
চম
ডান
##দীর
মাটিতে
আসরে
পরতিবেশ
গরম
বসিল
রোড
ছোটট
গাজীপরে
নীলামবর
অনধকারে
বোঝা
অধিদফতর
আসাদজজামান
ঐকযফরনটের
তালকদার
পারিবারিক
অঞচলে
খাল
৪২
##মযে
উপসরগ
সাঈ
দেখার
সিঙগা
পরেই
মিউজ
চালানো
চালিযেছে
মিলন
মিথযে
কমেছে
ককষে
##যব
##জতে
##নিং
পাবেন
##টারি
শিগ
তখনই
অতযা
আতমহতযা
কিংবদ
##ামেক
পললী
সীমানতে
ফেসবকে
সঠিক
বসবাস
রস
##টনে
##লড
##তেন
দেযা
অনভব
নিরবাচনকে
একজনকে
দশমিক
কণঠশিলপী
জাদ
শযাম
##ধীন
একদিকে
সবচছ
দিযেই
বেঞচ
মহার
ছাডিযা
শীরষক
চযাডা
সবরাষটরমনতরী
চাহিদা
শিগগির
কের
মম
##যতা
পরদিন
আমায
##গরামের
ইনতে
##গলোকে
দীপ
পরিসথ
রেলওযে
খনের
##মতে
##ইট
##সটের
##খো
একানত
নেবে
পারছেন
গরাহ
শরণ
গেলেও
মোল
উঠলো
পারেননি
মরযাদা
##িকে
##শির
##বিধি
হইযাছিল
ফিরতে
ধরেই
রাতের
মিলিযে
পরারথীদের
হেসে
বারসেলোনা
টাঙগাইলের
ভৈর
##দত
##লেট
নিযকত
##কারীরা
নেতার
হযরত
অভাবে
দরতব
##জিং
অনেকের
বিকরির
সটেশন
লোকে
##পলেক
মনতরিস
অগনিকা
পরেসিডিযাম
ইসি
##াতমক
আহম
করিতেছে
রযাবের
সাজা
মাহবব
ইনতেকাল
কসম
সিল
সনে
##িলে
অনশীল
##টেই
মতের
ইউএন
সপিকার
সপারি
পালটা
ঘণটার
মসজিদ
সেনাবাহিনী
দধ
ভাবি
##বযা
##চছি
##ঙগার
বলবে
সিটির
কতক
ওযারডের
পরিশোধ
পরিসথিতির
বজায
সজন
##মনে
##জাদ
##খনি
##উথ
কারখানা
অভিমান
বাসার
##যাসিন
সেনাবাহিনীর
পরতীক
অপার
রয
##দিযা
##গডা
##বাংলা
##িসত
মামন
রাষটরীয
মৌন
ঐতিহাসিক
রংপরের
চাদাব
পরারথীর
মহাপরিচালক
অযাপ
সতব
পাও
নিরমল
পডেন
টরেনের
পরাঙগ
বযাংকিং
কলাস
শাখা
বেনাপ
কচ
দগধ
##খী
করবার
সমান
জনক
দিচছেন
নামক
চলচচিতরের
পিছনে
এযারলাইন
শবশর
সমালোচনা
ফাউনড
পাত
২টা
##েজ
পরভাবে
পরবের
##নিষঠ
##োগান
কষোভ
শনিতে
দীডাইল
টরনামেনট
তততবাব
খনদ
মরি
যিনি
##হাজার
##টনের
একজনের
পারিনে
##নদন
চেক
কলিন
খলিযা
সমাধান
মহাসডকে
ইশ
হোযা
৯০
##িও
##বরে
##ীমা
##ডাক
##িতেই
উদবেগ
সহয
টরাই
চিকিৎসায
##বাধিকার
শীরষে
বিজযী
জাহাজ
ডাযা
গলপের
দোকানে
বাজেটে
বিপরদাস
লডাইযে
ফেনীর
সিদদিক
অষট
তথা
নমনা
ফরি
##রফ
##ঞচে
তোকে
পরতযেক
লাগবে
বরিশালে
পারবতী
##চাপায
পরাচীন
মিউজিক
৪৮
৬৫
মাওলানা
নেপ
##শিষট
পরকাশের
উননযনে
রোগে
কখনও
মযাচের
হোটেলে
পটযা
অপেকষায
দাখিল
কিংবদনতি
খনদকার
খযা
পরাদর
সেও
পাড
গেম
কমলা
অধযকষ
মাসদ
শিশদের
বিপদ
কনভেন
পরতিদিনই
মৌলভ
শাখার
মেঘনা
টাঙগাইল
নিউজিলযানড
ডিএসই
অঞচল
##পতির
##এল
##ামত
##বৌ
পারলে
সালাম
করতেন
এবারও
অবৈধভাবে
উৎসবের
পির
সঙক
হী
##পাতে
##যাজ
নিম
পারছে
সরেনদর
##তিকরম
ডাকস
ডাকিযা
গিযেছিল
টেসটে
সংগীতশিলপী
পণযের
আনার
নহে
ফরম
মরে
##োত
##মেদের
কমপলেক
লাগছে
ভাঙগা
মতোই
কারণেই
যকতরাষটরে
মহামার
সমনবয
মসজিদে
##এইচ
##শাসন
বিজঞপতিতে
সতী
##যমের
##হাজ
হইলেন
##পরিবহ
বযবসাযীদের
শরীরের
জামাযা
কাশমীর
বরাদদ
ডিএমপি
আধি
সায
##যকর
##বাদের
##মবা
##ামপর
পাগল
##করো
##যোগে
তলনায
পরাকতিক
ভইযা
মেল
লিললাহি
হিম
৩৪
##ঞজন
দিই
আশীর
কোরিযার
সহযোগী
সিংহ
রাজিউন
উততেজনা
রশিদ
##রায
##ফাজ
##জেন
##বোর
মেজর
লিগা
ইউএস
ইউনাই
গণধর
পাঠিযেছে
পরযটন
সথাপনা
কোমপানির
অসটরেলিযার
কবিতা
জিমবাব
ইংরেজি
ভাত
##ডান
যাকে
##াকালে
আজকে
ডিবি
চরিতরে
লকডাউ
পোসট
মহামারীর
ওমর
পজি
##জী
##গদ
##তিতব
##াডার
বলব
চলন
করেনি
পরোপরি
সথাপন
কনভেনশন
বৰ
রচনা
##ফোন
##াললাম
সরবস
##তরীণ
বিরকত
পদক
সনদরী
নীলফ
তামিম
কাহারও
মৌলভীবাজার
আকরম
চেন
বসি
ভিজ
##রপ
##শিকষ
##গামী
##িকান
কথাও
বরঞচ
করিযাই
থাকবেন
মিষটি
পাচছেন
খেলোযাড
সমসযার
সংঘরষ
চকরের
আদরশ
টাকায
সতবধ
অসব
খযাত
বদর
##হাত
##লম
মেহ
মানবাধিকার
গোলা
রাখেন
চারি
হাছান
জাহিদ
ইতযাদি
লজজায
ওযাসাললাম
অনা
নক
সচক
##তলী
##বেও
##তিযা
উপে
কষকের
সাময
বসতর
রেজ
৩০০
মহানগরীর
ভাগয
নোযাখালীর
জামাযাত
যথেষট
ভিততিতে
আকরষণ
ছটির
তলা
নযাশনাল
শাল
শাডি
##াও
##সারণ
রাজয
শরীয
সংসকতি
সথল
ছাডাই
সপরশ
ভগবান
হোটেল
আকার
বৎস
##েই
##গতিক
##খযান
##কেটের
##বেলায
##াতেই
সামনের
ফিরাইযা
##পাট
সদরের
হাইকমি
আনদোলনে
সোহেল
ইনিংস
মেশিন
বিছানায
পরশিকষণ
ফজল
##হযাম
##দেখ
নিচ
তারেক
মহরত
চেহারা
ফটবলের
ইউনিট
ভাবনা
১১টায
করতপকষের
মোশাররফ
আবির
গির
##ভেনট
##লেটিক
আমন
বলছি
অভিষে
পথের
ছাযা
হলেই
##দদীন
##কানদি
নাসির
ফিলিসত
বরাজিল
কাত
ঝাল
পযার
ফাহ
##রাম
##ফির
##নেই
##পাশের
ডিএন
দেখিলাম
##চলিত
হরেনদর
লেনদেন
ধবংস
এখান
##সভা
##পিং
পরকৌশল
নিল
হানি
##কশন
সেবার
##িসির
দেশটিতে
রহিলেন
ইসয
১০টা
কালি
ভরসা
##দীপ
অফিসের
পরযাযের
ফলাইট
সিকস
চিহনিত
দাডা
ভবান
৮টা
সরিযে
##ডালে
চলতে
করিবে
আইসি
তখনও
জমির
উদদেশয
বযবসাযীরা
অগনি
লিভারপল
নযাপ
সংবিধান
আসল
পরিদরশন
বিশবস
কেদার
##পিট
##লাইনে
বোমা
রাজনীতিতে
নাজমল
সবাকষরিত
আবেদনের
ইলাইহি
উচছেদ
ঊর
কণঠে
মসতফা
সেনট
##শব
##ফট
দিযেছিল
হবেন
রোডের
হতযাকা
##ফাযেল
ইতিহাসের
সমনবযে
উৎসাহ
শরীলঙকার
লিওনেল
মাশরাফি
সপারিশ
আশীরবাদ
কযে
কযাপ
মযন
##ীম
##সেন
বিছ
হযেছিলেন
নিরভর
মোসতফা
##জজীবন
শাহাদ
ইংলযানডের
কিংস
সহযোগিতা
যাচছি
করমচারী
বিজিবি
পেরিযে
নাযক
মৎস
সকষম
##শায
##ফতি
##চিতে
পরকতি
দরগ
মনোর
দলকে
টরেনে
##ভারের
করমকরতার
যাবজজীবন
ভীষণ
অভযনতরীণ
সবীকতি
আধিপতয
##লতা
##ঙকায
আপততি
কোলে
মাহফ
দাযরা
আনিসল
ইঙগিত
অবল
কযাসিন
ঢামেক
##টরি
##পরব
##বিলে
দেশীয
সিএন
##চারণ
হাওযা
বারান
##দলীয
২০১৬
##শযক
কমিললায
হারিযেছেন
চরিতর
বকতবযে
উৎসবে
পরতিযোগিতা
এটাই
কডা
হবার
##ডস
##ককে
পরদায
বিধান
একশে
##লিমা
বেগ
অভিজঞ
ঘটছে
সরকারকে
ধরতে
রাখে
বারবার
ইউনিযনে
মোহামে
রাষটরদত
অতিথির
হমাযন
বলিউড
##বলিউ
মশফিক
শতর
##াকের
দিযেছিলেন
আলোক
মাধযমিক
দশম
জযী
পলল
##পাডার
পরতিপকষের
আনষঠানিক
বাতাস
সৌনদরয
বষটির
##শচ
##িযাম
বাবর
##যারী
##লোকের
রাজনীতির
বঝিল
সারদা
এসআই
আতমস
করিকেটের
কলকাতা
ফেডারেশন
তফসিল
মৎসয
কাসট
মরণ
শোন
করবো
গণতানতরিক
কোরটে
##হাটে
নবম
নৌকার
অরথবছরের
অমন
নযন
রাযের
৭৫
করিযে
পালা
বাংলাদেশকে
দিবে
বরাবর
করমকা
করমরত
অরণ
কোরবান
সাহিতয
বযকতিকে
ছযটি
ফিরেছেন
##বনদী
সংঘরষের
ইনডিজ
ইলিশ
ককর
ফকির
##বিনি
##কথা
##পাস
##মিতে
বিচছিনন
নিরী
##বিদধ
অভিভাব
আইনে
শিশকে
বরিজ
কাপে
##ভেট
ভালোবাসার
শেযারবাজার
পরকৌশলী
পিযাজ
ইউনাইটেড
খোক
দজনে
মগধ
যকতি
রমণ
রোধে
##িবার
##হাতে
##উক
পেলেন
বযাগ
বিরাট
বৈশা
রিপোর
চেযেও
ভযাকস
##ভাগয
বাণিজযমনতরী
১৯৭১
##করিয
গনধ
সজ
সচ
##কোন
##িরো
সবজি
##যানডে
কোটা
সহস
##জঞান
সংগঠ
রমজ
দঃখের
সিরাজগঞজের
আনষঠানিকভাবে
রিকশা
কলপনা
ইমাম
শেরেবাংলা
অযাল
কির
গানে
পিক
##মেল
##পরবে
##বিহীন
মাসক
পরাযই
##গাছ
একসচে
খেলেছেন
দবারা
কারখানার
বেনাপোল
আতমসাতের
উর
ফজ
ফরে
বকষ
ভমিক
সতত
##ডী
##টিভি
করেও
যেভাবে
পরতিশর
##টারে
হাসিল
মনস
করতেই
পডবে
অবসর
ঠিকানা
১১টার
পাবলিক
##ফিজর
আবহাওযা
সবেচছাসে
যানবাহন
ইলেকটরনিক
মহারাজ
চলিতে
জটি
নবী
##বানের
##খাসত
পরখযাত
##নেস
কাচ
##সথানে
লাগিযে
##সটিক
কনফার
অসমভব
সবপনের
আগর
চসিক
রমা
রীতি
হান
##ডর
##ডনি
##াতক
##বারতা
##াবনদী
পারবো
দেখলে
আজাদ
ঐকযবদধ
কৌত
যানজট
অভিষেক
শিক
##নীর
একদম
অনসন
শরতে
বেকার
হাসিম
বিশবজডে
বাজারের
সিরাজগঞজ
পরসতাবিত
নওগার
রঙের
সমারট
আচ
হাড
পরিন
সবভাব
আইস
পরতয
আবদস
দাডাইযা
এসএসসি
ফেলিল
ফরানস
ঘমিযে
গণমাধযম
অযাসোসিযেশন
শিগগিরই
ইভি
তি
সটর
হকের
হিজ
##হইযা
##বাজ
পরজাত
##কষিতে
মাধ
##মালা
##ষঠী
লাগলো
বলিযাই
চিঠ
সমমেলনের
নাটকে
উইকেটে
নিঃস
কযামপে
আরেকটি
উততোল
একাডেমির
এরশাদের
রিজভী
ছরিকাঘাতে
উপেকষা
পাকা
##রাল
##ামি
##মানষ
##ডিযার
উদয
##বাহিত
##পেকষ
কলিক
সোযা
লোকটা
যাতরীবাহী
ধনয
সংকটের
ইনসটিটিউট
পরাইভেট
১ম
##যাশ
##াবো
নিলাম
সংযোগ
দেশি
পরেমিক
অভিযোগের
১০টার
দশক
গরহণের
##ঞচলিক
ইতালিযান
দরদানত
পরাদরভাব
ঘোর
##বযন
একাত
দেখলাম
হইতেই
মতবিনি
লিটন
অবধি
অসথির
আহমেদের
খেযাল
##গেট
পরতিষঠার
রিপোরট
গানটির
পরণাম
চরির
আলাপ
তৎপর
ইঞজিনিযার
সাঈদ
আঞচলিক
ডাল
ডাকে
তাব
##তানা
##ছিস
##োতা
পরবা
##ামো
একপর
একসময
সেতর
##োকতা
ইনড
এসেছি
ভোটে
বনযা
কিশোরগঞজের
উদবোধনী
লিখিত
পাসপোরট
অদভত
মছিযা
টরাইবযন
কোরবানির
ছডা
করিত
মেটর
কাশি
মামা
##কলযা
ভেতর
ডিগরি
সকলছাতরী
জলবায
শরমিকের
নিঃশবাস
ভবিষযৎ
ইউরোপীয
পদতযাগ
পরতিবেশী
ইউএনও
এগলো
কলি
ঘরণ
সজল
##সকে
##ধাব
বিতর
##যানো
মধযেও
কমপকষে
পডিযে
আগেও
বনদাবন
গানটি
কথিত
শারমিন
কাহিনী
কপালে
বযাপারটা
মিজানর
রশ
রানা
হারে
৪টা
৯টা
##রাজ
##কণড
##ণডে
##াহে
করিব
উদযান
কহিতে
আনিযা
##যোজনের
চারজ
আকাশে
মাঠের
গারড
সিরিজের
ভকতভোগ
রোনালদো
ঠাক
তিত
##দলের
##ঙা
##যাতরা
পরবী
##টিযার
অনপ
যেদিন
সাউথ
পরিচছেদ
মহল
মোদি
কিশোরগঞজ
সবাগতিক
সমরথন
ছাতরীকে
বযবহত
ষডযনতর
অতী
ঝক
দার
##নীয
পরকত
##াকী
##াবয
##টেক
দরশ
সংগী
দাফন
বোলিং
পাবনা
আমেরিকার
টারমিন
##েশবরী
ইসরাযে
গভর
দবনদ
রফিকল
সের
সিস
##বিস
একখানা
##পরধান
অনলাইন
যেত
##মারী
অরধে
জেগে
অবসথার
রহমানকে
বাকী
গারমেনট
রকষায
চনদৰ
পরচারণায
গডিযে
##থের
##মেন
##চযাল
করমে
##লাভ
তারক
যেই
মেযা
মেলে
গরন
হাসিতে
বরখাসত
ইনদর
বহল
নিশবাস
মাঝখানে
জমিতে
##াবাদী
সিরিজে
অসাধারণ
গাযের
পষঠ
বাপের
বাদী
হযেচে
কালাম
সহিং
কাছেই
##দেব
চিৎকার
রোগের
পরিচালনায
সতরীকে
পরসঙগে
রোহিণী
কলকাতায
আফরিকা
ভযানক
পরাজিত
দবিজদাস
পশচিমবঙগের
বজরপাতে
ছল
জাস
ডিম
তথ
পষ
লাকস
৪৩
##হম
##াগডা
আমিই
করিযাছিল
তিনজনের
ভেতরে
চলচচিতরে
চলাচ
মজমদ
অগনিক
জালিযা
ভাষায
বিতরকিত
উচছ
গডা
হৈ
৫২
##শকতি
পরজঞ
##াইনে
একথা
##াহার
##করমে
অননয
##মাতরা
দরগা
দিবার
##বাসন
শেখর
বোনের
পরণাঙগ
##নাথের
রকষাকারী
ওঠা
উজজবল
ইবাদ
ইবরাহ
টন
দাপ
হলি
##জম
##সফ
##ঘরের
পরযোগ
পরফে
বিখযাত
##াইলে
##কারস
##বিড
গরপে
বডো
ছেলেকে
সাইফ
কষটিযা
আফরিকার
পাখির
গোবিনদলাল
বাচচা
সশসতর
টরাসট
ওপরে
ডো
##বাক
##জাম
##াইযের
বাডাতে
নাগ
##টাতে
আরবের
পরিপরে
রাজজ
বেড
কথাগলো
করিলে
ইউটিউ
##যাপত
চাহিল
##সংগ
সাইফল
অচলার
তারপরও
অনিযমের
##খযক
শেরপর
গজব
টেলিভিশন
##সামগরী
আতঙকে
অবলমব
অমান
ঘষ
চিত
দনিযা
পিত
ফয
রবেল
শাক
শলক
##হয
##ইতে
##ভিল
##লাদার
##জনিত
আজকাল
গোকল
খাওযার
সকলেই
বিদযতের
গবেষণ
যশোরের
সেনটারে
পযসা
জবালানি
মতবিনিময
দঢ
দাদ
হস
##দণড
সংঘ
##বাচক
পরকাশযে
২০১৪
##মণি
জিযাকে
নওগা
ভোটারদের
শীতের
যকতরাজযের
টরাফিক
সাফলয
সততবেও
পরবীণ
কযারি
চিনি
ঝাপ
মফতি
শভে
৪৭
##িঝ
##শাল
##ফিন
##গাজ
করিনি
বলেছিলেন
মেহে
##চারী
অরজনের
আননদে
##শিং
পডিতে
কলম
চাও
বাবাকে
পরতিদিনকে
দফতর
অবশযই
সমভাবয
বিরোধের
বাগেরহাট
##মশাই
ফোনে
কোযারটার
সামযিক
আডালে
ডিসি
সটক
হমক
##হাম
##সনের
নাও
আসিতে
বলচি
##রাউন
রাজযের
বাসে
অসখ
অধী
জোডা
নাগরিকতব
লকিযে
নেমেছে
সনদেহে
ওপেন
অগনিকান
খাম
ঝর
ঝগডা
যথায
রদধ
##ফো
##ংযের
##লাদ
সমাজে
সংযকত
সরদার
দেশবযাপী
শরিক
##চেসটার
টরানস
##িকিউ
শহিদল
##রমের
##পাশ
পাওযায
উলটো
ছাডিযে
নবকমার
৫০০
দৌল
কারাদণড
বাগেরহাটের
সচিবালযে
কমপলেকসে
আলে
জডে
ঠেক
থিযে
##তানে
##বিন
##বনে
##কতরা
পরাতন
##পরয
তিনিই
##থাযী
বনধর
সাধারণত
আলোচনার
ফেলা
পৌনে
রপতান
মানবিক
গিযাছিল
বানিযে
পশচিমা
উদদেশযে
সংরকষণ
নাযিকা
পরফেসর
খাইযা
চলো
নেশ
নিকষ
##টাম
##মাল
##াদিন
##কষট
পারিনি
পারফরম
গরেনে
হইত
##নীতিক
লাফ
আননদের
অনেককষণ
কোরিযা
ভাবিতে
উননতি
##পকষের
আসামির
দেবগর
বযবহারের
মযানচেসটার
ইরান
মেযেরা
মাদরাসার
শিকষারথীর
শিরোনামে
পরিপরেকষিতে
আবি
কাক
ননদ
ফটে
যগে
সঞচ
##বৈ
পরবল
##িনির
##ামনতরী
বিসময
বাশ
##াবাদের
নিরপেকষ
ইউন
বিকরে
টরফি
##গলোয
১০টি
চাঞচল
বনদী
##ণডিত
##ভবন
মাদকের
জিজঞাসাবাদ
শরেষঠ
মহাসডক
আমেরিকা
ঝকিপরণ
করিসটি
আফগানিসতানের
আযে
ভঙগ
যদধে
লঞচ
সযা
হাজী
##নাত
##পট
সবতনতর
##দরশ
মেলায
তোফাযেল
১০টায
তেজ
##িণী
অপরাধে
বষটিতে
নিউইযরক
বিছানা
দাসী
##হতি
##মেনটের
মাংস
##াকাছি
##বসথা
##সবাসথয
আশায
এতকষণ
মাধযম
রিট
হেটে
সমাবেশে
জবাবে
গরেনেড
তামা
ভরা
লঙ
হদর
##পানে
##যারের
নিরবি
কেদে
কেননা
বহন
উললাহ
বিদযৎস
ওযারলড
কাদিযা
কণঠসবর
করমচারীদের
হাসিমখে
হদরোগ
ওভার
দাযী
ভিস
##এব
##যেদ
তারকার
সবিতা
##রাগ
রাশেদ
বযকত
##সিম
চিকিৎসকরা
খবরে
হেফাজ
বিলমব
ডরাই
মসজিদের
##খালীতে
ফলাফল
ওযালটন
গদ
জভেনট
মঠ
ষষঠ
সনদ
##জমা
##োলে
পরবাস
পরষের
##লামা
##মাতে
আগনের
মোটা
ভারচযাল
মেযেটির
পিঠ
নারীকে
ফরান
অপরাধের
পরভাবশালী
হাওলাদার
অতযাচার
খযাতি
হানিফ
অটো
জডি
##রিতে
##পড
##সতি
##লাগ
নিবনধন
মাটির
পারল
রাউনড
আপাত
শিকষার
চিফ
লোকটি
জানালা
দাওযা
দশকে
অতএব
পরিবরতনের
সবামীকে
কাছাকাছি
খরিসট
মকতিযোদধ
বাচাতে
অলিমপ
তণমল
করিসটিযানো
ককষ
জঙগ
জনি
টরে
দাগ
##ডাম
##কনযা
##পদে
##গারে
##ধিত
##আমার
##ণার
##উদদীন
##িনাকে
##কেন
সমর
সমদধ
পাঞজ
থেকেও
দেখাইযা
সিই
মোতা
##সেবা
পেলাম
রহমত
আলমের
সেইখানে
এমনই
বহৎ
করিতেছিল
রেখেছেন
দাউদ
##মপদ
বসনধরায
শিকষাপরতিষঠান
কোরআন
অটোরিকশা
পিরোজ
খোকন
অযাম
ইচছ
দতাব
ধীর
নিন
পাতা
রণ
হযানড
৫৭
##িদের
##শবিক
##ষটে
##যাতর
বিগত
বাবল
##তাকে
নিরদিষট
কাচা
মোডে
নেইমার
অনেকদিন
##কষণাৎ
দরঘটনার
পরযবে
বানদর
বিনো
মাছের
শভদা
পরারথনা
মখযমনতরী
কারখানায
বহততম
গরিব
ঘরণিঝ
অহ
আঘাতে
তাস
নল
পেন
ভেন
শাকিব
৪৪
##শীর
##ডিসি
##মাতা
##ওযের
##ারজি
##কেলের
##টিএ
##ওযালা
##ষঠীর
মিশ
মারকেট
বাডতি
এতটক
তেওযার
আসামিকে
বাণিজযিক
বিবিসি
পতাকা
বহিষকার
গণধরষণের
কায
খিল
গী
##যদধে
##হির
##োতে
##োযান
##োটের
বিলা
##যারা
##কষণের
সালা
বিশলে
মধর
আজম
পেটর
##তবরে
আনসার
তিনজনকে
বনধের
উদধারের
যাইবার
##হেত
##োপলি
পারবতয
টরাকের
বকেযা
পরাঙগণে
অষটম
পরতিশরতি
মগ
##টিযা
##পতরের
##ামারী
তোলার
পরতযকষ
অরথনীতির
চাওযা
বৈষণ
সমমিল
হকম
কাপের
বকতারা
বিধবসত
ফেডারেশনের
শযযা
হসতানতর
ইউনিভারসিটি
চেষটার
সামপরতিক
বিশবসেরা
আযের
শিল
৩৯
##বধর
##টিন
##শচিত
করক
##াপডা
সবসময
মালে
##করণের
মাননান
শরম
##শনয
হোসেনকে
চিকিৎসকের
পরতিষঠিত
নেতাকে
যাইবে
পাকিসতানি
রংপরে
পরিবেশে
হিসাবে
নিশচযই
সংরকষিত
চযামপিযনশিপ
##পরিবহন
বৎসর
অধীনে
এসি
তাকা
তীরে
ভাইযা
লমবা
৭২
৯টার
##মাদ
একলা
সেটি
আরা
##রাওযার
বেস
##বাদী
আশর
সমপততি
চালায
বৈধ
অযাথ
মাহফিল
চাইলে
অভিযানের
ছযজন
##পততি
কাদিতে
হযাট
নিখোজের
ইউরোপের
সারভিসের
জলাবদধ
ইশতে
কেদারবাব
অরধেক
থাইল
রাব
লোভ
হকি
##থী
##দবী
বিলপ
দেশগলোর
কোহ
##সতত
হাজারের
বরিট
মাহম
মালতী
আবশযক
অতিশয
ধারয
যাতরীদের
পডাশ
সোহরাওযার
ঐকযফরনট
হতাশ
কপালকণড
উডিযে
চতবরে
জোন
তচছ
শাব
##ংযে
##ানীগঞজ
##যেম
##াযতত
বাগান
নিচছেন
দেই
##াপতির
##িসের
পাডি
পাডা
গরামী
বেলায
##তনতরের
##ঞজের
চলার
আইজি
সনমখে
গণপরত
সমমখে
মধযপরা
##ফোরড
সমমাননা
ওঠার
বিসফোরণে
##জাহান
পরতিবনধী
##কলযাণ
এলেন
ঐক
জনে
ঢে
ঢের
দনিযার
রিস
৪১
##বনের
##কাজ
##পটি
##জযী
পরচর
##িরদিষট
উপমনতরী
উপমহ
পরিপরণ
পরিবারে
পরিচছনন
গরর
মারাতমক
সারাদিন
##হিদ
বিপদে
নারস
নারীদের
সীমা
চাপিযা
নাটকটি
মঞচাযন
ফসফ
নযাপল
ভযাকসিন
গরামীণ
নতয
শঙখলা
৭১
##শিযাল
##ডন
##ধন
পরকার
##াহীন
##বিধ
পরিদরশক
সরবা
শরত
উঠল
উঠিতে
পরতযত
পাঠানোর
ভোলা
##পনথি
ফেরদৌ
শিরীন
টরনামেনটে
ইনিং
অবিশবাস
হোযাইট
চমকে
ভরে
যাতা
লড
##পিতা
##দদিন
##যাগের
##যেত
পরদা
দেশকে
পেট
পরতগ
গণফোর
মরত
বৈশবিক
দকষি
সবাসথযবিধি
সরবনা
যতই
শবদে
চাদপর
দৌডে
মনদির
মণাল
পরমযোগী
মাদারীপর
কমানডার
রাধারা
ঘনিষঠ
দিত
বঞচিত
##রাই
##লয
##পনন
##দানে
##াতদন
জানাতে
মেতে
আমারও
চেপে
কোত
মখর
মিটার
##জিও
##পরেস
পরতিনিযত
নৌবাহ
##শীদ
ওযাশিং
ইনটারনে
আকাশের
পাচারের
অপহরণের
বিপরযসত
আশরাফল
রেসটর
উপমহাদেশ
ওখানে
ছাপ
জবল
মসত
শফিকল
সমঝ
নিষঠ
##ঙগীর
পারো
অভযাস
দরব
সঙগেই
গোসল
শিবির
ছেলেটা
রেড
উৎকণঠ
দফতরে
থামিযা
সমপরকিত
গযাসের
গহবধকে
পরিতযকত
মঞজর
অসবীকার
মেটরোপলি
ছিট
ঠান
ফসল
মীর
সকরিয
##সিতে
পরপর
সমখে
আরসেন
তারপরে
কেডে
বেডাতে
সিভিল
মোসতা
থাকছে
##তবের
করমসং
অবহে
পরতিক
মারিযা
শিশসহ
হতযাকান
দশকের
আহতদের
১২টা
সমসতই
করমকরতাকে
সবারথ
পরতযাশা
বযবসাযীকে
হোম
গোপালগঞজ
বিসমিত
পিযাজের
কৌশল
নিতানত
উপসথিতি
মযনাতদন
মনসীগঞজ
শভেচছা
ছাই
ঠা
ফতল
৬টা
##রাত
##বিলের
##ভাল
##চরে
##ঘয
##ানিতে
##িসটর
অবদান
কহিলাম
##পাতর
টিউ
পরাণহ
১১টা
মেডিকেলে
বনযার
সটেশনে
জিযাউর
সবজনরা
নরসিংদীর
পদধতি
ধানমনডি
কংগরেস
ইভিএম
আলোর
চপি
তাডা
ফযা
হতেই
##মরা
কিনতে
থাকিতে
##ওযারড
পডলে
সতযই
সলতানা
যাচাই
আরিফ
এযারলাইনসের
ঊরধব
থিযেটার
আঙ
আযোজনের
চেল
জোরে
রটে
সঙগী
##িমা
##কতা
##দীতে
##ভমি
##কেনদর
বিআর
##িযেছেন
##পরায
জানিত
রাষট
কথাবারতা
তাছাডা
##কষেপে
ইসলামকে
গিযেছে
ঘোষ
টেবিলে
কামরল
এনবি
পরিবরতে
নিউজিলযানডের
বেশিরভাগ
ঝিনাইদহ
পরভতি
মোললা
নীলফামারী
কযাপটেন
সোহরাওযারদী
আকারে
ঈশবর
ছড
নকল
নগদ
##ষণে
দেবার
পাডার
##গরের
##াগলো
উঠবে
পলিশে
গোপ
করমহীন
লাঞছ
আহার
##সথল
বহির
নিহতদের
##শালা
আসিযাছে
মাদকবিরোধী
দিবসে
সাকষয
সালমান
যাহার
কারাগার
নাসিম
জগতে
ফেনী
তৎকষণাৎ
কযামপাসে
##াজনক
জাকির
তততবাবধ
ধনযবাদ
টঙগী
দের
পকরে
মও
৪৬
##তলায
##যাযের
##তরিম
##যারে
##নিতে
মালা
কাকে
দিযেছি
অবিনা
অধযায
মতযতে
গিযেছিলেন
আইনমনতরী
বোলার
এনআর
শোভা
কযানসার
বলিউডের
সিনডি
হযরানি
কমিউনিটি
মজমদার
সমমিলিত
ঋণের
খস
ঢাবি
তালে
বদল
মাইল
##হাল
##ানতিতে
##বাভাবিক
সবযং
জনতা
পারিযা
##কাউন
মহেনদর
অসতিতব
সনান
গণসংযোগ
সারবিক
শিকষারথীকে
সাকষী
অগরসর
হাউস
লকডাউনের
পরজাতির
রাজজাক
মেটরোপলিটন
অবাধ
ইজতে
টো
মেলার
মমব
##তাবাদী
##হাই
##ানট
##দরি
অনষ
আসথা
##ীগঞজে
বারন
মেযেটার
কযেকদিন
কামনা
উদদিনের
পরিবারকে
নোবেল
বাতিলের
মখযযে
ছটিযা
রাঙামাটি
শাহাদাত
সমরাট
সংবরধ
দেশটি
পডল
চিকিৎসাসে
সভাপতিতব
##ডাইতে
উপসথাপ
ডাকতারের
কষমতার
জমম
রাজনীতিবিদ
চিতরনায
নেতরকোনা
কোযারেনট
অপরিচিত
তততবাবধাযক
ছাদ
নবাব
যমনা
##পায
##িকযাল
একাকী
##িসমপদ
দিনটি
কমপি
বাডানো
বাডানোর
রোডে
পরশংসা
মরগে
২০১৫
অযাট
শাহিন
সিদধির
শকরা
শিকষকদের
বিনামল
##চালিত
দীরঘদিনের
টেনিস
দরশকদের
ভাইরাসের
অলরাউন
ভরমর
চাপাইনবাবগঞজ
রিমানডে
অনসরণ
গেমসে
কযাসিনো
খাগডা
দাত
শইযা
সেরে
##শাই
##কটি
##ধারী
একদল
সংখ
জনসং
নামিযা
কেনো
কালী
গাছে
নগরী
সকলছাতর
নবজাত
মানেই
দষটিতে
লকষমীপর
গণমাধযমে
বরগনার
আফগানিসতান
ডিএনসিসি
চাঞচলযকর
ইনিংসে
গালি
নিযা
সষটির
##দাযের
##টিত
দেবো
##বিহ
দেখছি
সিপি
কোট
সংসারের
উততরে
##দারি
টেকস
টিকে
নরেন
রিফাত
ঘরোযা
জযপর
গানধ
ওযারডে
তরক
অধিবেশ
পরযোজনে
ইবরাহিম
অমর
আলি
এলি
ডিস
দাদার
বিনদ
ভিক
শল
হট
১টা
##ডল
##োজা
নাচ
উপনযাস
গতকালও
কারড
শরাব
বরজয
অরণী
##বনধনে
সমপরকের
১২টার
সীম
গোলড
সাজানো
গলিবিদধ
আরজেনটিনা
রযটারস
সিএনজি
অলরাউনডার
চকষে
ততি
দযাল
ফরাস
৪৯
৫১
##রকম
##শরম
##সাল
##ঢয
##বেগে
আরোহী
আসলাম
কারাবনদী
মিশন
অসবাভাবিক
##খানেক
আদাযের
সিটিতে
গরেফতারের
নগরীতে
ভোলার
##এমই
বিনোদ
##দাযিক
সলোগান
বিপরীতে
পাবনার
শযযার
সনামগঞজ
বযানারে
দষটানত
হচছিল
যনতর
উপনিরবাচনে
ফজলে
অনসনধান
হেফাজতে
দামে
ফাকা
বনে
লকষণ
৮টার
##োচ
##িকারী
সেজনয
নেতরী
##গরাসী
##চিং
মখপাতর
সমপরদাযের
বিদযা
বনদক
গরহপিতা
যোগয
সখের
মযানে
পরবেই
জিতেছে
সমারক
পীচ
জবালা
ললিতা
অযাসোসিযেশনের
বিজেপি
মেহেদী
এদিনে
গযাল
জলের
দণড
মচ
হাদ
হলের
##ছির
বিলি
##তরির
নিলেন
##লেনি
সবই
সবরে
মেঝ
কারি
মানি
ভারি
##শিযারি
বেশকিছ
সনত
কোনোভাবেই
বিকাশ
বিচারের
পালনের
চেযেছেন
বিমানের
##চযত
##ঘাটে
হালকা
বনদরের
জাহাঙগীরনগর
নেতরকোনার
মাদারীপরের
বিসিবি
মাগরা
হাইকমিশনার
খজিযা
ডব
দবারের
##ধারা
##উটার
##০০
পরানত
কিউ
আরাম
##যানট
এইখানে
রাজযে
বযসের
শরতেই
তাহাই
সপতম
ইনস
##বানধব
সাহিত
মামলাটি
কিশোরী
চাপায
ফেলেছে
মালিকদের
সিরাজল
সাহেবের
অজানা
পরানতে
টেকনাফ
রিমানড
মোহামেডান
উততোলন
হযাটটরিক
এডাতে
মঞচে
##মবে
পরকতির
##পরাধ
##পরোযা
আমদান
##কষার
##ঙগায
সরিযা
সরঞজ
দেখেন
বেপরোযা
হাসিনাকে
##সিড
অরথায
সামগরী
পরতিকর
বাডাইযা
পালটে
টেসটের
নৌকায
অবসথানে
শীরষসথান
##মাধযম
শানতিপরণ
করণফল
জাপান
রসলললাহ
অকষয
আইসিইউ
সংগঠক
যথাযথ
ঘরণিঝড
ইএসপি
খড
খজ
চরণ
জং
টক
পজা
শঙকা
সঙগ
##টয
##ষার
##ষকত
##গি
নিযেও
দিব
চারদিকে
সিনেমার
বাইরের
রানী
বিজঞাপন
পরিবহনের
আসামিদের
শেযারবাজারে
চকষের
জিততে
সেমিফাইন
সাতকষীর
সাতকষীরা
সবেচছাসেবক
বিনোদন
এভ
এদিন
ধনী
ধারে
বট
রনি
রশীদ
##চায
##চছিল
পরাপত
##াসা
##াজির
নিবিড
পাছে
অনলাইনে
বলবেন
পারক
জানিতে
##মানষের
কিনঞজ
##বাসে
বোযাল
কামর
দিনেও
চাইতে
বিজযের
সরবগরাসী
অভিনীত
দিবসের
মযলা
নাগরিকদের
তদনতে
শরেণি
মহরতের
সোহাগ
শানতির
মহাপরিদরশক
জযেষঠ
বিএসএফ
জযো
দবাই
ধাওযা
বযানড
সপরি
২য
##হাদ
##কলে
##ভাপতি
##সকের
##ঞচি
বিলাস
সেগলো
জনসংযোগ
##বরের
সিআই
সিগারে
নামছে
কেনা
করমশ
উদভাব
##নীত
আশপাশের
মারধর
পিএস
অংশগরহ
রিটার
শিলপের
মহিউদদিন
যথারথ
চাকরির
ধারাবাহিকতায
দবীপ
অপারেশন
সহসভাপতি
ইএসপিএন
ছাদে
জী
জযন
জাপা
ডায
হংক
সমাধ
##কষী
##াপনী
আরোপ
সংশয
পাটক
সরকষা
বেই
এরকম
কষকরা
আইপিএ
সদাননদ
চারজনের
ইউনিটের
ফৌ
আতমসম
পরণোদ
দেযনি
তাহাও
##ামাতর
পাযনি
জারমানি
শিরোনামের
ফরানসের
ঐকযের
অবিনাশ
ওটা
কেশ
টই
তাগ
পশর
হশিযারি
##িবে
##বিতা
##ডবলিউ
করতবয
নিপী
কিডনি
নেপাল
##রিটি
রাউন
অভযা
দিলেও
হাসতে
মিঠ
আইনি
সহাস
টরলার
রোমান
##এসআই
অযাকাউন
##হিণী
কতটা
দশচিন
হেট
নিরদেশে
সরবতর
উপসথাপন
করমীকে
চিরদিন
বযবসাযীর
রওনা
আইসিসিবি
সেমিফাইনালে
চমৎকার
অনশীলন
আতিক
খানে
গছ
গডার
ডরে
মশার
রাবি
##ডিস
নেবেন
উপকল
বলেও
দেখছে
গেট
জাতীযতাবাদী
পডায
ইসলামিক
এসেছিল
ছাতরদলের
##িসিআই
মানববনধনে
সবারথে
সংসথাটির
লাইফ
চীনা
ফিফা
দৌড
পযেনটে
পরচণড
কদর
চাদা
মায
মেন
৫৪
##শরে
##াসতর
জনপর
অনমান
দরজার
বরযানড
##বলিত
ইউসফ
কমছে
নিজাম
ভালোই
পাঠান
বনদেস
সেনাপতি
নীলিমা
গহবধর
পরযটক
নিরমম
একেবারেই
নিরাপততার
একাডেমি
হাবিব
জামাযাতের
আকরমণ
রেজিসটর
কপালকণডলা
জলপ
তিস
থরি
ধসে
রইল
সস
##থান
##ছল
করছিলেন
করলেই
বিআই
##পরযোজন
সেসব
##ঙগাল
##কারের
পাগলা
অনশন
পারছি
রাজার
কাণড
হাসানের
##চারের
পরেকষ
বাসভবনে
দলগলোর
সোবহ
বদধা
রপগঞজে
অতল
সৌর
##জীবী
কাটিযা
তরণী
শরীফ
পলাতক
সমরথকদের
মজরি
জগতের
তামাক
লেগেছে
উততেজন
নিরমাণে
আজিজল
মহাজোট
হযরানির
ডাকাতি
আবরার
##াবাডী
গাইবানধা
এএফসি
টারমিনাল
তামাশা
চেলসি
কালের
ছোযা
জহির
দতত
নালিশ
পোর
বাযার
##হারে
##লস
##মাই
##উট
##ানীর
করেছিলাম
##োনেশ
যেহেত
সালাহ
##কাটা
কাধে
মানা
আগাম
আজই
চেমবার
কষটিযার
করমীর
তাৎ
দিতেই
খাবে
হারন
ভেজাল
ভরিযা
তৌ
বিপাকে
হইতেছে
দিললি
বসেছে
ঢাকাসহ
বইযের
একাডেমিতে
মোকাবিলা
আডাইহাজার
জাপানের
যকতরাজয
নরসিংদী
যনতরণ
গলশান
##খোলা
ফাউনডেশন
মেযাদে
নমবরে
হদা
##িপত
##ঠাকর
##ফেল
##াযিত
বিলে
বিবরণ
তারাই
সংগরাম
পাতর
##বিজ
পারকে
হইবার
##াগত
দরশনার
##হতযার
লাঠি
বিরল
অনেকটাই
রোজা
কনযার
##ভেদ
ডেমো
টাওযার
নিরমাণাধীন
পলাশ
সহযোগিতায
ইহাই
পাহাডি
উচচারণ
আরিফল
টেকনাফে
মালযেশিযার
মহাজোটের
মমতা
শরণারথী
মনোরমা
কনফারেন
ইবাদত
হমকির
বিনামলযে
ডেমোকর
খশী
নৈ
পতন
ভাতা
##কিল
##সঙগে
পরকষণে
পরচলিত
হযেই
মালাম
##োনায
##াডায
জাননাত
সরদি
দেখানো
পেটে
এখনই
শিকষামনতরী
দলগলো
এমপির
আহা
##াবিদ
তমিই
যেনো
##সমযে
পাঠক
লেখার
সীমিত
ঘণা
খেলবে
হাসানল
পরীকষারথী
সরেশের
করিকেটাররা
রওন
ভৈরব
রমজানের
গভরনর
তেজগাও
অলিমপিক
##বিহারী
জনপরশাসন
অকার
কঞজ
বজ
শষক
শপিং
সৎ
সটা
হউক
##ততর
সমাপনী
##ঙগলের
পারিলেন
মতই
বরণা
পরিচযে
##জঞা
বঝা
উততরের
বঙগোপ
জনমশত
বনদরে
পরসঙগ
পরচারিত
বেডেই
ভাঙন
করোনাকালে
##নিরবাচিত
টরনামেনটের
শবদের
টাইগাররা
ললনা
অরথবছরে
বিবেচনা
ইনদোনেশ
চযাডাঙগা
নেপালের
আবিষকার
সরবনাশ
অদরে
ইভ
উনার
ডাই
তলায
সখে
৬৪
##হাব
##বই
##সনে
##ধারে
বিধি
বাচা
নাশক
আসেনি
বাংলায
##সিটির
চালানোর
মরাদ
চলেছেন
ফেবার
ফেলতে
পরসনন
একসপরেস
অনততঃ
উনমকত
##ামরিক
নিরাপতত
বিধবা
##বছর
পঞচগড
চামডা
ভকতভোগী
অযাথলেটিক
নযাপলটনে
আরসেনাল
রাষটরের
করণফলী
অডি
আদা
জখ
জবান
দদিন
ফাকি
মশা
যো
##বীয
##মাইল
##আছে
##টিফি
হযেছি
নিচের
##বিআই
আসবেন
বলবো
যেতেই
পারা
মহেশ
চেচ
গণভবনে
বারো
পরশনে
সোশ
দেখেই
অপসারণ
নেওযাজ
কানন
অঙগীকার
ঘাটে
পরতারণার
মালযেশিযা
ধাপে
বিদরোহী
ঠাকরের
খাইতে
টটেন
নোট
ভত
মাজ
রল
লযাব
সানত
##দিযে
##মতেই
##ঈম
##লাতে
করেতা
##াবাজার
নিলে
গরিন
কারন
সিডি
##পিযান
চেযেছে
কষবধ
ফিরোজ
##পাঠ
শনানির
হলদ
পেযেছি
ডেম
শাখ
ভাঙা
আফজাল
পাশচাতয
##িলিযান
যদধের
মণি
কযলা
বরেকসি
গায
ঘমের
ছাগ
ফাই
মোন
মমিন
৫৩
৮৫
##টল
##শিযায
##কন
##আমি
##ঝি
করয
পরসথান
বিঘন
আমলে
নিবেদন
কিম
##ওযাজ
অনন
অননত
পারিত
##কাঠি
দিনভর
বরডার
পেসার
শিকষকের
বসন
হতাহ
বহকষণ
হাফিজ
হাতটা
খাবারের
হারট
১৯৬
রাষটরাযতত
কখনোই
কষেপণ
##ঞচলীয
উনমো
বিপলব
পৌরসভা
শরীযত
ইসযতে
চারজশি
সালাউদদিন
কমপিউটার
আলাম
টিক
সজীব
##তামলক
##ীযা
##চরের
##ঙকিং
পরদ
নিয
দেবী
পাডে
অনভ
বলক
দেখাতে
##যনির
আগমন
কেনার
বযাকল
উদদ
ইসট
##বদল
##কষেতরে
সমপদের
১৯৫
ডিআই
বিজযার
তরসকের
সনদরবন
##উললাহ
হাটতে
মাইকরো
পেছন
যাইতেছিল
জঙগিবাদ
গোপালগঞজের
##তাবির
মৌসমের
খানিকটা
ঘটনাসথল
রবীনদরনাথ
কাসটমস
আপাতত
ইজি
উখ
কস
কলো
দসথ
মছে
মাপ
৬৩
##সেনস
##ধায
আমানত
জননী
##মিট
হইপ
দরশন
##দিদি
করেননি
আশে
সাধয
গণসবাসথয
বঝিযা
##ষেতরে
আববা
লিখতে
বদলি
আমেরিকান
নানান
শিবনাথ
বিরোধীদলীয
কারাদনড
পরতারণা
সংশোধন
পরতযাহারের
রকমের
বীজ
উপসথিতিতে
লালমনিরহাট
মশফিকর
মাধবী
সংবরধনা
মালামাল
টটেনহযাম
আযার
ইইউ
গাম
চাদের
ধো
##গকে
##ওর
করছিল
করনেল
সেভ
##মেযে
অভিশ
পডলো
বাডতে
টিভ
শাহজাহান
দিললির
মলযের
দকষিণা
লেখাপডা
তলেছেন
নাটোরে
##খানায
মযানইউ
সংসকারের
পরতিষঠাবারষিকী
হদযে
শিকষাপরতিষঠ
চলাচলের
ভিসা
পরতযততরে
বরণাঢয
কও
টয
ঠাই
ঢেলে
বখা
রফিক
লইল
শোধ
সয
সানো
##ালা
##তনা
##কহ
##যালা
##লালের
রাজীব
সননযাস
সহসর
হাতির
হারানো
পাচজনের
ছাতরীর
বৈদয
##যারিং
সাতটি
ফেরি
এমপিও
তোমায
সটেডিযাম
##পরাণ
চযামপিযনশিপে
ভিকষা
বিপিএল
জিমবাবযের
সরঞজাম
তলি
নং
যতন
লযা
৫৮
##পণয
##তিশীল
বাফ
##পরবেশ
সমাপত
##বিগন
উপকার
বযতিকরম
সিমেনট
##োযালি
##তোষ
মিলছে
বাহিরের
চিনতে
জনগো
গলফ
##ৈরঘয
করিকেটারদের
ফিলম
বরাহমণবাডিযায
ধানমনডির
সনেহ
বেসামরিক
বনদেসলি
জখম
সোশযাল
আচার
তন
দারি
নডাই
লৎ
৩টা
৬৮
পরকর
##াসীর
##েনড
##রোর
মাগ
##োনাই
বললেই
##িনিউ
জানযার
মেসে
বেজে
হাসির
বরজ
সথবির
সপেশ
আশঙক
রেণ
খালা
শনলে
কালিযা
##ফলল
##শরমে
বযকতিতব
জিজঞাসাবাদের
বৈঠকের
খেলাধ
মারচের
বকততা
দিনাজপরে
সমরথকরা
সাদিযা
সবজির
ভবিষযতে
কবরসথানে
পকরের
ডাযাবে
বারানদায
##টামিন
আনে
নযা
সাজে
##নাল
##েয
##পডা
##ংকর
পরদেশের
পরযাপত
##িযেল
জানালার
##লোযার
মেগা
কাপর
বেছে
মতামত
বরষের
বরষা
মনসর
এরপ
##বাসের
শিকষিত
বসিযে
লাগল
মোহন
হেড
##োজাহ
মাদার
ডেপটি
সেখানেই
##জীবন
সমসযায
২৫০
বোরো
লাইসেনস
বিদযালযে
বিনিমযে
সংশলিষটরা
অগরগতি
ফলাইও
বরগনা
দমপতি
ঝলনত
রইলো
বাসতবাযনে
বাসতবাযনের
পরকষণেই
ইফ
খামার
ননদী
ফাট
ফিট
##যিং
##ধরের
মেধাব
##মাণে
রাযে
##ডিপি
করাতে
তোদের
আজহা
##ডাঙগা
আলহাজ
ইসমাইল
করিতেই
ঠিকই
পদোন
পদারথ
নরথ
হেলাল
লেগ
ঢাকাই
মযাচটি
সটেশনের
সমাজতানতরিক
মনোনযনপরত
ওযেবস
ফরিদপরে
একাংশ
জযাঠ
ইউরোপিযান
পরতিযোগিতায
আখতার
পরযোজনা
সবজনদের
হদযের
ভাঙগিযা
চাদাবাজি
অমানয
ফরাসি
শীরষসথানীয
এবি
ওজন
কদদ
৫৬
##োতত
পরলো
##াসি
##কারীর
কোনমতে
##িকষত
##ানতির
শেষের
হতযায
চারজনকে
বনধে
##লাইট
ফটপা
অপরের
ইউনিটে
জামাই
ছোটবৌ
সতযিকার
মসতা
##শরী
উলটে
জীবনযাপ
কাহাকে
##পণযের
পরষদের
##সীমা
ডিজি
বাঙালির
মিলেছে
পদধতিতে
লনডনে
উডোজাহ
তাজল
তৎপরতা
কোতোযালি
##এমইএ
বাযারন
অতিকরম
চাযের
টপ
ফিলি
সচনা
৫টা
৬২
##লব
##জীর
##তিম
বাঢ
সমী
সরবাধ
কাটার
মহিত
গেলেই
নামার
মখপানে
বাসিনদ
রোদ
চালান
ভেঙগে
বদধের
দিনেই
হেত
নীলা
রযালি
করমসচিতে
উইল
তদনতের
নারাযণগঞজে
নেমেছেন
জামালপর
বিসমযে
সিলিন
ইউটিউব
তেওযারী
অক
কবিত
ঠক
ফাক
##গতির
##উডা
##ামটি
##াহিতয
##বাগে
পাগ
##যানি
##রাঙা
রাতেই
দেখিনি
##সেই
কোচিং
জাতের
ধরমের
বসতে
##সথানের
সভয
বযবসার
খাট
শনাক
##পরিষ
করতক
ওযারকারস
যাচছিল
ঢকিযা
সাকষাৎকারে
বরাজিলের
চমকিযা
ভরমণ
শামস
পরচনড
পরজনমের
মসলমানদের
কৌতহল
জনিযর
ফেরদৌস
মরতজা
উপমহাদেশের
চিকিৎসাসেবা
দারিদর
ওযেবসাই
আচল
আভাস
ওরে
কানের
গঙগ
##থিত
##শো
করকট
##িকো
##তিযে
##পরকাশ
দোর
আসব
উপযকত
##রিযার
গরত
মোদির
##দিবস
আওযাজ
বডাই
##পরেমী
উততম
পডেছিল
বসনত
হাজারো
মতযবরণ
অবসান
ভিটামিন
বঝিযে
পরিচালনার
সতরীলোক
বনয
নবনিরবাচিত
দঃখে
##যেনস
নাটকটির
সীমানতের
কমললতা
শরীপর
জনযেই
ইহাদের
চকরবরতী
ফাসির
তহান
তহবিল
আমিনল
ভিততি
সচেতনতা
মতিঝ
হারাণ
পরজঞাপন
বিদযৎসপষট
ফেবারিট
চারজশিট
ইলিযা
এজ
ছক
ছডে
মিত
লব
৬৬
##পাই
##দাদ
##সতে
##উডের
##যাতরী
বিটিভি
একষেতরে
নাছির
উপভোগ
সাভারের
রাঙগা
নামিযে
##চারযের
কষটে
থাকব
গোলাপ
বিভর
উদবিগন
আললামা
##বাসহ
কমিযে
চিডিযা
পরিসং
পরশাসনিক
রযাঙকিং
সংসথাটি
খাদে
সমনবিত
সভাষ
চযানেলে
অরথনীতিবিদ
নিউইযরকে
আশরাফ
ভদরলোক
সথলবনদর
অযালব
রিটারনিং
অসত
৭৩
##দোর
একাই
আমমা
নিবনধ
##বাণ
মাতরা
উপকরম
পারমাণ
##মানতিক
নিযেছিলেন
মোংলা
বিশববযা
মিলাদ
##লপাড
গণতনতরের
এসেছিলেন
ছেলেদের
অপরবর
এতটা
পিপি
##ভারড
জানালেন
তলিযে
সিরিযা
সাতজন
ততই
সৈকত
চলাকালে
তোরা
বযসততা
খেলেছে
দফতরের
উভযেই
চরমোনাই
আবাসন
পযলা
আউট
পযানেল
মযনাতদনতের
সিগারেট
এজেনট
৩টায
##নিযায
##লান
##সভায
##বেসে
##াবা
##কষক
সংবাদের
এইমাতর
বলেছি
জনযও
শিথ
আশার
##াধযায
মরিযা
বনানী
মনতরণালযে
পাইলাম
পরযকতির
জনপরিযতা
খেলাপি
কাদতে
চেযারপারসনের
##পথের
তীহার
করমচারীরা
বৌদধ
মাতভা
পৌছেছে
শিবগঞজ
অধিকারী
##াদিগের
বিমানবনদরের
পরতিদবনদবিতা
মৌলভীবাজারের
অভিজঞতা
টরাইবযনালের
জাসদ
জালিযাতির
কযারিবীয
জলাবদধতা
আইজিপি
রাধারাণী
ঠানডা
কদ
কমাতে
কতরিম
চলি
ঝাড
দবারে
নশ
হতব
##মহর
##ণি
##উটি
##০টি
##োভে
করিনে
##টিআই
##নেতা
দেওযান
##াপে
##করিতে
মহাকা
গেছি
করিযাছেন
##ছিলম
পলিশকে
করিবেন
অধয
শিকষকরা
পরথমবার
হারায
মরমানতিক
দিযাছে
সারটিফি
টেবিলের
মালদবী
১২টায
মৌলিক
বযসক
কমিশনে
৪০০
ফেবরযার
সোনালী
ইনডিযান
এইচএসসি
রাঙামাটির
পরতিদবনদবী
ভটটা
তাপমাতরা
বৰজ
ইসরাযেলের
সহাসযে
সিলিনডার
পরিসংখযান
পারমাণবিক
উম
চাবি
ঝি
পকেট
পিসি
মৈ
শফি
সরা
হও
##ততির
##সারে
##গোল
##ছর
##োকে
বিগ
##াইযে
##টিও
##াবাডি
আরবে
সবসতি
মাধব
দরজায
করমকান
উদদীপ
অসথাযী
সপেন
হোসাইন
পিযারী
পরতিষঠানে
লোকসভা
চাইছে
রপগঞজ
কাটাতে
অধিবেশন
করীম
তরাগ
বযেট
পছনদের
ওপেনার
বহততর
ডলারের
বেদনা
অযানটি
চেষটায
ফজলল
তাবলি
খানেক
জবানবনদ
বরেকসিট
এলাম
গাল
জমার
তির
থমকে
নভেল
মকর
মদর
মজা
রট
সচি
হিন
##যসত
##রপে
পরণে
পরহর
##লিপি
সংলাপ
##বিশ
পারথ
দেশজডে
##াগরে
কলানত
সারিযা
##বযবহ
মালটি
সিরিযার
আসিযাছিল
রাসবিহারী
চাইনে
সিদধেশবরী
চপচাপ
মহাশয
বাকস
রকতের
পরতিরকষা
ধনট
নোটিস
আমেরিকায
উততাল
জারমানির
চাকরিতে
পরিশরম
কংগরেসের
বিবেচনায
সিদদিকী
করমেই
পষপ
জভেনটাস
বিলপত
দরবতত
খসডা
কষেপণাসতর
আশঙকাজনক
অচল
আখা
আবেগ
কমন
ঝা
টঙগি
পদের
রোধ
রমের
##কাম
##পোস
##যেড
একযোগে
##পরদ
##বারট
আরহাম
অনযের
##াগো
দরের
##মেক
অরপ
আনিকা
ধরার
লীগে
বাসচাপায
পরতযে
মারক
##সথলে
গণী
মেযেটিকে
খালাস
চিকিৎসকদের
আলোকে
২০১২
ভাইরাল
টিআই
সবাসথযমনতরী
সবাসথযসেবা
পাননি
সাইবার
মাহমদললাহ
সপোরটিং
##বাডির
ফিতর
সথাপনের
বাচতে
সনতরাসীরা
তৎকালীন
বাতাসে
গৌরব
নীতিমালা
হবিগঞজের
এএফপি
ইটভা
পটযাখালীর
জিমবাবযে
গণফোরাম
সোবহান
আছো
দযাম
নডাইল
শকতির
শশী
সিকিউ
##েট
##দশ
একখানি
##াতো
সেদিকে
পাডায
পাতিযা
মাখ
জানাইল
রাজী
দেখো
##বসথাপ
মোমেন
আজহার
চেতন
লিংক
অবকাঠ
শিকষাবর
উতথাপ
এমিলি
বসানো
মতযদন
পিঠে
মকতিযদধে
তলব
মলিন
পরাণী
সকালের
রবিউল
বনযায
ছাডতে
রাযহান
মাছরাঙা
কযামের
সবাগত
যাহারা
ওষধের
বাধিযা
কাঠের
সোনাত
ফলাইটে
আডডা
মিডিযায
জিমমি
লইতে
জনগণকে
সিঙগাপর
পাঞজাব
মালেক
বিলিযন
রাউনডে
##পরযোজনীয
মেধাবী
ধমক
নগরে
পাতায
বালি
শাপ
সলি
৯৯
##ফানে
##লীর
##পারে
##ষটা
##সাধ
##উঠ
##িলমবে
আরটি
নিরসনে
নেট
অনিক
চেহার
মিউনি
অবিলমবে
##বাসীকে
তমিও
ধরেছেন
ঘোডা
অযাওযারড
ভারতীর
করপোরেশনে
##পকষীয
বযকতিদের
দীডাই
উইলিযা
পতরিকার
##বাজারের
উঠিযাছে
ইযাবাসহ
বাকয
নিকিতা
মদকণঠে
উততপত
কলযাণী
ইনডিজের
পোসটার
মাদরাসাছাতরী
হাবিবর
পঞচগডের
লাফিযে
জডিশিযাল
সমরণে
বরিটেনের
মধযপরাচ
সেমিফাইনাল
##তাবিরোধী
অমনি
জযার
ঝামে
৯৫
##ননদ
##পতরে
##জিতে
##যেজ
##লেস
##টিসি
##পরবাহ
সেম
##কষন
##লিযার
##দরবয
দেখিলেন
মতদেহ
নামাজের
বরহ
পেটের
পেলেও
বছরই
ছেলেটি
খেলায
উঠেছিল
দালাল
পানথ
আটকা
পোডা
অভিনযের
দিবসটি
শাসতির
কাটছে
যাবত
চীনে
##বাডীতে
পরবেশের
নিযোগের
রকষার
আসিফ
গডতে
সনতরাসীদের
বরাজিলিযান
টারগেট
ভকতদের
মনোহর
লনডন
কাশমীরের
রিপোরটারস
##াহেব
অনপসথ
নিকষে
করমসংসথান
পরণোদনা
ঔষধ
কপি
ছটিতে
জাজ
ঠেল
দপরের
পৈ
ফেলার
৯টায
##পিতে
##দাসের
##ষম
##ণডা
বিষণ
করেতাদের
সেজ
সেজে
সংলা
এইসব
যেযে
সাভারে
কালে
##েষে
##মেলা
তোলপাড
হাসিলেন
কোমল
অরডার
বাসসট
ভালই
মারধরের
সমপাদ
ভিপি
আপনিই
অযালা
##সাথে
১২টি
পাকিসতানে
বযবহারে
রেলসট
ধরমঘট
সাকষর
মালিকরা
আদেশে
মহামারীতে
লজজিত
কডিগরাম
##বাইক
পাওনা
##বোরড
##শিকষা
দজনেই
রীতিমতো
একপরকার
##বিসিসিআই
বৈষণবী
শকরাচারয
অধিবেশনে
দরশনারথ
ডেমোক
মোনাজ
নশংস
এখনি
ওভারে
কীর
কবলে
চৈ
জগন
ধৈর
নজির
বণ
মিসটার
সিযাম
৫টি
৭টা
##রপণ
##হই
##শাদ
##শালার
##সিস
##ৰী
##ৎসব
পরজ
##কেশন
সমবায
দেযাল
##কষায
জানিযা
##মানিক
মেষ
দিচছি
থাকক
মিতর
##দারের
মাহে
চৌদদ
কলেজছাতর
কনসটে
দীরঘশবাস
ফলন
##যোজিত
ভযাট
পাইনি
আকসম
সিদধানতের
মযদানে
বাণিজযের
শতভাগ
পরতযাখযান
এমনিতেই
চীৎকার
কেহই
দষটিপাত
এফবিসিসিআই
পরতিযোগিতার
##টোরিযা
শেরপরের
##একটা
আরজেনটাইন
চাপাইনবাবগঞজের
উপনিরবাচন
হাযদর
অতীত
পাটকল
সারটিফিকেট
অকসি
ইযার
উডে
চালের
জিরো
শশ
##ফিযা
##কলের
##অন
##যাযন
বাঙগ
##নেক
এইদিনে
##টেও
মেট
গোডা
শিমল
আশঙকায
বসতা
চাচা
মরতি
নিশচিন
বোকা
##মলয
মযানসিটি
##বাডিতে
কমারস
উননি
সমরথিত
সংশলিষটদের
পযাকে
হাউসের
পাহাডের
গলশানে
হাতিযে
সহজেই
অগনিকাণডের
ফাউনডেশনের
পটযাখালী
বেগমের
একাততরের
ইনটারনেট
পদোননতি
অঙ
ইমি
উকি
গহিণী
ছযে
৭৮
##নট
##বানি
##থাক
##দিতে
করতো
পরদার
##ঙগনে
পাথ
সরল
বেঙগল
মোজাম
##িজীব
##জিৎ
বহাল
তেতল
তলনা
পরতিদিনে
মিরপরে
লাইভ
হরেন
দখলে
##পরতিষঠান
যথাস
ভাষার
শকিযে
নিতযপরযোজনীয
কাবয
মিলিযন
বডিগ
মেহেরপর
তিতাস
মকতিযোদধাদের
ঢেউ
ওযাশিংটন
আতমসমরপণ
সপেশাল
ইফতে
ইলিযাস
আদি
উদধ
খলি
খনন
গতিতে
দত
ধলা
##বধি
##পণে
##ওযেল
করতা
পরদেশে
পরদানের
##াকাল
##িতভাবে
সবাদ
সংকষ
##করণে
এইটক
অনদান
##গরাহ
রাজপথে
দেখছেন
বযযে
কেলে
বেহাল
##পিড
গেমস
আজঞ
বরাত
মনষয
মনতরি
করিযাছিলেন
কষতির
থাকো
মিছে
অবকাশ
ধরন
অসন
বনধদের
রোকে
ভাষণ
বিএনপিকে
ডিফ
অংশে
নারীরা
পারিলাম
কিশোরগঞজে
পরকোপ
রেলওযের
কাজেই
বরাহম
সীমানা
বাসতবিক
সনতানদের
উননীত
সাববির
মেঘের
বিজিএমইএ
অবরদধ
ইনসটিটিউটের
শিরোনাম
বেলজিযা
ঝিনাইদহের
সাফলযের
চেননাই
এখানকার
ভবাননদ
আযেশা
সযাটে
ইশতেহার
সমঝোতা
মোসতাফিজর
গোপনে
বনদেসলিগা
কশ
খালের
খজতে
গহে
চিক
ধা
নত
বযাল
সচল
হিং
৩টার
৬টি
##িযান
##বলেন
একতর
##াহান
দেহের
##াপনে
জনমে
##ওযাত
##টেম
সাগরে
বেণী
কোনটি
##মারা
পরেও
মানষদের
সমযই
লাউ
কমপলেকস
বারি
হারাম
##গাছা
লোকজনের
বিদাযী
সাহিল
দেখেছি
এসএম
সংবাদমাধযম
এখানেই
সথাপিত
কাউনসিলের
তহিন
জবরে
চালাচছে
ইসরাযেল
কলিনিক
জামাযাতে
গছিযে
শিথিল
সিকিউরিটি
মনতরিপরিষ
অয
উজ
কদিন
খাস
ঘেরা
চঞচল
জেন
জিদ
তমল
নৈতিক
লেশ
হলাম
হযাম
##রিযা
##তীর
##লিযায
##পাহ
##মভ
##িকস
##োরা
##তাবে
##দেশিক
আসরের
জানাজা
দিনই
কোনমতেই
অভিজাত
বযাক
অসতরের
বহনিরবাচ
হাফ
##খেলা
##োলজি
বৈদেশিক
সারব
কতো
দিললিতে
দাডাতে
##এমএম
একেক
সংবাদপতর
অভিননদন
কিশোরীকে
চাপে
শরীম
পেশার
সইতে
অনমোদ
সমালোচনার
পলিজ
টেলিভিশনের
বিপরযয
বিশেষজঞরা
হবিগঞজ
বিদরোহ
কমিউনিসট
মনতরিসভা
যাতাযাত
আতিকল
মাযি
ইফতেখার
আবাদ
কাতার
গঞজন
ডাবল
ভই
লতি
##যরের
##রার
##টিই
##াদান
আমান
নিযোজিত
কিবর
জনবল
আসলো
পারতাম
বলেছিলাম
পরিবেশন
মেলেনি
রাজাকার
দেখচি
বিশবচ
রহান
অরফানে
কাজকরম
আইডি
বসা
ঘটনাকে
রৌ
পরশংস
ভাবছি
অযাকশন
কেউই
##মরতি
কিংসের
রানারস
মিনিটের
শোকের
বালিকা
চাকমা
শহীদল
মযানেজ
নিকটে
মিযানমারে
আনিস
সফরের
জিনিসপতর
##ঘাটা
ভাইরাসে
রঙিন
হচচে
হতাশা
মেযাদোতত
পরিযাঙকা
অভিভাবক
শেযারবাজারের
চিঠিতে
দকষিণের
নিষঠর
##দরিদর
গানধী
পরতিকরিযা
অরফানেজ
আতি
উগর
খসর
জযেল
জবলে
পোল
পণডিত
মীন
##বযের
##শোধ
##ফত
##পতন
##ভোর
##সতার
##ধির
##আসিযা
আমীর
##বারগ
দেলোযার
##কালো
অনপরবেশ
দেখলো
গোলের
ধরিযে
রাখবে
বযবসথার
খবরের
শাহীন
কনটেই
বদধিজীব
মধযরাতে
ওযাজে
ধারায
মিথন
ককসবাজারে
ইকোন
কলযাণে
সোনালি
সফলতা
শেরপরে
মছিতে
সীমানতবরতী
কৌশলে
আহমমেদ
গোলডকাপ
মযানেজার
পরেকষাপ
ডিআইজি
কদদস
রোকেযা
বহনিরবাচনী
কনটেইনার
ঘডি
চডা
জহর
তের
ভিযে
মালি
মীমা
হরে
হেলে
৮টায
##ফান
##সকল
##ানার
বিমল
##েনসি
##পরী
##পরষ
##েলেরা
জনপরত
যাতরীর
বযরো
দিবেন
বরজন
কমভ
বলিস
আশবাস
মতযদণড
পরাণের
কলঙক
মরতে
আলোয
সারি
বযাংকে
১১টি
আনতরিক
ঘরবনদী
লিগায
এনজিও
যতটা
মালিকানা
পরতযাশ
আললাহতা
টাইম
করোযে
রাইডার
শৈল
##লেটিকো
ঝালকাঠ
গীতিক
অযাটলেটিকো
অংশগরহণে
ছাগল
মেযাদোততীরণ
আধা
এডি
এভাবেই
গলার
তাত
যগের
রেশ
৭৭
##পটন
##জালে
##ষকরা
##সাগরে
##চডা
##খর
##যাযে
##যালি
বিডি
##তিভ
নিরব
##াডির
##বিশবাস
পারভে
পরিচি
পরিমাণে
নিযেছিল
পরতিপাদ
বেচার
আগার
আমারই
দিও
তিনিও
নামবার
কোণে
থাকত
কাজটা
সপেনের
এমডি
হাটে
তখনো
চালর
গিযেছিলাম
টেবিল
ঠিকাদার
কযেকটা
চেযারমযানের
মিলান
##সংখযক
আবততি
১৫টি
ছাডিযেছে
গরহণযোগয
কাউনটার
ইতিবাচক
শরীকানত
লিখিযা
দবিধা
মোটামটি
পেশায
পাহাডে
জিতেছেন
উততীরণ
অবযাহতি
অনতরভকত
ঢকতে
##াসটরি
বিসফোরণের
সিনহা
শামসল
রাহল
খাইযে
ইউনিভারসিটির
লালমনিরহাটের
সামপরদাযিক
##সংগীত
অবলমবন
লাঞছিত
সানোযার
কনসটেবল
এদিক
ছেলেরা
নমস
শাজ
##গেল
##গতিতে
##াকান
##াজয
বাঞছ
নাহার
##াহর
##োগানে
মাথ
##মনত
##যানের
রাতরির
বিশমিত
দেখবে
শরো
দরবয
বরিস
বযাখযা
বডড
শিখে
পডিযাছে
ভিতরের
পাঠাইযা
সারজ
##সাৎ
হইতেছিল
শাহরিযার
মাঝি
পরবদধি
পরশনপতর
আটজন
পরশাসকের
পনশচ
ভযালেন
খেলছেন
বাংলাদেশেও
বাণিজযে
পিছন
কযাডার
মযমনসিংহে
গবেষক
ডিসেমবরে
জডিতদের
গৌসাই
হরিণ
পিসতল
কডিগরামের
টাইগারদের
যাতরীরা
ডাযাগন
ইনডাসটরি
চনদৰনাথ
অগনিকানডের
দতাবাস
মাহমদর
হতযাকানডের
কোযারেনটাইনে
জীবাণ
তিসতা
উনমোচন
উদদীন
বৈদযতিক
সংকষিপত
বিশবচযামপিযন
জনপরতিনি
পরিচিতি
চট
চকতির
ঠোট
ধযে
ধোযা
ফিন
ফাকে
ভান
ভোকতা
৫৯
৮টি
##শোগ
##জানা
##আউট
##ানায
করটি
পরোগ
পরফলল
##িকল
বিসর
বিএম
একশ
##পরস
নাড
করেচি
##মিণী
হইলাম
কেক
কথাটি
চলছিল
সথি
সভার
ইনভে
জীবিত
##সেরা
অরথের
পাঠা
মরহ
কতদিন
কতজঞ
ছোটখ
সাহা
এসএ
পরণব
সমসাময
কাদেরের
চাদপরের
লাইনে
মাসেই
বছরেও
লাভের
টেকন
খাদযসামগরী
জামালপরের
পরমাণিত
এলপি
সামরথয
ভোগানতি
কারযকরমের
অরথনীতিতে
হেলথ
এককডি
টাঙগাইলে
মনতরিসভার
সরবসব
শরীযতপর
সমারটফোন
লঙঘন
এনবিআর
টেকসই
সটাফ
শাখায
শরীযতপরের
সমসামযিক
কাই
গাজা
ঘাডে
ঢল
দডি
ধম
ফাতে
ফাদে
বকল
মণড
শবে
৬১
৬৯
##যয
##থেকে
##ধিকার
##ংরা
##যাই
অনতরের
বলযাক
উপচে
##বরা
##রাও
গরী
কেযার
বেডিযে
সিএম
গেযে
নামতে
##ীনগর
কিছমাতর
গোছ
মারচে
বিকরয
অনযমন
রেমিট
##সমপনন
খাওযান
দেশেই
শাহবাগ
মাঝামা
জাবেদ
আটকরা
উললা
কানাডার
দরনীতিবাজ
করতাম
মিরপরের
গলপে
লোকাল
শাও
ধরমাবল
কষটিযায
শতাব
সনতানকে
আইনজীবীরা
তাতেই
পরিবরতনশীল
চালাতে
বিএসএমএম
ডাকাতির
সষটিকারী
সেখানকার
সিঙগাপরে
ফাহাদ
চিঠির
উদযোকতা
তারকাদের
কোহলি
অবহেলা
বিএসএমএমইউ
ঈষ
উপরের
জতা
দনিযায
ধলো
মাতা
রপে
রবির
রাকিব
শঙক
##মলে
##ষী
##খি
##ংবার
বিবি
একসাথে
বাশের
হযেও
##যানা
কাভারড
চলনত
সমযটা
##োসাই
লাগা
ইনজর
বহদিন
সমপরসারণ
খাও
খাশোগ
খেলেন
ছাতরদল
২০১০
##শালায
কামালের
মসতি
লাশের
ফিরেছে
চৌধরীকে
ভালোবাসি
কথাস
২০০৮
সেনটারের
বিসমযের
অজঞান
ফোরাম
পারলামেনট
লনডনের
বাটীতে
হাযদার
এডিস
গাইবানধার
কেরানীগঞজ
পললবী
পরাদরভাবের
নেশা
মনসীগঞজের
পরাণহানি
ইজতেমা
পিএসজি
আশেপাশে
উডোজাহাজ
ডেমোকরে
জগননাথ
মোজামমেল
সযাটেলাইট
লেশমাতর
আধার
গি
চেনা
জোগ
ঝরে
ভকতি
ভীত
সাইন
##নকে
##ংকের
##ঘো
আমম
সেবায
নিদ
নিরবাক
নেদার
বলিনি
পারত
পারবত
##দধির
##বরষের
করাও
বেডায
##সেস
কোচের
কষকদের
কমতে
শিহাব
##শিপ
রাখছে
শিশটির
##গাতি
##সাগর
বোতল
কামার
তথযপরয
সকলছা
##শরত
সৌভাগয
ফরহাদ
খালেদ
নিরদেশনায
গহাযণ
সটেট
কযামপের
বালয
ওযেব
ইহাকে
সাবধান
রাজলকষমীর
জযাক
শবাসর
ওসমানী
খনিজ
ঘাটতি
লটপাট
##োততর
পিকআপ
অবসরপরাপত
পরিনস
অযামবলেন
কালিযাক
নমসকার
আকা
কলার
গপত
জড
জিল
তপতি
দীন
দনড
ধাম
ষোল
০১
৩টি
৯২
৯টি
##বতী
##শবে
##শচয
##দৈরঘয
##ণতা
##লাকে
##ামখী
নাতি
সেবন
অনতঃ
উপার
রাজনীতিক
##যোগাযোগ
##চছেদের
দইটা
##চারে
গোযাল
আনত
ধরেন
জেএস
কমিটিতে
অভিযোগপতর
বলিবার
সমপকত
ভাতি
ভিজে
খাচছে
সারাজ
ভাবলাম
লোককে
মাহাত
রেখেই
অংশের
জনমবারষিকী
সকালেই
গরহমাতা
শিলপীর
ভোটিং
বোধহয
ভোটগরহণ
গহসথ
এগার
দাযিতবে
দোকানের
দরতপদে
চিরকাল
সবিধ
ভোরের
বরণনা
বিসতারিত
কবীর
পরতারক
ছিনতাইযের
বহতল
বারসেলোনার
আমনতর
ফিলিসতিনি
উদযানে
দরশকের
দবনদব
ইউনস
মখরিত
সংখযাল
সেভিযা
##াহিতযিক
জবানবনদি
মতযদনড
ওযাজেদ
পারভেজ
ধামর
ভরাট
সাপত
৭৪
##ৌ
##টেল
##কিক
##দাতা
##মিল
##মহা
##ঞার
##ঘি
নিসত
সবদেশ
##োগয
সাভার
মেম
পরেমে
সপিনার
জেএম
বসার
বসতি
অনযরকম
দিযাই
জামান
লোকটার
ভাইকে
ভরতির
কলেজছাতরী
তললা
ঘরিযা
মাদরি
নেওযায
ছাডার
মাদকদরবয
পাশেই
ফারসট
জারসিতে
বিলীন
চরফ
বালযব
তরণীর
বাদশাহ
বাংলাদেশিদের
পরিকলপনাম
আইনজীবীদের
টেলিফিল
তেমনই
উততাপ
যাইতেছে
কটনীতিক
অদশয
গলোবাল
হিউ
পরাজয
একরকম
কমলাকানত
ফরেঞচ
সকলছাতরীকে
সাহিতযের
বাফফে
মাতভাষা
আকসমিক
পরতিপাদয
শাজাহান
সংখযালঘ
বালযবিযে
নযাদ
পাম
সতম
৩য
৬৭
##বোন
##বানে
##ফলে
##ভয
##এসের
##ারিতে
পরবাহিত
##াইবার
নাহিদ
##াবদধ
দেহে
জনসন
##াডী
##বিশিষট
জানার
মেসির
দেশগলো
মানের
হবেই
কেনাকা
মানষে
লিচ
অবয
অবনতি
সনাতন
বসবে
রাখি
তাকেই
গণপরিবহন
##যাযিত
বারের
অপরাজ
##সমিন
মযাগাজ
হারানোর
পিপল
পাললা
রিপ
লাশটি
উপলবধি
পরসতাবে
লেবান
আসামিরা
পাইপ
পলকে
শাসক
পরকলপে
বললম
##গঠিত
উৎপাদিত
২০২১
লকষমীপরে
পাইলট
আডাল
বিসতারকে
##াকসিকষত
শবাসকষ
আতঙকিত
বযানার
সবেচছায
জটিলতা
রিযাদ
শাশডি
গবেষণায
সিইসি
পরযবেকষণ
ডাযাবেটিস
নেদারলযানড
সাপতাহ
নযাদিল
জসিম
টঙগীর
ডাযের
দশা
নম
বনের
মঈ
মরা
যদধা
সাক
সফি
৮২
##েও
##তোর
বাডা
##াহা
##নোর
আরবি
##দরের
জানিস
গরযানড
শরৎ
##সতক
##কিট
##সমমত
সারজন
বিচারিক
সমমখ
বিপদের
শিলপপতি
জলিযা
১৫০
দবিতীযবারের
সতরপাত
পারিবে
মজিদ
##মখর
খেলছে
মযাচেই
সাজজাদ
##েলিযান
ইতিপরবে
দবিপকষীয
অসটরেলিযান
মজদ
মজলি
নানী
পডিযাছিল
অঙগরাজ
ডিসেমবরের
কাঠাল
বিবাহের
##াসথযের
উদযাপিত
রিজার
ফোনের
যৌথভাবে
গলশানের
পদতযাগের
দৌলত
বিকরেতা
বানদরবানের
সাতকষীরার
আদাযে
কওমি
খেলাধলা
শনাকতের
পরিকলপনামনতরী
জনা
দষণ
নিনদা
মযর
১টার
##পমেনট
##সপর
##চী
##োকতি
##যাশী
পরভা
##তিবাচক
##াবির
##ওযাল
নেতিবাচক
এইরপ
উপবেশন
পারলো
সরি
কাটে
##মেট
সিমেনটের
বরধিত
##চারজ
কিছর
##ঞজি
হইযাই
পথচার
ফিরছেন
বারংবার
চেযারে
এতকষণে
হারের
সিনেমায
আকরানতদের
মহানগরের
সটযান
উননযনশীল
##ামানয
জাযানট
জবাবদি
সেদিনের
আলাউদদিন
কষতিপরণ
অলঙকার
১৯৭৫
সোনাগাজ
লজজার
লকষমীপরের
জঞানদা
সতরকতা
ধারাবাহিকতা
হেলপার
দশযমান
সরেনদরনাথ
পজিটিভ
টরাইবযনাল
পিরোজপর
ঠেলিযা
এহ
এডিযে
ডেন
দলা
নদের
বরা
মলে
মদিন
লাব
##নতর
##ফিস
##ডাপ
##মড
##ভাজন
##সচিব
##ৰব
পরবাহ
পরবরত
##কেত
##বারই
##বাগের
সংঘাত
সংখযক
পাটো
দেখায
##াকাটি
কারবার
কারযনির
মিডিযার
করমবির
আনমানিক
##শিম
বহমখী
চালকের
পাচজনকে
১৯৪
জামে
জামিনের
লোকস
২০১৩
ডিভোর
লাখের
বাডিঘর
সডকটি
যোগযতা
পরসাদ
মধযদিযে
জোযার
খোলার
খারিজ
দবিগণ
নাজিম
মহরতেই
পোশাকশিলপ
বৌদি
আগরহী
সবপনে
পরতিদবনদবিত
সজনশীল
ঝালকাঠি
সংবিধানের
করমকাণড
বৈশাখ
অতীতের
শাকিল
থাইলযানডের
উৎকণঠা
মওদদ
সিনডিকেট
খাগডাছডি
কারিগরি
বিআইডবলিউ
জনমশতবারষিকী
পরলোভ
ঝামেলা
ঈষৎ
সাপতাহিক
কারযনিরবাহী
ইরা
এটক
এএসআই
ছাদের
টম
নরম
বখ
মরম
সটিভ
হিরো
##ীপ
##মলের
##ইযে
##ংকার
##উড
##িকাকে
বিচিতর
সেকট
তারে
আসিলেন
পারশব
রাফি
পরতিশোধ
দরগম
সিম
আমারে
দিলেই
মোটেও
কোল
কোসট
থাকতো
কমবে
##পরেম
অধীন
সপত
আশলিযায
মাসী
লাগানো
নাইন
##পালা
ছাতরদের
ফেটে
কতটক
লাখো
লকষাধিক
ডেভেল
কাননার
অভিনযে
পাইলেন
সটযাট
বইছে
পরতিষঠানকে
##যেনটি
সলোগানে
আলাউদদীন
কারাগারের
গলাস
সটেডিযামের
সইজার
ইতিমধযেই
বিজঞানীরা
শীষ
ছিনিযে
রাননাঘরে
রমেশের
শবাসকষট
টেকনাফের
মালযেশিযায
খাযর
যানজটের
গমভীর
ভবানী
##কোনো
আইসোলে
পারফরমযানস
পরপরই
##ঙগালর
তাবলিগ
কিবরিযা
বাঞছার
ঈশ
ওযেল
গাব
ঘাম
বষ
যবর
শও
হব
৪টায
##নগরে
##চিস
##োলো
বাছা
আসিতেছে
##জনযে
গরীব
মাননা
বেলাল
দরনত
বরবর
##ঞজয
##ঞজর
মিট
মিশে
আনতঃ
আইএসপি
লীগকে
##ারথক
সনাতক
সনিরদিষট
পডলাম
চারপাশে
##জাতি
কলহ
##গৌ
কোরবানি
##বোঝ
গাঙগল
মাঝারি
খানকে
পরাণিসমপদ
নারীসহ
শিলপীদের
##কারীকে
হেভি
##চরণে
বনানীর
ডেভিড
কিশোরের
যতদিন
ডাকতারবাব
বিকষবধ
দজনই
ইতালির
শরীপরে
নোংরা
উভযের
সহাযতার
ইউরোপা
##মহরত
হাউসে
বিনিযোগের
বিসফোরণ
ধানমনডিতে
পরজনন
অনসারে
পরচারণার
বযাটিংযে
আহমদের
কতকটা
##হাজারী
চারিদিকে
সেনটরাল
হতযাকাণডের
একসচেঞজে
দৌলতপর
চিতরনাযক
তাগিদ
উপকলীয
হতাহতের
বখাটে
অবকাঠামো
হাযদরাবাদ
মনতরিপরিষদ
ভিযেতন
মীমাংসা
ডাযাগনসটিক
বিসরজন
পরবরতীতে
ঘটা
চডে
পষটি
পতরের
বারণ
রবারট
লিজ
শানতিতে
##যযার
##পলের
##মাদের
##ৈল
##খল
করমা
বিকেল
একদ
সমিত
সমনত
জনমের
##করের
যেটা
জানতাম
##ষটীর
দিঘ
দিবো
কথাটাই
চেতনা
বরহম
কোষ
মনটা
বযাটারি
অসপষট
মামার
শিকষাবিদ
মাসম
হতদরিদর
সভাপতির
তোমারই
##লাইতে
বিষযের
অনযদের
##াধিকার
অপরদিকে
পরশসত
একটাই
ভারতকে
দাডায
ঘরতে
পরবততি
নববই
##খানার
মানবতার
খোকা
জাতিকে
শনেচি
পরযালো
বিনিময
বযাটালি
বামন
##াদিগকে
মনোযোগ
বাযতল
তানভীর
ফসলি
রোনালদোর
সবচছনদে
নিরীহ
অসথিরতা
পডাশোনা
রিসার
অবিশবাসয
নিকষেপ
আজঞে
আঙগল
ইজ
ইমন
এলেই
গাজ
চডি
জাবি
ঝডের
ঢালি
নৈর
ফিস
মযার
মইন
শফিক
হযারি
##বড
##লীল
##যেব
পরাপ
পরদীপ
বিলের
##পরকার
করেতারা
##ঙগন
গতকালের
মেটরিক
দেখবেন
গরচরণ
দিবয
মোস
অসবি
তাদেরকে
মারকেটে
##সটন
পিবিআই
আমরাও
চৌকি
দকষতা
যাইত
চাইলেন
সাথেই
আটটি
সৌজনয
খালেক
বাডিতেই
লোহার
পলক
চিনিতে
##ধারার
শনেছি
হযালো
##গোষঠী
সমভবত
এনেছে
ইহাতে
জগৎ
##ওযেট
বিজঞানী
ভোররাতে
কাগজে
ফেডারেল
কযামপাস
মানিকগঞজ
আরজেনটিনার
আবাহনীর
ঘটনাসথলে
তততবাবধানে
সঙকোচ
লকডাউনে
সটরাই
কলিকাতায
পষঠপো
অবলমবনে
খরিসটান
দাউদকানদি
খিলগাও
নৌবাহিনী
ঠাণডা
সীমাবদধ
কিনঞজল
সসপষট
নাশকতার
ফিটনেস
জীবনযাপন
সরবাধিক
আখাউডা
ধৈরয
ইমিগর
সথিতিশীল
আইএসপিআর
খানা
গিল
বালিশ
যদ
সীত
সিসি
হাপ
৪টি
৭৬
৮৭
##ঠাক
##মিস
##ভের
##ছার
একধারে
বাধে
সমগর
সেলি
##ঙগেল
পাতরী
##বিজঞান
আসায
উপদেশ
##মিং
মেকস
এরমধযে
করিও
মানষই
##ীবাব
কাজল
তিনবার
কোনোদিন
অনষঠেয
রেগে
দিকেই
ধরেছে
পাঠাতে
##পারেনসি
পদম
##বিতত
যখনই
রিপন
মসকো
যোগদান
বিমানে
অতিবাহিত
কারযত
ছবিটির
গহকরমী
সমাধানে
সনিগ
চরিতরের
বাকের
##বাডীর
কাটাচছেন
অধিকতর
সফররত
গণমাধযমের
যকতফরন
মশাই
ছোডা
ওযাসার
ঠাকরগাওযের
আউযাল
বিপিএলের
চযাডাঙগার
ওযাসাললামের
আকরষণীয
##পিটাল
ঝকিতে
সংঘটিত
টরানসপারেনসি
নৌবাহিনীর
সনতষট
যদধাপরাধ
শওকত
এও
কড
খি
গোর
ছরি
ছিনন
জযাম
তদার
পিল
বোল
মাজার
মজার
রজ
##জোড
##চকষে
##ছডিতে
পরযায
##নাটয
##বাং
##বাগান
##মনদ
##যনতরের
##বসিত
কষত
মানষটা
গোলোক
অরপণ
আইএস
কমলের
উততয
দলই
বাডবে
রাখবেন
তারাও
হাফে
অপরতিভ
হারাতে
##তীত
শিশটিকে
বিচারে
রোগীরা
জাগর
আতমহতযার
দাবির
গহর
সরবনি
বিদেশের
ফারজানা
পরতিষঠানটির
কষটের
জমজমা
ভাঙচরের
বালিযা
পরাথমিকভাবে
ইহারা
নাসতা
নিষপততি
নোযাখালীতে
নিরাপদে
বযবসথাপনায
জগদী
উললেখযোগয
বাছাইপরব
ভালবাসা
ভালবাসার
##শাসনের
ষোডশীর
নিমনতরণ
পীডিত
সনামগঞজের
নেতরকোনায
সরবরাহের
চাপাইনবাবগঞজে
##তিকরমী
ভেনয
কেশব
অযাকাউনট
ভটটাচারয
করমাগত
জমজমাট
ইযেম
গাযক
জাকার
ভলি
ভিসি
লাম
##েদ
##টকে
##ফলের
##সিন
##ধের
##যাটিক
##িরভত
##াইজ
বালা
##াহত
##বালা
##মনড
অনিরদিষট
রাগে
বযতিকরমী
##বসতর
সিপাহ
আজিম
বযাহত
অধো
বসছে
আহতরা
##বহৎ
টরযা
##যাযী
বারতায
অনযতর
ডাকতে
##পাটের
ছাতরের
##াকিবের
পরকাশনা
বরিগে
সমমতি
বনদনার
ভোটা
আতমঘাতী
ফেরা
##মরযা
নববরষ
নৌপরিবহন
মানবতাবিরোধী
আযোজক
২০০৯
দখলের
দোকানদার
সতযান
আনিতে
ফটবলারদের
সবীকারোকতি
তরিশ
মরযাদায
পাঠিযেছেন
বিসিএস
বিছানার
বরাদদের
করাইম
আতঙকের
ফজলর
সকষমতা
ভমিকায
লাকসাম
নাগাদ
ডরাইভার
মচকি
কনফারেনসের
জনগোষঠীর
বিমলবাব
মাঝামাঝি
কথাসাহিতযিক
তথযপরযকতি
খাযরজজামান
আংশ
চত
জৈ
দটির
নডিযা
ভতয
মদরা
##বতে
##পান
##মপর
##মণড
##সায
##চলা
করোধ
##ালয
বিসত
##াইলেন
##পরানতে
সেকরে
সবজের
মাধর
নিরজন
এইভাবে
##বরতন
বিশরাম
গোষঠী
আনডার
কমবল
##শিশ
##বদে
সভযতা
##বাহিনী
##বহিরভত
নাইজের
গণপিট
##পেকটর
ডাকিতে
শধই
এতই
##যরথ
১৯৩
সারক
বিদবে
গাওযা
দাশ
জালাল
ঘরিযে
অপবাদ
বনড
মাদকাস
শোবিজ
বালক
ফোনটা
##ঙখল
পাবো
টাইমস
ভগছেন
মলযবান
ফটবলাররা
মহিমের
##ামারীর
হাওর
চোরা
দাখিলের
বরেণয
রহসযজনক
বেডাচছে
বিডমব
আমনতরণ
রমজানে
মঠো
পেটরল
ঊরধবতন
সমারকলিপি
##শরেষঠ
সৌরভ
আডাইহাজারে
নিশচিনত
পাথরের
আগারগাও
উহ
খাব
খোর
গঙগা
চশ
ঢাল
নথি
রপের
সটি
সতরের
সোসাই
হৎ
হের
৯৭
##ডনের
##দাগ
##চরা
##উই
##যালের
পরকা
পরগতি
আমরণ
##াবাব
সেমিন
সংকষেপে
##করতা
##বরি
##খনো
কাযে
কালা
কাশী
হইলেও
গেমে
দিনম
নামটা
##ঞজলি
চলিল
মখারজি
রহিলাম
আইডিযা
শিষয
বাসভবন
সহপাঠ
##বদলের
পথচারী
ভাটার
১৯২
উঠেছেন
##ভিউ
বরিজের
চেযেছিলেন
কনটর
তৈরিতে
অপহত
অপারে
অপবযবহ
আতমসাৎ
দীডিযে
সরববহৎ
ভাগযে
বানানো
ধরমঘ
জারসি
খেলাফত
সাজিযে
নিযনতরক
শরেণিতে
##কানদা
পরারথিতা
২০০৭
আযকর
অনিশচয
নিকিতার
সিরাজগঞজে
উনমাদ
সমমানের
সহাযতায
এলাকাবাসীর
নাকচ
সাপোর
নাহয
কযারিযারে
মোরশেদ
এভিনিউ
জযাঠাই
##পরেমীদের
ডেমোকরেটিক
হেভিওযেট
আবে
ইবনে
ঋত
জালে
ডিরে
ডবলিউ
তলার
তখনি
ধরি
নাল
নহা
পাতার
মনা
মশক
রকষণ
সকোর
##শযের
##ষকের
##াসটর
##াইড
বাউ
বাধার
##ীরের
##াবস
নিমি
সবগলো
নিরপায
অনতরে
আসক
পারাপ
পরিজন
বযথার
দিনও
##দিগের
##সতান
কষধা
ঘটতে
##বলিযা
করমসথলে
অবহ
##জিদ
লাগলাম
বিকা
##পাতের
পরিচর
মেযেটাকে
ডাকিল
পাচছি
বঝলাম
পরশানত
চাঙগা
গাঢ
খলতে
চাহে
খানম
##শেম
আটকের
##োপাধযায
রপানতর
কারযদিবস
অভিনব
ফারাব
ফেলেছেন
কযামেরা
তরণদের
লাইনের
উৎসবমখর
পলাট
পলাসটিক
ছিডে
সমরথক
মাতাল
এফএ
শীষের
করণীয
##ফিলড
৭০০
তানিযা
বাগানে
মেরামত
সংশোধনী
ডিএসসিসি
যানবাহনের
বাটীর
নাটযশালার
অটোরিকশার
টিপিযা
কযারিযারের
চাদাবাজির
আলোকিত
সংগীতায
চিতত
ফযসাল
সঞচয
##লাগিল
মমবাই
অরথাযনে
উততেজনার
শাপলা
সারাজীবন
বিআইডবলিউটিএ
সরবনিমন
অযোগয
ইযে
খশির
চলের
পাদ
পঙগ
বথা
মাতার
মফিজ
লায
শোভ
সগ
২টি
৮৬
##বিযা
##একস
##যাসে
বিবাদ
##াসন
##েনডার
##ঙগলে
সংবরণ
মাও
বলবার
বলছিলেন
উপকরণ
উপাদান
##িনিকে
পারভ
##দধের
সরমা
##মানে
রাজিব
গরদাস
##বসতি
দরবার
দরভাগয
কোপা
পেপার
করিযাও
করিযাছি
কিছতে
পলিশি
মিশর
ধরব
আইযব
বাসতবে
পডেনি
অরথে
খাটের
সোপরদ
বৈশিষট
সাহসী
সমমত
শাহর
কনসার
দাডানোর
ঘরবাডি
সথানীযদের
রাষটরপতির
##মপতির
মোহামমদপর
পাইকারি
কষেতর
নাগরিকের
পতরিকায
অপরাধী
পরিবেশের
সীমানতর
সংগঠনটির
অনিশচিত
নোযেল
ঈদগ
বযবধান
তালিকাভকত
সনদেহভাজন
বিজিবির
দরযোগের
নিউইযরকের
ইঞজিন
##চিতরয
আতমীযসব
দেযালে
সাজাপরাপত
নীলফামারীর
অগনিকানডে
মনদিরের
সপরিবারে
কাহাকেও
নেটওযার
বদধিজীবী
পরেকষাপটে
গীতিকার
মাহাতাব
নিসতবধ
গাঙগলী
এখ
এভার
খাতা
ঘমো
ঘাতক
চিনে
জডাইযা
টেল
নজ
০২
৭টার
৮১
৮৪
৮৮
##রব
##লযানডে
##মপে
##জগ
##আমাকে
##োচে
করতব
পরোট
বিহার
বিএফ
একমহরত
নাঙগল
কিট
কিসে
আসছি
বলেছিল
সরের
সরোত
কাতর
বরকত
অভিহিত
ইউজ
আনটি
বলিব
এমনটাই
রোল
সমপরচার
আমাকেও
মরগি
##ফলক
##জজাম
খবরটা
##েনেজ
##সংস
দেখেছেন
সতরীলোকের
পরসার
ফরসা
রাযপর
তরটি
তরসক
##দদোজা
১৮টি
সৈনিক
দাযিতবশীল
রকতাকত
কোমপানীগঞজ
তীকষ
মজাহ
অগরাধিকার
সাদিক
দৈতয
নিযনতরিত
ঋণখেলা
বযরথতার
মাহববর
পরাজযের
বযানারজি
##করমীদের
খাযরল
কাগজপতর
বাটী
জেরজালে
গরাহকদের
অগনিকাণডে
সতীশ
মেলিযা
##জেনসি
সরবসতরের
বদরদদোজা
ককরের
ইসরাযেলি
##যাতরায
পরতযকষদরশ
বঙগোপসাগরে
দারিদরয
অযালবাম
বডিগঙগা
মরহমের
রিসারচ
উততযকত
আযা
ইমান
চারে
ঠেলে
ভিন
মিনার
লন
লেন
হাহ
##িপ
##কথ
##ইসি
##খণড
##ঘণ
##াননদের
পরথা
করেচে
আমতলী
সেকে
সরাইযা
মানতে
শরমা
বেযে
নামাইযা
আজীবন
কোনদল
অবদানের
##নীল
২০১১
অযাটর
করিতেও
পদমার
##কষণিক
রোগীকে
পরাণপণে
আববাস
এসপি
কাপাল
ফেরাতে
নানাভাবে
দাবী
নীচ
রাশিযায
দেননি
ফারমে
সনদরবনের
জমকালো
রাজধানীসহ
সংগঠনটি
তরণীকে
ভিডিওতে
কষণকানত
অপরববাব
মকতিযদধবিষযক
দোকানপাট
আসিবে
দখলদার
অকটোবরে
বাছাইপরবে
চাষিরা
উততেজিত
শীতল
মনোভাব
পরযোজক
বাগানের
টেলিভিশনে
অরধশত
বাঘের
দরভোগে
শরিফ
চেকপোস
মাহফিলের
কনফারেনস
বিতরণের
টরেড
জনসংখযা
গযালারিতে
পোরট
অকারণে
যাবতীয
ভযালেনসিযা
মঈন
যবরাজ
সীতাক
উক
চকরানত
নীত
ফাল
বশচ
লস
৭টি
৯৪
##ততম
##পাক
##পকরিযা
##দাকে
##দষটি
##মাত
##ভঙগ
##ভরে
##গড
পরনে
##ছেলে
##িকপ
বিসতত
##পরথম
##পরবক
সেলাই
সেকটর
##নিকে
আরোহ
##গরা
পারায
জানলে
সাউদ
##মানড
রাবে
##বসথার
বেঙগালর
তোলে
দিযো
হাসে
আজি
##জেম
পেযাজ
দইটি
ভারস
মখটা
বডলোক
পডছেন
মাসবযাপী
লাগাম
এবারই
বিকত
##টরিযা
##ডারিং
সদসযসহ
এতটাই
ভাবছে
ডিপ
##বযবসথা
##জজিত
বাডিটা
মলযে
ফরজ
কানাই
পাইতে
লোভে
মাথাটা
১৩টি
তাকালো
ইরশাদ
জোরদার
লকষযমাতরা
থামিযে
সমভাবনার
করীড
অগণ
ফাসি
গোপালগঞজে
মেজাজ
অসহয
চালককে
হেলিকপ
বরগনায
শকনো
কৈলাস
ঝলিযে
##জোডা
কমলাপর
ইনডাসটর
তারকারা
সরবাঙগ
রেসটরেনটে
বিআরটিএ
আইপিএল
ফৌজ
মেনন
রওনক
ইনদোনেশিযার
গামছা
##কহিল
সননযাসী
ফটপাথ
কেলেঙকার
ইকোনমিক
অডিও
অগো
গডি
ডযা
ঢলে
নওযাজ
পিন
মজন
রন
হজের
##ভকতির
##সথাযী
##িনকে
সমাগ
##কষের
##োনো
নেব
উপাধ
উপপরি
##ধানয
বিশবেশ
বরাদার
##সতির
মখখানা
সথপতি
অবতরণ
২০টি
পরতীকে
গণপরিবহ
রোমা
ভালোবেসে
শিশটি
উততরার
মরগির
মরহম
ভাবা
বরিফি
কলাসে
১২০
পোহাতে
বিজনেস
পরিষদে
রেলপথ
দঃখী
গলির
ইকন
ভগবানের
টরাকচাপায
থানাধীন
পেছনের
করমচারীর
সমিতর
সংগরহের
উললেখয
সোনারগা
সাকষাৎকার
ভবিষযতের
ছটফট
মানিকগঞজের
নরসিংদীতে
কমানোর
জেলহাজ
এযারলাইনস
সাযরা
##মেলো
রপতানির
রণবীর
##যাতরার
এনআরসি
ইনসপেকটর
তাৎপরয
কমনওযেল
টিআইবি
দযামযী
সোনাতলা
শরোতাদের
রেমিটযানস
ধরমাবলমব
পিপলস
পাটোযারী
আংশিক
সেকরেটারি
##জজামানের
বশচিক
জেলহাজতে
আতা
ইমার
উজির
ওষঠ
কতিতব
গালে
গষটীর
চিল
ছনদ
ডযান
ঢেকে
তলিতে
দটা
পনের
পজার
মমত
রদর
রচনায
হাব
২টার
৮৩
##রগ
##রমে
##টান
##ীণ
##কতে
##পানি
##ষময
##সাহেব
##ধরম
করবি
করদধ
বাচি
বাদল
##িতব
আমল
কিচছ
##দেশীয
অনির
পারলেন
পারকের
##রিজম
কাঞচ
অভযার
কেমিক
##েষটার
মহলে
চেম
থাকিত
ঘটবে
উঠি
করমশালা
ইউকর
ইসির
কমতি
বলিবে
মাসিক
বনধন
পরাধানয
জীবিকা
মযাডাম
দিতেন
সারকিট
পরকাশয
বঙগবনধকনযা
সিরিযায
শিলপমনতরী
##াকরমী
পরবণতা
তলেছে
লেভ
বোধকরি
##রথক
নিউক
ফারম
হযেছিলো
লালন
খোজে
আরেফিন
বানধব
সাইকেল
শিকষককে
লকাইযা
বাজেটের
বাদশা
ইযাসমিন
অবসথানরত
বাচিযে
লডাইযের
ভগছে
জরিপ
শিরোপার
মোবাইলে
এলোমেলো
কারযকরমে
রোহিঙগারা
ফোরামের
৮০০
সংশোধিত
উততরাঞচলের
লেনদেনের
ঝিনাইদহে
জাফরললাহ
বহিষকত
বিজেপির
ছরিকাঘাত
নেপালে
নিমাই
হিমশিম
পরবাসীদের
খযাতিমান
গণপরতমনতরী
অনভতি
আযারলযানড
কদমত
মহাকাশ
শফিউল
মিউনিখ
পযাকেজ
তললাশি
পারশববরতী
ডেভেলপমেনট
সেমিনারে
পরতযকষদরশীরা
ভারসাময
এদেশের
কাকা
কানা
গণে
জীরণ
ডরি
তনযা
থার
দলাল
দমপতির
পদার
পাসের
ফান
ফযাম
ফযাশন
লযাপ
হোন
৯১
৯৬
##শতা
##জমিন
করচি
করোধে
##লাদি
##াহরণ
আমেজ
আসত
আসবো
যেকোনো
দেশবাসীর
##ডিএফ
বেডি
দিচচি
নামঞজর
আপা
কোনটা
পেলেই
দইজন
কষযকষ
কষীণ
চললম
ধরিল
##াবিধ
##লাইনের
রেডিও
রোজার
জামিনে
বিচারপতির
##বযথা
বঙগবনধকে
গাং
পরীতি
তলিল
পরারথীকে
##আইপি
সিদধানতে
সরবকালের
ডাঃ
দঃসমযে
জোড
##পালটি
পাইনে
সংখযাগরি
১৪টি
ভলতে
চিনতিত
কাটতে
##নদেহে
নিঃশরত
১৬টি
এমনিই
পনরবাসন
পাবনায
যাহাকে
চনদরনাথ
থামছে
বোঝাই
মাইক
টেকসট
নানামখী
ভোটারের
মলযবোধ
উপাচারযের
জববার
নিমনমানের
নিষেধাজঞার
জনসভায
বিএসটিআই
সাপের
পেলো
বাধযতামলক
বেদনায
পঞচগডে
দীপিকা
পালটাপালটি
মোহামেড
চনদৰমখী
রেসটরেনট
ছিটকে
মেঝে
সিআইডি
জযনাল
জহিরল
লৎফ
লবণ
বৰজবাব
আললাহতাযালা
শবাসকষটের
হাফেজ
সংখযাগরিষঠ
আচছনন
এলেও
খণড
চাকা
ছই
নড
মদন
রমি
রসিক
শখ
শান
হরম
৫টার
##ফায
##কিতে
##কোট
##মদের
##জরি
##গী
##ধনিক
##ৰা
##ারাত
পরমখ
##াযনের
বিবর
বিউটি
একি
##পরাপ
সেটাই
আরচার
পাডের
##বিভাগ
উপনযা
পারতেন
সরযের
গরভ
শরট
তাহের
##টারের
সিডনি
মোসত
কোনও
বিশবাসের
কষণা
গোদাগ
লিবার
##কষেপের
বনধরা
নাইট
হাঙগ
অপরিস
হিসেব
দেখাচছে
শিশরা
একটও
কালই
অযাক
সথানানতর
নগরবাসী
শাহজাদ
ফলবাডী
পানিসমপদ
অতিষঠ
বাইপাস
##মপতর
মাঝেই
রাননার
পলট
রেলের
পরতিষঠানটি
শবদটি
গলফার
ছিলে
সাবধানে
নানাবিধ
উপাযে
ভাসমান
হালদা
আখযাযিত
ওযানডেতে
ঘাটি
হসতকষেপ
সেলটা
খনিদের
##বিধানিক
বিডাল
রইলাম
কোরআনে
শাশডী
অতযাধনিক
অনশীলনে
অগনিসংযোগ
একসচেঞজের
হিজরি
টোযেনটি
শিকষাপরতিষঠানের
নডাইলের
##মহরতে
ইটভাটা
মাদরিদের
দলাভাই
করমবিরতি
লযাপট
অমিত
খাবো
জবি
টানে
তিল
তেলের
দিতাম
ফড
ফযান
বকস
মকস
রচিত
লর
সকর
##তাসহ
##জিন
##চীন
##গোনা
##ধনয
##ণডার
##৫টি
##যেট
পরণের
বাগাতি
##পরচার
##নাশক
নিবেদ
##াপাডা
সবিস
##করাম
##বিদয
আসলেই
বলবল
সরো
##কাছে
পরতিবছর
কেব
মতলব
মোযাজ
বিশবনাথ
থাকছেন
ঘটিল
উদাহরণ
মারকেটের
হতভাগ
মতযদ
বনধকে
বহিযা
##াধারণ
##িকারক
নিরবাচনকালীন
আপনিও
শনানিতে
##পারট
করিতেন
##তিহীন
সকলকে
সালেহ
পরিসরে
পরযোজনায
ভলিযা
বসিযাছিল
সৈনয
##গারড
হননি
বাবাজী
২০০১
মকতিযোদধার
নজরদারি
টেলিযোগাযোগ
সিংডা
উভযে
কারওযান
ওঠেন
সমিথ
গোযেনদ
মনদিরে
##োদভত
মসললি
তরিপরা
আওতা
মজিববরষ
পডিলেন
লিভারপলের
বংশোদভত
সঙকলপ
মেলবোর
মাহফজ
আচলে
উচছবসিত
##ধিতব
সিইও
পরাণহানির
তালেবান
উখিযা
কবিতার
সভযতার
টঙগিপাডায
সেমিনার
চোরাচাল
বৈশিষটয
ইদর
কটি
কবল
জমান
জঙগল
টিন
পিতাম
বেলার
মঙগলের
যবদলের
রজন
লার
শযন
শীতে
শমশ
সধ
সও
সযাম
হিল
হীন
৭টায
##যসা
##তযাগ
##কাড
##দৰ
##দবার
##ভির
##সৈ
##গেশন
##আন
করিসট
পরজে
বালাই
##াদাস
দেও
##বিযার
উপযোগী
জানিনা
মেধা
বযথায
##সততঃ
ঘটিযে
করতেও
লিপ
বাসকেট
আশির
শেখের
পথিক
ইনডিযা
গণহতযা
ভাযা
ভিযার
হিসেবেই
খেটে
বঝিলেন
আগামীতে
বৈজঞান
ভৌ
##বানী
জামাতের
লোকটির
জানানোর
বিপিন
মিলবে
##সংবাদ
যাইব
দেখেছে
পেযেছিল
শরমিককে
রযাপিড
তালিকার
টাউন
দেখিলে
পলযান
থাকতেন
অচেনা
আনদোলনরত
আদেশের
সবিধার
টেনডার
দপরবেলা
হাটহাজারী
নানদন
অঙগনে
সিংহাস
আমিরাতের
ভোটাররা
পরথমেই
কটনৈতিক
কযটি
বলিউডে
বউযের
ফসলের
নেততবের
পরাইম
মনিরল
##জাহার
পরিতযাগ
নীরবতা
পরিশোধের
গিরী
যকতিতরক
সহিংসতা
হৈম
বহনকারী
শিলপা
ইশতেহারে
হাদিস
অধযষিত
অকসিজেন
সারজারি
ডাযেরি
সটযানডার
সতযাননদ
রাবেযা
##শতাধিক
মোযাজজেম
ওজনের
কটা
কচি
খটি
বারী
রযেল
লিসটার
শযা
শনা
৭৯
##যি
##তলে
##হইতে
##মনের
##ইর
##ভরম
##খবর
##ঘব
##৩টি
##ামারি
##বেলার
বিত
বাটি
নাঈম
##নেতরী
দেযার
আরমান
তারও
##িতেও
বযতীত
দিযেও
আগসটের
##মেই
সিএ
বরষণ
থাকন
উঠলেন
বযাটা
##বাসীদের
সামলে
তিনটা
সনধানে
পরতযনত
পরতিকার
সদরে
খাবেন
##গালা
চাচাত
বৈষময
কালীগঞজ
চিং
সারারাত
মাহফি
করিতেছেন
বিপজ
কামডে
আবব
##মরষ
ঐতিহযের
লোহ
শাসতর
একদিনের
উচচবিদযাল
কণঠের
কষেতরেই
কযালি
যোগাযোগের
মোকাব
আফরিকান
ইহারই
রামদাস
উৎপাদনে
পরসকারপরাপত
যশোরে
তাডিযে
সমরণীয
ছিনতাইকারী
চযামপিযনশিপের
ভটান
বসবাসরত
ফিলিসতিনের
কাচাবাজার
সিসটেম
দাপটে
পারফরমযান
এনআরবি
সিনডিকেটের
চিতরনাযিকা
সীমাহীন
যনতরণা
সভাষিণী
লতিফ
মাথাবয
জনপরতিনিধি
অপরাজিত
রিজারভ
##বোঝাই
মইনল
অনিরদিষটকালের
মাদকাসকত
পারভীন
আতমীযসবজন
অযাটরনি
কমনওযেলথ
মকসদ
মাহফিলে
অই
কাপত
ঝডে
ডিলার
ধব
নঈম
পটি
পচা
পতল
রকি
শায
শদধ
হকার
হবো
হাডি
৪রথ
##ডক
##দাম
##ভকতি
##ষি
##ষায
##ছডির
##খিত
##লাব
##ামকত
##াইর
নাডা
নিই
জানাই
##মাবেশ
যাচচি
##াগা
##নদরে
দিশাহ
##কতাদের
বিশবকে
কোমর
কষতিকর
মিম
অরজিত
ইউপির
লাঠ
##যোপ
মারতে
বাডী
বসো
বসলো
##িসেস
পরাযশচিত
##সমপর
##সমযের
চালকদের
ডাকসর
পিট
ছাতরকে
পালনে
ঠিকাদ
রেখা
হাতেই
##চচেন
৩০টি
মলযাযন
ফলযাট
একেএম
আতমপরকাশ
আতমবিশবাস
মাঝেমধযে
আলীকে
বইপো
যাবৎ
ঘমাইযা
ইতসততঃ
পরিচযপতর
টানাট
পরতিবেদনের
পোশাকে
নানার
টরামপকে
চকতিতে
জিনিসটা
ফেনীতে
অলস
সরেজমিন
হরিশ
হেরেছে
ইংরেজ
মিসর
দষটিন
অরধশতাধিক
চামচ
জেলেদের
নিতযন
বিপিএলে
অভিমানে
গিরীন
নিঃসনদেহে
##ফোনে
পিরোজপরের
অবহেলায
ফতললার
ডেমোকরযাটিক
মাজিদ
টিভিতে
হাতিরঝ
পরকরিযায
মাগফির
মেটরোর
পরশংসিত
##ঘোষিত
জেএসডি
ডিরেকটর
নালিত
সীমানতরকষী
দৈতযকল
পদারপণ
ভিযারিযাল
বৈজঞানিক
নানদনিক
বিপজজনক
অবা
অামার
ইডেন
উষণ
তরম
তিকত
দযেক
৯৮
##দহ
##সাহ
##আজ
##যাতের
##িনয
বিহ
##াকডি
নিবে
##বাপ
নেতব
##বিজঞ
আসবাব
বলিত
মেডিস
নিযেছি
পরতিজঞা
বেডাইতে
বরাব
কষণে
থাকবো
চলিযাছে
বযাধি
বডির
##তমখে
বলিতেই
দলিল
মারামারি
ইসলামীর
লাগার
##বহল
গেল৷
ছেলেটার
হিসেবেও
মাহি
ডিভি
ছোটগ
বিপনন
##তোমার
রিটের
কাপডের
বসেই
যাননি
##াটো
যতকষণ
পরোডাক
ডাকতারি
চিনতার
জিডি
গোলডেন
উদবোধনের
কাছের
সংকরমিত
জিযাউল
খরচের
চানদ
চানদিন
টানতে
আধারে
জরিপে
অগরিম
জিতেছিল
সাদেক
পরেরণ
কযটা
কযদিন
নিযনতরণের
বরণিত
জনসচেতন
বরষার
ঘনিযে
সেনাপরধান
##দোষ
যাতরাবাডী
মনিটরি
আচরণবিধি
ধাপের
হোটেলের
বেডাচছেন
ইঞজিনিযারিং
গরাহক
অনেকেরই
আকরমণে
নযনতম
হানাদার
কৌতহ
ননদিত
##দরশিত
হদরোগে
ফসফসের
দকষিণে
জযপরহাট
সমাধিতে
ইজিবাইক
ফিলিপ
আরটিজান
মধযপরাচযের
যথাসমযে
অসনতোষ
শাওন
মযাগাজিন
পরলোভন
অম
অচেতন
ওদিকে
কলাম
গটিযে
চরা
চারা
ছদ
টায
টরি
তদ
তৰ
ততির
ধস
নকষ
পতে
পচি
মডি
রখ
রনধ
রমার
রিসি
হোল
৫টায
##াভাগ
##হো
##মবী
##জড
##আস
##োটা
##যালে
পরেশ
পরকারে
##িরি
বিঘা
বাদে
বাউন
##পরবি
আমলা
##টাগর
##ঙগনের
জননীর
##িতেন
মাযে
##োনির
নেগে
আসছিল
পারিস
জানাজ
অভযরথ
গরব
মানহ
মানবদে
বেচ
##মেযের
##মেলায
মতন
আজিকার
##তনামা
মনশি
উদভি
শিহর
মামনর
বসলাম
সভযে
##গলোও
##রণের
এসেই
এসেচি
বিষাকত
ছেলেবেলায
বঝলে
উততরায
পাঠায
করিতেছিলেন
##বযসত
ছোটবেলা
ছোটভাই
দাফ
কামরা
দাডাইল
ডেই
ছাডপতর
জীবনত
পোড
বযাংককে
##ভরতি
সবারই
ভাগাভাগ
চিনতায
তরকি
বিযেতে
সালমা
পশচিমে
ভাঙার
বিলডিং
চরচা
জরজর
বকততায
২০০৪
ভেবেছিলাম
শিরোমণি
মাদরাসায
আসিলে
##টিভির
অসতরোপ
মণির
পরদরশনীর
##েনদৰ
থাকিলে
পরতীকের
পতিন
##বলিলেন
রিকসা
মিনারে
দেবদাসের
শটিংযে
যাতরাবাড
ইনদিরা
রকতে
দবীপের
নবীনগর
সৌনদরযের
ইঙগিতে
বসিলেন
ভিজি
কাতারে
সাহিতযিক
ইঞজিনিযারস
সংগীতের
চলাচলে
আরাফাত
পরতগিজ
রেজিসটরার
ডেমোকরযাট
মনোনযনপরতযাশী
রযাঙকিংযে
মালটিমি
আমনতরণে
##মহাশয
হিউমযান
দিনমজর
নজরে
লনডারিং
বেডিবাধ
বাসকেটবল
নেগেটিভ
অদর
আতর
আচরণে
কলের
কাকর
চমেক
তষার
থাপ
দৰ
ধইযা
পপ
বজিযা
লতা
##তলার
##বালের
##ফী
##ফটে
##দাল
##দসয
##সপ
পরদেশ
##ালিতে
বিএ
##াকল
বাডে
##নাগ
নিভ
##কারড
সংকেত
অনিল
##বিবি
বলছো
জানাইযা
সরাইল
মানবে
শরদধ
দিদার
দিদির
মোকার
##তনী
##মারি
ঘটল
সংসকতির
মখখানি
অরিন
উদঘা
আলিযা
বিরত
বডপকরিযা
তিনদিন
সহধর
রাখায
##মদাস
হাটা
গণগরাহ
ছেলেমেযে
শহরত
বাহাদর
শনলাম
দিযাছিল
কলেশ
পদমরযা
মোহাম
দেখেচি
বিষযটা
সাতার
ততকষণ
সকযার
মধযকার
এনটার
জোটে
কিশোরীর
সংখযাও
দামি
ভালোবাসায
বিকষোভের
যাতরীকে
জরজ
জররী
বকতবযের
চিরদিনের
ডরোন
পেশা
দৌরাত
চিতরনাটয
ফেনসিড
ভাসিযা
দোষী
বেনজীর
ভালবাসি
থাকিবে
ঘাটের
জনসভা
হিমা
অধিকাংশই
সখীপরে
##চোখে
টযাবলে
ভিকষে
রহসযময
আছাদ
সবলপদৈরঘয
লটপাটের
মনতরিসভায
সনেহের
দধের
ফাহিম
দরগনধ
বরাবরই
সজোরে
পরতযয
গরনথ
উচছবাস
গবেষণার
ফসফস
ভিকটোরিযা
মেঝের
সানতনা
ফলাইওভার
বাসিনদাদের
পরোগরাম
সোনাগাজীর
মযারাড
মেকসিকো
সেকেনড
অপরিসীম
অামি
এদেশে
খচরা
চযারি
জডো
ডার
তঙগে
দিকি
পকেটে
বকর
ভষিত
ভকতরা
মোগ
হরাস
##হরের
##টাব
##ললা
##পাপ
##চাপা
##গনে
##গোপ
##এসে
##ঃপর
##ানতরের
করানো
পরাত
##লাক
বিকে
##াইনের
আমজাদ
সেট
##কষঠে
পাষা
মাং
##করমের
##দরশী
বলিযে
বললেও
মেড
রাগের
##ডিএ
অভিবাসন
##চিহন
মিটিং
আছে৷
জেমস
আশলিযার
বাডার
রাখাইন
লাগাতে
অনযরা
রেহাই
বাহার
চাষে
ফেদের
বরিটেন
বিদাযের
ভরপর
আইনগত
কযেকবার
গাউ
সতযকার
সতযতা
##ধাও
দাডানো
হকির
যোগাড
নবগঠিত
লেভেল
যতদর
ফারিযা
তাহাকেই
সমাজকলযাণ
শারট
ছিঃ
রকতচাপ
পঞচাশ
চনদরের
পাকিসতানকে
অজহাতে
কলযাণের
সতীর
সমিতরা
রাসতাঘাট
উপরেই
মৌসমি
বযরথতা
ইনসটিটিউশন
নেযনি
বাগেরহাটে
পেরেছে
কাহারো
সাগরের
গৌরী
মাদারীপরে
পডিলাম
গযাং
পলিসি
জাকিযা
আবহা
পরজনম
উপনিরবাচনের
ঠাকরগাওযে
##বরধন
সিঙগাপরের
খযাতনামা
অনাযাসে
বৈশাখী
ছডানোর
কিনঞজলের
##ঞচিৎ
হংকং
নিপীডনের
জলপনা
জাননাতল
মরাদনগর
পারথকয
দরবততদের
বরহমপতর
বাঙগালী
উননিসা
ইনভেসটি
জযাকব
##গৌসাই
ঢালিউডের
নীতিনির
কেমিকযাল
দিশাহারা
কফি
ঘমনত
চন
চবি
ঝলে
ঝকির
টল
টকরো
তডি
বদি
বশির
ভযের
মডার
মাইন
যাদ
লং
শঙকায
হির
৬টার
৯৩
##তদের
##মোন
##জযনত
##ঞচার
##ংসার
করান
পরথ
##ালমা
বিচরণ
##াকরি
##বারক
সেগন
##বাট
##নিবেশ
আরকত
সবাসথযের
পাউ
##োগরা
অননদা
##বিহার
বলতেই
##লোকে
বিশরী
রাজতব
কাটিতে
##মেযাদি
দিনটা
কোলাহ
দইজনে
ঘটেনি
##সবাদ
সরকারবিরোধী
বিভকত
বডযা
আইই
তাদেরই
বাডডা
টরান
আদম
তাইজল
##বাবকে
অপরপ
খালাম
শিশির
##পাতি
চাষের
##ভিং
ডিঙ
রেখেছিল
জনমদিনে
বনদো
কনসয
পরশনটা
আসামের
সাংবাদিকতা
কানাডা
##বোধন
মিরাজ
সটডিও
শাসনের
এটিই
ধারার
##িসটরি
দোষে
চাদর
##বারষিকীতে
কণঠসবরে
পরিকলপনার
বটেই
তরাণের
উৎপাদনের
রবিন
##গলির
নিশচযতা
ফাইনালের
সবেচছা
মসলমানের
দরবততের
তরিদেশীয
৬০০
অশলীল
বিরোধিতা
বাযো
অসমযে
মরযাদার
চাহিদার
পারলামেনটে
সংশোধনের
শৈতয
রওশন
১৯৯৬
আচরণের
রিযাজ
শাশডির
জাদঘর
নকশা
রমণী
ভমিকমপ
কাচাম
সহিংসতার
সঞচাল
ফতললায
রোমানটিক
জানযারিতে
আখতারজজামান
##বসথাপনা
চেতনায
##পরেমীরা
সটযাটাস
পরযালোচনা
অধোমখে
চশমা
বিশবেশবর
চাচাতো
কযালিফোর
দষটিননদন
সহধরমিণী
আং
আযাত
উহান
এতিম
খট
খোন
গফর
ঘটি
বারে
রড
রপন
লাহ
লটের
শোর
সযানি
হানা
১টি
##হী
##বকে
##ডম
##ডেনটের
##কবি
##লর
##পিসহ
##ভযে
##চচে
##গাজী
##ধরা
##খিল
##একট
##যাংশ
##িনায
##াইলের
##িলির
বাণী
সমদরে
##াবান
আরমভ
##বিযান
আসিতেছিল
উপড
##টেবল
হযনা
রাণ
রাঙগ
রাখন
রাজবাডী
রাজবাডীর
মানবস
##বসহ
বরষে
##মারস
আলতা
সামলাইযা
সামলাতে
কাছেও
লাগিলাম
##ংশযে
ফিরবে
ফটিযা
মেযেসহ
আবারো
সমপরদায
খেত
কতকষণ
মিলের
অংশী
ভোলায
দীরঘনি
ফলযা
সৌময
আলমকে
কাননায
জোনের
খেলবেন
সটোর
তরঙগ
উইকেটের
দামপতয
সংকরমণে
বযসততম
যৌবন
অনরোধে
##াবাদে
ইকবালের
উৎসক
বাঙালী
নওগায
গাইড
রিজেনট
ওপেনে
সাহাযযে
চকিত
জিতবে
##আপনার
রাঙামাটিতে
বেদনার
টরাসটি
তণমলের
দরভোগের
গেমসের
কমপলেকসের
গণধরষণ
পদকপরাপত
ফিলিসতিন
একসচেঞজ
অনসনধানে
তিশা
একপরযাযে
তথযের
লাকসামে
খরিসটাব
মোতাযেন
বিশলেষণ
বৈধতা
মধযপরাচয
পরতগাল
নোবেলজযী
করমশঃ
যথারথই
ডাযরিযা
##াকালীন
মালিকানাধীন
উপারজন
নমঙকার
বযাটারিচালিত
সনিগধা
হৎপি
জযাঠাইমা
মোহামেডানের
মেডিসিন
জরজরিত
ফেনসিডিল
টযাবলেট
আবহাওযার
শৈতযপরবাহ
অহর
আযন
আকতি
উধাও
খপ
খাডা
চেনে
জযেন
ঝিম
তপ
দসয
পজ
বোস
ভরি
ভাতার
মঙগ
রপা
লী
লিযা
সশাসনের
৮৯
##রিন
##বঝ
##ফস
##মীরে
##গণের
##ছক
##ছডা
পরামা
##াহয
##াহিত
##াবততি
সেচ
##টালে
##নিও
নিরসন
##বিচার
##িনিউজ
সাখা
পরিহাস
মেযরের
দেখিযেছে
শরটা
দরবারে
দরোযান
দরপতন
সিঙগেল
গেটা
আপনা
বিশবাসী
বরযাক
মনসি
মনোযার
##বলিল
কিছকষণের
কেনদ
মিড
মিষট
কাজটি
মনেও
ধরমদাস
কমলেও
অসীম
সপট
এমনটা
##তিকা
বযবসথায
টাকাটা
অপরিকলপ
##তততব
বাহিযা
বাহারি
আমাকেই
##যরত
মরব
মরিতে
অযাসিড
ঠিকানায
তেহর
রোগা
মিলিত
সনধযে
##যাসল
জলম
ফেললাম
##ঙকান
মহানগরী
নৌকাড
##জীবনের
ডাযাল
##মখের
রোহিণীর
দেখিবার
ভাগে
ধারালো
ভালোবাসে
অভিনযশিলপী
লাইট
২০০০
শতাংশের
আরেকটা
ফিতরের
লাভবান
সহযোগিতার
বসতঘর
মডেলের
কাঠামো
এপরিলের
আলমগীরের
হালিম
বাহিনীকে
নিরযাতিত
পরযোজিত
পরচেষটা
চালাচছেন
অপেকষার
আকরাম
পৌছাতে
বিপরযযের
টরাকে
##চনীয
নাটযকার
বিডিনিউজ
খালিদ
লালমনিরহাটে
মোললার
হাওযায
নিলামে
দারোযান
পরজঞাপনে
মখযযেমশাই
শাহাদাতবারষিকী
ততিকে
বিএসএফের
শিকষাপরতিষঠানে
পরকরিযার
মেসেজ
মনোনযনপরতযাশ
পাগলের
বিশববযাংক
ফেবরযারিতে
নজিরবিহীন
বেলজিযাম
সমমখীন
বাঞছারামপর
গাবতলী
কাঞচন
টানাটানি
ছদমন
অভযরথনা
ওসত
কতব
গরা
গডাইযা
ঘডির
চব
টোক
ধযান
ভাজ
সকট
হীরা
##নং
##নতির
##হায
##হইল
##চাদ
##ছন
##এবং
##৬টি
##৮টি
##ানতরে
একপাশে
বাউল
##রেড
পাবার
নেযা
##াডিযা
উপদর
##িনিষেধ
পরিদর
পরতিফল
কারনে
কেপে
বেতার
মতসয
মহারা
আজিও
##তনয
##ীবান
অরিনের
বডই
##ারথে
শিউ
সহাযক
##বদা
##োসা
মারার
অনেকবার
ছাটাই
গণনা
মেযেমানষের
চোপডা
হাতখানি
গিযেছি
ভেজা
ভাবতেই
নিজেরাই
জামাত
লোকসান
##গরহণের
ঠিকমতো
##বযসী
সদরপর
সাংবিধানিক
কীট
মখেই
লেখকের
বেরো
ফরনট
ফলোরি
বেগমকে
কিশোরকে
এমপিদের
গলপটি
এগো
১৪৪
##সারস
##আরসি
সমযেই
সমাজকে
বানধ
বিকষোভে
##লিতেছে
বোরহান
চলচচিতরকার
মিযাকে
এরপরও
কযাটাগর
ইরাকের
##মাধযমে
নাজির
উৎসরগ
যেখানেই
দিকের
সোনাই
এলজি
##গলিত
ভাসকর
ভোগানতির
কনযাকে
আখেরি
কাশমীরে
মেজবৌ
ইমরল
কইরা
ইউপিডিএফ
ঘোষণায
গৌরনদী
মকতা
মকদদ
জবালিযে
সঠিকভাবে
হবিগঞজে
সজাগ
একাততরে
পিঠা
দাওযাত
সিদধিরগঞজে
এইখানেই
পরযটকদের
বিশববযাংকের
হতবদধি
পরতযেকের
উতথাপিত
তেতলিযা
মাযিশা
ইফতেখারজজামান
হেলেনা
ফিসফিস
বরিগেডিযার
সবীকারোকতিমলক
ঋণখেলাপি
কেলেঙকারির
মমতাজ
আছাদজজামান
আকল
ইবতে
উকিল
কৎস
খোল
চণড
ঝম
টযর
টিসি
ডন
নডে
নবয
নিলো
পতি
সঙ
৪টার
##ফেরা
##ককষ
##পষটে
##দিকের
##মতী
##অভ
##অনেক
##১টি
##ঘল
করছো
##িতো
সমখের
জনপদ
গরান
গরাস
গরমে
##াগার
বেঞচে
মধযা
গেটের
দিনরাত
দিগন
নামটি
কোম
অভিভত
##তবিক
গোষঠীর
অবশিষট
মনেই
##জিলা
বিরকতি
সামগরিক
অধীর
মারফ
ইসলামে
ইনচারজ
অবসরে
##পাতা
##লাইটস
মেযেমানষ
রেডি
ভিডে
খেজর
পাঠাও
ভাবনার
কতবার
রেখো
গরেফতারকতরা
কখনই
সেনানি
এসপানি
##ভেস
আটলান
অতঃপর
ফেলিলেন
দাবান
##দীপত
মজিবন
পরচারে
##টোলা
পলটন
নাগরিককে
পরীকষামলক
পথেই
সখবর
তবকের
খেলেই
২০০৬
কপালের
চিরনি
হরষ
থামাতে
মাইকেল
বসততঃ
জাতিসংঘে
বৌমা
আসিবার
বিধিনিষেধ
##সেলর
কটাকষ
বোনকে
আনাগোনা
পযালেস
ডেঙগর
মৌসমী
##বাগি
নভেমবরে
কযানসারে
জাপানি
মানিকগঞজে
যকতরাজযে
তারিখে
টেররিজম
বিবেচিত
##সবরপ
টিমের
ঘটনাসথলেই
শযামল
ভৈরবী
কাতারের
জালিযাতি
ঝরিযা
সেইখানেই
বিলাসব
শিবিরের
পরতিকল
সাতকষীরায
বোযালমারী
বাচাও
অভিশাপ
জানযারির
হারাণচনদর
ছককা
সংলাপের
বাসসটযানড
পরতযাশিত
ঝালকাঠির
বেচারা
শঙকিত
অযামবলেনস
রিপাব
পরতিদবনদবিতায
সইজারলযানডের
ঈদগাহ
বরিফিংযে
নিউকযাসল
পরাযশচিতত
বরাবরের
এপি
কণ
গলে
টিকা
মশি
লঘ
সসি
##েলা
##হযে
##টাক
##ঠার
##মতত
##সরা
##চৈ
##চাহ
##গলিতে
##ধিরা
##ছের
##ঙের
##ৗকিক
পরতে
পরদি
পরবাদ
পরাপতি
##তিশয
নাত
নিছক
দেবিদ
সংগরামের
জনজীবন
##করিল
অনরাগ
##বরষে
##রাটের
কাও
দিযেছিলাম
মোম
মনজর
মনতরীর
##তবযের
অসঙগ
মারকে
বসেন
রাখিতে
তবেই
বিকল
জীবাননদের
##পেকষা
খাটো
পাচবারের
##চিততে
ভরাত
বনদাব
সরকারিভাবে
চেযেছিল
রাসেলের
পরেসিডেনটের
কাপছে
মাধযমেই
হাইওযে
হাইলাইটস
রাষটরপকষের
##দীনের
মহানগরীতে
##ফিউ
দরনীতিবিরোধী
রাযকে
ভাগের
নিঃশেষ
মাহমদল
চাযনা
##িংযের
চাদপরে
##বদধি
ইরানি
বাচিযা
গবেষকরা
সপারসটার
বোঝার
মাইজ
পাহারা
গারডিও
যাচছিলেন
ঈদকে
সমমানিত
পোশাকের
বঝিলাম
ইউরোপে
বামপার
তামিল
পরেমিকা
রোহিঙগাকে
ভযানের
আগরহের
ভাষণে
নযাযয
পাপের
সিকদার
জনসাধারণ
চকবাজার
কাবাডি
বারষিকী
বিকলপধারা
##চোখ
পীরগঞজ
পশচিমবঙগ
মিজান
চাদাবাজ
নাসিরনগর
কিরপ
ইলেকটরনিকস
ছডাচছে
বিতরকের
সিসিক
নিকষল
বিদযৎসপষটে
পাঞজাবি
দাউদকান
শোভাযাতরা
নবজাতক
নবজাতকের
দষটানতমলক
নৈশ
মহেশপর
কসবা
মতিঝিল
ভইযার
রানারসআপ
সাইনবোরড
পারবতীর
ইমিগরেশন
পরকাণড
অপবযবহার
ধরমাবলমবীদের
লযাপটপ
##বিদযৎ
আওতাধীন
মাগফিরাত
গণগরাহী
খোনদ
সাখাওযাত
ছদমনাম
অং
অযার
অঙক
অমিতা
উঃ
ওড
কফ
ককট
কডিযে
গয
ঘচ
জোগান
তম
তেরে
দবির
ধমপ
নাসের
নবাগত
ফোক
রটের
শট
শেল
সলো
৬টায
##তস
##তিনি
##বনা
##কশ
##কক
##দগধ
##ভযান
##চছিলেন
##চেষটা
##ধবে
##এর
করমি
পরবাসীর
##াককষে
##াজযের
##াদদে
##নাযে
সেপ
##ঙগীতে
##লিদ
##াপি
##াপনন
আরমি
##ওযাশ
অনভত
##গরম
##টেজ
বিশর
বিশদধ
কাশেম
দেখলেন
দেখলেই
দরপত
##চছেদে
মোজা
##সৌ
কোনোর
কষয
বযাচের
লিফ
অরণীর
উদযো
উতথান
আশরম
আশপাশে
আশরমের
পডেছিলেন
অনেকগলো
গরামবাসীর
এবারে
চারপাশের
রোপণ
##সমপদ
পাঠকদের
চাটয
পরতিষঠায
টিপে
চাহিলেন
পরাণীর
দাডালো
বদধিম
বাজারজাত
ঘরটা
অতীতে
##কিনত
ফেলি
পরতিনিধির
পনরম
বিজযন
সাংবাদিকরা
জাহাজের
জোহর
রানার
ওযারনার
যতটক
পরোদ
লালমাই
নিরমাণকাজ
সাইফর
জারিনের
নাটকীয
উঠিযাছিল
সটেজ
কষণন
গলাবযথা
##ইউজে
আসনটি
##পরাণী
জামালপরে
ছাতরীদের
এছাডাও
সতপ
শরীলঙকায
আনিসর
আমিরাত
এলম
নসরল
মছতে
সনামগঞজে
দরযোগে
অকসফোরড
সবরপ
টযাং
টযাংক
জটিলতায
ভটানের
অংশগরহণমলক
পযানট
আহমাদ
খেলোযাডদের
আকারের
বারানদার
আলোকচি
কাসটম
কলিকাতা
দবনদবের
মেযাদের
ছলনা
ইউটিউবে
লঙঘ
গদামে
বরিটেনে
মাইলফলক
অনষদের
##শরমিক
ইনসটা
বেইজিং
বদধাশরমে
কাননাকাটি
মমিনল
মসতাফিজর
চিডিযাখানায
উইলিযাম
জাজিরা
পৈতক
অঙকের
অনমোদিত
ফাতেমা
মজলিসের
পরগতিশীল
কনটরোল
মশকিল
সংগীতাযো
এভারটন
করতবযরত
হাহাকার
কাপালিক
অগণিত
বরাদারস
##পরাপতরা
মনিটরিং
পচিশ
শিহরিযা
খোনদকার
অণ
অতয
আফি
কখ
কিল
কাকসিকষত
গের
গচছ
ঘোরে
ঝট
ডজন
দব
দযার
দষিত
রজার
লাইল
সকা
হরত
##িপর
##শীয
##ীমার
##ফোড
##এত
##ানন
পরাস
পরবনধ
পরকট
##লেখা
##কেনদরে
বিবরত
বিচলিত
##াইট
একম
##াহারে
##াতির
##াতাদের
সমাবর
সেভাবে
তারণ
সবনাম
নেপথ
পরিতরা
মেইল
বিশঙখলা
কাঙ
দেখেনি
অভিনন
##নদি
বেগে
বেতনের
##মেজ
##সিদধ
##বলী
উঠলে
উঠলাম
বযাড
মিছিলে
সথানের
ধরষ
বিরপ
বসতিতে
ফিরলেন
নামেই
গণগত
##যরাত
সারওযার
ভাবছেন
মাহা
##বীপ
নদীগ
গরেফতারকত
রেখেছিলেন
শাহাব
সামনেই
##িণীর
দশটা
দাডাল
করপোরেট
##এমসি
কাপাস
একইভাবে
উপলকষ
ছযজনের
গহনা
মাঝেও
ছেযে
ছেডা
কাটিল
খোদ
সমাজসে
বোরডে
দঃখিত
তবক
বাদাম
বিপরীত
করতপকষকে
২০০৫
হোতা
পলাবিত
হাটছে
মাইকিং
বিপলবের
সততর
সততা
অসসথতার
এফসি
ঢকিযে
পাচারকারী
করণধার
চযানসেলর
কবিগর
##শাসিত
ইনসটিটিউটে
লইলেন
করীডাঙগনে
কলপনার
আফগানিসতানে
মিসরের
বযসেই
সশরম
জলেখা
সমদরবনদর
পরভাত
মতিউর
চামডার
আবরজনা
অনসারী
ইহাও
পশচিমবঙগে
পরাঙগণ
কষোভের
সরেনদরবাব
সমনবযক
চেনেন
বসিবার
দরগাপ
শিকদার
দরগাপর
দাপট
কাকাবাব
##িনিরভর
গদাম
শাবান
গণফোরামের
সিপিবি
আমদানির
কামরজজামান
মিঠাপ
কনফারেনসে
মাইকরোবাস
নডাইলে
বিভরানতি
অসতয
##াগোডা
চেহারায
সমপাদকের
ডিফেনস
ছোটখাটো
টেলিফিলম
কোসটগারড
ভোটাধিকার
বিসতীরণ
গণপিটনিতে
নিমিষে
পরিচরযা
ফারাবী
নেটওযারক
উপনযাসের
করিসটাল
নিতযনতন
নেতবনদ
ভাগাভাগি
রিপাবলিক
সমাবরতন
অহে
ইবি
ইতো
ওপার
কইন
খাজ
খনির
গযে
ঘমা
চকরিযা
জেলের
দপ
দিস
দোল
ফাদ
বডা
রখে
রঙে
সষ
সদের
সাজার
##যযে
##ালাই
##েসা
##হজ
##হামের
##শনি
##ফফর
##ডিক
##ডীর
##ডারে
##দাড
##জাদা
##চডে
##গাম
##ানিযা
##বেত
##তিযার
বাযে
বাশার
##নিম
##তালে
সাঙগ
বাংলাদেশসহ
মানসমমত
##নদৰ
দরভাগ
সিএস
তোলেন
নামকরণ
##সিটিতে
##েখা
মনডল
একটিবার
লিখা
##ীবিত
উদযত
##ানিযার
বডভাই
সেইদিন
শিডি
ভালকা
ভালকায
সহকরমী
জেতা
বাডলেও
##ননবী
হাঃ
ছেলেটির
রেফ
রেফার
মযাসে
খাটি
মরক
সারোযার
ভাবী
পরকাশক
ঘরেই
##জজবল
টিট
নগরবাসীর
খলিল
ফটবলারের
রিং
কামনায
দীরঘমেযাদি
চাইলেই
##ভৌ
##োপকথ
উলভার
লেক
পারিব
ফরেনড
সাংবাদিকের
বলতেন
##জীবনে
গিযাছেন
এনডি
##ষিকত
দেবীর
ওযাট
পরোযানা
গোলর
##মযী
##চালকের
চিরির
##যদধের
##ষঠানিক
ফেসবকের
কেটেছে
অসটরেলিযায
বিপলসংখযক
শীঘর
১৯৭২
শীতকালীন
বাতাসের
ঘনটা
পারলামেনটের
হচছিলো
সাফারি
মনিরজজামান
সভানেতরীর
অভযনতরে
পরতিবনধকতা
আবিরভাব
রিপোরটার
রিকশাচালক
আইসিসির
পষঠা
পিঠের
রাববি
ফযাকটর
আঙল
ছডানো
কোটালী
শরাবণী
গযালারি
নিপীডন
রেজিসটরেশন
বাসিনদারা
নীলাপর
ফেবরযারির
করমকানড
সতমভিত
জৈন
গাংনী
কামরাঙগীর
ইনভেসটিগেশন
সেগনবাগি
বনদোবসত
ওসতাদ
ইবতেদায
সসিদাদ
সংগীতাযোজন
এপরি
ওলড
কযাল
ঘাস
ছতর
টাস
টলার
দবাদ
পৰ
বশ
মগন
লত
হিট
##বামাতর
##টাকা
##শিল
##কী
##কীয
##ভীতি
##খযার
##২টি
##ানীতে
করণা
পরযাস
##ামপরে
##ামতের
##িযাই
##াকষণ
একগ
বাঃ
##াতৰী
নিদরশন
##নিযকত
##কালী
পাংশ
নিরা
নিরদ
অনাদা
পারট
##খনদে
##রাধিক
মেমবার
দেখল
##জনম
বাংলাদেশির
গরজন
বেহ
দরনাম
##পিও
পেপ
উঠার
গোযা
অবমান
বিরতির
অসামানয
পডযা
নযটি
এমএ
বসানোর
আহবানে
রাখিল
সভাককষে
চারপাশ
বহবার
বারধ
১০ম
রেঞজ
রোহিত
ভাট
মযালের
কলিনিকে
ভালোভাবে
এতখানি
ওইদিন
চাট
চাচছে
##পারি
##ভিচ
বঙগমাতা
লোকদের
ঠিকঠাক
হামিদের
পৌছিল
৩০মি
দিলম
বনদে
##সংকরানত
সেনাদের
ভোজন
হককে
আবদধ
হেকটর
অপচয
পরশনবিদধ
একইসঙগে
বসেছিল
ততদিন
বাইক
নীচের
পরণযন
পরিবহনে
এটিএন
এটাও
কেবলমাতর
২৫টি
দাযিতবপরাপত
শোনে
পরতযাবাস
##বততি
বাসতবতা
দাডিযেছেন
বোঝে
বোঝাতে
চকরিযায
ফাসট
মখোশ
কটিযা
ভোগানতিতে
##াদিদি
##মিরাল
অশব
অসমাপত
##মশায
গোবিনদলালের
জাকাত
শৈলপ
জমিদারের
করাইসট
রেসতোর
অংশগরহণকারী
দরবলতা
মোরেল
জাদকর
জাদঘরের
সবেচছাসেবী
হসপিটাল
নবকমারের
নিরবিশেষে
আশরমে
থাইলযানড
সমঝো
করমসংসথানের
অনষঙগ
আইসিইউতে
বেইলি
আলামত
টিভির
শিকষাবরষে
শিকষাবরষের
অনপসথিত
সংলাপে
ভাতিজা
##ডাপী
সেকটরের
আইসোলেশন
সগনধ
লাগামহীন
গণপরিবহনে
লিবারেল
কাপতাই
ধবনি
ফেদেরার
অমিতাভ
ককটেল
অহেতক
অনাদাযে
ইপি
কাস
কবের
ঘরা
জনেই
টঙগীতে
ডালে
নদে
নহি
ফযেজ
ভেনেজ
ভলাদি
মভি
মসা
রসন
ষাট
সনীল
##যজঞ
##িকেল
##থানে
##ইনের
##সারের
##চং
##চচার
##ছিনা
##খলে
##োকের
বিচছেদ
একটার
##পরারথী
##পরহর
##াহমণ
সমাইযা
সমবোধন
##নাতে
জনতার
মাফ
##ীযান
নিরর
নেবার
##দধাতৰী
##বরতিত
রাজপথ
রাজমিস
বেআই
মোদিকে
নামাজে
কোটির
উঠান
উঠানে
তাহারও
লিপত
কহে
##ালেই
কমপ
##দাচরণ
বাডাবাডি
শেখরের
##চছল
তাইলে
গণহতযার
রেঞজের
ভিআইপি
কলহের
শধমাতর
গিযেও
কালকের
ভাবিল
##ফরমে
ভাইবোন
মিলির
কলেজছা
##খযাতি
আসিযাছি
চাইবে
সকালবেলা
উৎপততি
ইংলযানডে
পেযেছিলেন
সাতজনের
জযদেব
##মবাজার
ফরযা
নীতির
বিদযতায
মধযবিতত
পোলা
পরচারের
ভাগই
শাসনাম
একদিনে
জারিন
জারনাল
##নামলক
মালিকের
শতকরা
পরতযাবাসন
পরভাবশাল
কথোপকথ
সনিগধ
##বারষিকীর
২১তম
##ষাঢ
পনরদধার
আরেকজন
ফিচার
খাতায
থামিল
##লকষমী
টেকনিক
জঞাত
##ঘাটের
##পোলি
একাডেমিক
পরতিপকষকে
শামীমা
দটোই
পটিযা
বনদকযদধের
বিসফোরক
মোটরসাইকেলের
বরষণে
আশবাবর
সেঞচরিতে
নিতযপণযের
বেলক
সেলিনা
যাতরার
টযাকস
মঞজরি
পরতিরোধের
তাপস
বযাটসমযানদের
অপারেশনের
পাডাগ
হতযাকাণড
রমণীর
রীতিমত
কাযসার
কাযদায
শরমজীবী
##সততবা
মাহমদের
এনবিএ
ডাইনিং
লেগযান
ওযেবসাইটে
পিপিই
উইলিযামস
অযালাভেস
এফবিসিসিআইর
সমিতৰা
দিবযি
যকতফরনটের
বিদবেষ
লাযলা
কনসারট
ইউজিসি
চযারিটেবল
পাষাণ
মাংসের
গেটাফে
এসপানিওল
মশিউর
তেরেসা
আলোকচিতরী
শিডিউল
করাইসটচার
আকষট
ইয
ইশর
ওপাশ
কাসে
খতিযে
ঘমে
ছাডে
জেরা
টকট
ঢো
পজো
বলাই
মওলানা
যাবি
রোক
সশাসন
সারথক
০৩
৫ম
৷অ
##শকতির
##ডেনের
##কলপ
##লত
##মেশ
##মযের
##সঙগ
##গাত
##ৰম
##ঝাপ
##ঘির
পরিযে
##িনীতে
##ালঙকার
##িকরম
##িযাকে
##িযেন
নাযে
##িতাকে
##াতমা
আমতা
##াবলি
তারিক
তারাদাস
সবসতির
সবযসা
জনসম
##িসম
মাডাই
আসো
বলের
বলেট
সরগরম
রাশিযান
রাজেনদর
রাজসথান
##ডেট
বযযের
কারচ
কারোর
শরোতা
গেইল
নামা
হাসয
বরধ
বরযানডের
##সতবক
কষোভে
থাকতেই
##চেক
অবির
অসামপর
পডিতেছে
নযতো
সদহার
মারকায
বাডায
বসল
আহাম
এমনটি
ফিরিতে
সাধন
ফটো
রোদে
ভিগো
বঝবে
##পাশা
শনিল
ভাবমরতি
লোকমান
##ীলতাহ
##করমীর
নগরকানদা
নারিকেল
##যময
চাইনি
##ভবনের
এসবের
চলছেই
সাততার
যবতী
##সনতান
##োপযোগী
রপালি
##আইসি
ফেললে
##মবন
##দানী
দীপত
ফরেন
পরতিনিধিতব
কানাডায
জাহাজে
জোযারের
পরযোজনার
শালা
সনদরবনে
বিযেটা
অপরাধীদের
জিএম
নাটকটিতে
দঃখজনক
শোকে
দরতবেগে
দোসত
কাদছে
বকশ
লাইবরের
মহাপর
যৌবনের
বিপরদাসের
দফার
জোরালো
রকতকষ
ঠাকরপো
বযবসাযিক
এনেছেন
কষিমনতরী
মদসবরে
বিরাজের
চকতিবদধ
সকলেরই
অনষঠানটি
তহিনের
##মহল
মেজদি
শযযায
সেঞচরির
জবরের
##কষমতা
নাকের
নীতিগত
সবরগ
দবীপে
মোশারফ
অনশীলনের
ফরিজ
কালিহাত
নযনতারা
সেরেনা
হৈচৈ
হলিউড
ঝাপসা
নিরবিঘ
জভেনটাসের
মিশিযে
যাতাযাতের
গালিব
শলীলতাহ
সিএনজিচালিত
মযানেজিং
সপরিচিত
দশচিনতা
পাগলামি
পরদতত
দকষিণাঞচলের
নিবনধিত
অনপসথি
দরশনারথীদের
মোনাজাত
মযানেজমেনট
করোযেশিযা
টেকনোলজি
মেমোর
সটরাইকার
ইযেমেনের
ধরমঘটের
পরসারিত
হেলিকপটার
ফৌজদারি
উপপরিচালক
ডযানিযেল
টেকসটাইল
গোদাগাডী
সযানিটাই
মজিবনগর
মারকেটিং
উদযোকতাদের
লঙঘনের
উলভারহযাম
ভেনেজযে
ভলাদিমির
লেগযানেস
আপর
আখযা
ইভেনট
উস
এযাপ
ওদিক
কিরে
ঘি
ঘেষ
চরে
টমে
দাডি
দাদি
দবৈ
পঠ
ফিক
ফিজ
ফাসের
বনা
ভোল
ভাডার
যশ
হিলি
৭ম
##শিতে
##ফটি
##ফটেন
##লীতে
##লজজ
##দাহ
##মতের
##মেনটে
##ইস
##জাব
##সটর
##ণির
##ঙকের
পরসব
##িনর
বিট
##াসনা
##তরাস
##তিষঠানিক
একনেক
বাশি
##পরার
সমতির
##নাটক
##কারখানা
সবতঃ
##মনার
অনতি
অনিকের
##বিউ
উপসচিব
যেতো
পারসপর
##রাচর
##নদার
মোবারক
হবেনা
বরমা
কোণ
কোনা
মনান
করিযাছিলাম
করিমের
মানষটার
লাও
ধরষক
সামাদ
সপে
পডলেন
সদে
এমভি
মাসখানেক
ফিরবেন
সমপততির
সাধনা
##সমাজ
##সমসত
হাতীবান
কলানতি
রাততির
পরশরয
সোম
বৈরাগ
চিটা
জামিল
##হিদল
সদরঘাট
উননতির
রিভিউ
সিরিযাল
কনক
পরাণকেনদর
ফেলছে
অফার
পরসপরের
সকোযা
লেফটেন
পরণিমা
জাহিদল
পাইবে
##মোহ
সাইড
চলাকালীন
গডেছে
আফস
ছডিযেছে
খরচে
ততীযবারের
কষণকালের
বাধন
সাবিনা
কমিশনারের
আকতারের
অচলাবসথা
করিকেটারের
সইস
বিবাহিত
ভিতরটা
ভাসছে
শামীমের
নসরাতের
সাহাযযের
অনধকারের
সেপটেমবরে
চকবাজারের
ছটছে
রাইটস
তীরের
কৌশলের
সমদরের
আছিস
বীমা
জাগিযা
খানিককষণ
ষডযনতরের
শরণখোলা
মরিচ
##ফাজজল
কযেত
আনষঠানিকতা
নিরীকষা
নিরীকষণ
গনধে
পরবাভাস
পিতাকে
সংঘবদধ
আলেম
রপতানিকারক
বিসমযকর
জঙগলে
মোতালে
রিসোর
ছিটিযে
মওক
সিদধিরগঞজের
জানিতেন
নাশকতা
চেচাইযা
সতযিকারের
বিভরানত
পষপসতবক
দীডাইলেন
খলিফা
কেরানীগঞজের
সকলছাতরীর
অনতঃসততবা
অবহেলার
মাথাবযথা
রিসিভ
উদভিদ
আলতাফ
ইবতেদাযি
শৈলপিক
বেআইনি
উলভারহযামপটন
পারসপরিক
লেফটেনযানট
অমত
আঙগ
কলিং
খত
গগল
ঘে
চনি
চষে
টোল
টহল
দহন
নিকা
নেশন
নবায
বচচ
যবদল
লাদা
হেনে
##নানের
##তমি
##হানা
##টকা
##শান
##ীতির
##কাই
##লযা
##পাইযা
##দঃ
##সাজ
##চকর
##ৈরে
##ওযযার
##োদর
বিভা
একষ
নাকে
নিবার
নিলেও
##াপনের
সবৈ
সংগরামে
নিররথক
##বিএ
##বিলা
পারার
সাথী
সাযেনস
##মানি
মেই
কাটি
কাটায
পরতিহি
অভযসত
গরভব
##নধর
শরমবাজার
বেণ
বেটিস
আগাগোডা
মহাবি
মহেনদৰ
##সিফিক
বরত
অভিবাসী
##ডাউন
পেচ
একটিমাতর
সমযমতো
রহিযা
উদবদধ
কহিযা
##জিট
আইসিটি
বাসত
বিএনপিসহ
শিকষায
জেতার
সদীরঘ
আশলিযা
বাডিযেছে
মাসি
##বাহিনীর
ফিরছে
গণয
##ডারের
ছেলেবেলা
ভাটা
##ভাবনা
এতগলো
বাহন
ঘোড
ঘোডার
পরধানমনতরীকে
মরারে
১৯১
##নদরী
করিতেছি
##সাগরের
##করমীরা
বিশেষাযিত
চাহিতে
তলওযার
অনষঠিতবয
চেযেছিলাম
জিজঞেসা
পরশনোততর
রপপর
রপগঞজের
মেডিকেলের
বনানীতে
নবনিযকত
শীরণ
মধযসথ
গহীত
আহমেদকে
পাইত
নিউজের
##মোহন
বইটা
ওযাসা
পরোটা
কাটাইযা
বিসিক
উচচতা
জিহ
সাললাম
কমিশনকে
শতবরষ
পাযরা
আতমার
বাবকে
হাজিরা
লিখিতে
শহীদদের
নিখত
সৈযদপর
খাতনের
মাইকর
অঙগনের
আফরোজ
আফরিকায
জঙগিদের
জগদধাতৰী
শিবগঞজে
ভাসিযে
ভাসানী
ফাইনযানস
পরেমিকার
ইংলযানডকে
বরণিল
সযারের
আখি
তীবরতা
হজরের
অশোক
উচচার
তানজিযা
লইস
পীডাপী
জবালায
দমনে
কমানো
সিদদিকর
মককা
ডিএমপির
গনতে
মেহেরপরের
মাগরায
গরাহকের
সিংহভাগ
গোলাপি
দাডাবে
সচরাচর
সহসরাধিক
উরগ
ছডাছডি
দরশকরা
ফযজল
রপতানিতে
দতাবাসের
শিলপে
পডাশনা
মমবাইযের
যনতরপাতি
কলোজ
দসথদের
লৎফর
ফলাইওভারের
একাংশের
উদধারে
চিকন
ইনজরিতে
চরফযাশন
শিলপপতিদের
অঙগরাজযের
একদষটে
মোসাদদে
##উইচ
পলাটফরম
সমাগম
ওষঠাধ
সটযানডারড
ছোটগলপ
ডেইলি
পদমরযাদার
গযনা
কখখনো
ইতোমধযে
এপরিলে
টলারেনস
বারধকয
অসামপরদাযিক
আদৌ
এশীয
কঙগ
কতী
খডো
ঘেষে
জেকে
টইট
ডেলি
দাসের
নওযা
ফাগ
মসি
যম
রঘ
রকেট
সনের
##ততিকর
##হরা
##বডি
##শরের
##ঠা
##ভস
##ভমির
##ভমিতে
##গিযা
##গাডি
##আমাদের
##ছনদ
##ঙর
করজ
##াযনিক
একতরে
একষণে
##েননি
নাবয
##াদির
##িতের
সমবেত
নিব
গতির
সংযোজন
নিরবাস
নিরদোষ
আসতেই
উপকলে
যেযো
পারছিলাম
##খনদ
কাটাই
দেখব
পরতিটা
পরতিষেধ
মানিযে
বেহারা
##মারীতে
থাকল
উঠিযে
পলিশসহ
মিশনে
আলটি
##নাযক
আনিকার
বিরতি
অসথি
তিনেক
তাদেরও
আশগঞজ
##িমের
অনেকখানি
পরথমটা
পরাতিষঠানিক
বলেনি
হাযাত
জানিযেছিলেন
ভাষয
##সমাজের
দিতেও
##গেটে
পিচ
ফেলেন
অযাশে
সাহার
তলবে
কামড
সেনসর
রাসাযনিক
চাইছেন
পরবতত
জীবনকে
ফরন
##ঙকোচে
গহের
পরযট
দেবতার
সটরি
চাপের
তরফ
কেবলই
উচচতায
উচচশিকষা
জিও
সযোগে
ছেডেছে
##নিরদেশ
ভাঙনের
জিযাসহ
কষেতরেও
জিযারত
ইযাবার
ফিফার
##গোডায
ভগছিলেন
টেলিফোন
মিরজাপর
বযবসাপরতিষঠান
বযাপকভাবে
পরিণতি
রামবাব
অদষট
কাগজের
ভালবাসে
হজম
জবাই
দেখিযেছেন
কডিগরামে
ফোটা
বাঘাই
অকষরে
##জোটের
একরামল
উজজীবিত
গাইবানধায
সচিবালযের
চযাডাঙগায
রযযাল
শবশরবাডি
সমাধানের
ডিএসইএকস
মেহমেদ
ভযাকসিনের
পরতযহ
উততোলনের
সাইফজজামান
হমকিতে
রাধারাণীর
মযনাতদনত
নীলফামারীতে
ইজতেমার
উপসথাপনা
জনসংখযার
উদভাবন
জযনল
হংকংযের
এমপিরা
আলামিন
লযাবে
মালদবীপ
হিনদি
উতথাপন
কযামেরার
বিষণন
বণটন
বযালট
কতজঞতা
মসতিষকের
বালযবি
নানীজান
ডিভোরস
কমবেশি
অসবিধা
পরযাযকরমে
খোরশেদ
উকীল
পনেরো
ফযামিলি
##টাবযাপী
##জযনতী
কোলাহল
##শিলপে
সবৈরা
গরভবতী
ইদানী
উসক
ছদম
জতার
জকো
জাসট
তপত
ফলো
ফজিলা
বাকা
মজর
লযানড
শতে
সঞজয
##তযাশ
##হবে
##হরি
##পদের
##পডে
##দাযক
##চরি
##গানের
##ছটি
##এমন
##উনে
##৪টি
করাইযা
##কেবারে
বিবেক
বিকেলে
##িলনী
একাকার
সমনের
সমদধি
সেকেন
নিদর
সংকরাম
নিরবোধ
নিরনতর
এইতো
বলতো
উপতয
পারলেও
বলেচি
সরকষায
##রিচ
##মাউথ
পরতিপাল
হইছে
করাটা
বেগন
মধযম
দরলভ
মহডা
তোড
কথাগলি
##সেট
##সেফ
নামছেন
মনত
কষধার
উঠিতেছিল
চললিশ
##োকতারা
আনশ
বডদিদি
অসখের
বিএনপিতে
জেমি
পডিতেছিল
পডেছি
আহারে
রাখছেন
মাসটারস
পথচলা
বিকট
অপরতযাশ
এতকাল
বলিযাছিল
উততরপর
পিষট
মকতিপণ
কতখানি
গরেফতারি
কযেকশ
বিশেষত
মিলল
মিলার
জনমনে
তলছে
কনসাল
##যমলয
##িজঞাসা
১১০
তৈরী
জযলাভ
জলিল
ফেলো
ফেলবে
ঘণটাবযাপী
মাতরই
নিউমার
কিশোরদের
এগলোর
পশচ
##ভরানত
##আরপি
পরকো
রমনা
##মকিযা
বানিযা
খাদযের
গডেছেন
##ভাগে
বালর
একসপো
আনদোলনকারীদের
১৭টি
বাংলাদেশিকে
পরিকলপিত
ইরফান
অনিচছ
সবিধে
২২টি
সাহেদ
পেশাগত
সমরথনে
ইহদি
সমাবেশের
বাজিত
শিবনাথের
হালদার
তহানের
পযাসিফিক
চাষি
আডাইটার
টরেনিং
ফোরস
সবরণা
তীরথ
কৌতক
সেলফি
সেপটেমবরের
লেনদেনে
ইনদৰ
গতিশীল
সমদরসৈ
ফলাফলে
শরিংলা
সবচছতা
মরিযম
মহরতকাল
কাতাল
সজলের
ইভিএ
ডোবা
ইউনছ
হাজারেরও
লাঞছনা
কোযারেনটাইন
অরথাযন
টইটারে
ওযেবসাইট
মধযপরাচযে
##ননদিত
রেলসটেশনে
শরীমঙগলে
মণডল
ইনজরির
বযাটালিযন
চতবর
উনমাদনা
চেমবারে
ইউকরেনের
মেঝেতে
উদঘাটন
অংশীদার
টোকিও
কযাটাগরিতে
বনদাবনের
বযাডমিন
টাসক
একষনি
এসময
এজাহার
কজন
কটির
খোযা
গঞ
গজার
চেষট
ছালমা
ডিসটরি
থমকিযা
নতমখে
ভীতি
মমরষ
যের
যতর
রামেক
রিযেল
ললা
সিকত
ের
##তই
##কাস
##কটের
##পেন
##সিসির
##চিযা
##চেল
##ৗটা
##উপ
##ৎকারে
##ানীগঞজে
করচে
করছিলাম
পরানো
##ালিকা
##াসচিব
বাচে
##বারয
মাতিযে
নিরলস
এইজনয
অনযাযের
উপকমি
যেও
যেতাম
##টেট
বলেছিলো
##ধানো
##কাতর
দেশবাসীকে
##যোগের
আগসটে
##টারন
মতিন
সিগন
##পিকে
মহাপ
গেটে
গেজে
চেইন
বরাই
পেযা
থাকলো
ঘটিযাছে
উঠা
উঠো
মানষজন
##াতেও
মিটিযে
আনবে
ধরিতে
কমেনি
শিপ
রাখো
গরামবাসী
##যামপ
পরাণে
##ডারি
ছেলেমেযের
ভাবেন
এতদিনে
##বেশী
বাহয
##বিরোধ
ছাতরছাতরী
ভাবচি
নিজেরা
বঙগবীর
ডিভাই
সাংসার
ছোটবাব
##হাটি
চৌরাস
খবরটি
দশেক
বনদযোপ
গরহণে
ফলবাডীতে
এসএস
জাযেদ
যানতরিক
একবারও
জীবনটা
সরবাতমক
বইযে
বইমেলা
ওযাই
জিমি
সাইদ
চলাফেরা
৫০টি
দরততম
পশচিমের
অযানডর
শনেই
হামলাকারী
শেফ
চালিযেছেন
কযাশার
ইরানে
বাচচার
ডরট
টানাপ
মজবত
যাচচে
মহররম
গঠনতনতর
বযবসথাপক
বাজিযে
পরশাসনকে
অনতরালে
ফিলড
##নগরী
তযাগী
নেতাসহ
হাউজিং
হজযাতরী
শীতলকষ
জবাযের
ভরমণের
মাহববল
পরাকতন
নভেমবরের
কৈফি
অবিশর
পলিথ
##সিযাস
বসবাসের
অজিতবাব
আবেদীন
ভিকষক
##চনদরের
পাথরঘাটা
হোযাটস
ডিএসইর
অসবাসথয
উৎসাহিত
শোনো
আলাপকালে
মহললায
ছলছল
পরযোগের
মোতাবেক
পরতিকতিতে
ঘোষাল
বিনদমাতর
পরানতিক
পরতিকরিযায
খজছে
জযোৎস
ফৌটা
উততেজনায
বজরা
ফিলিপাই
একতরফা
সারবভৌ
রাইডারসের
কালিযাকৈর
জেএমবি
নৈরাজয
জাগরত
অপারেটর
নহাশ
গরদাসপর
চেকপোসট
সবিসমযে
চোরাচালান
সিএএ
মেটরোরেল
তদবির
মোকাররম
গফরগাও
উপদরব
লিফলেট
পরোদমে
গযেশবর
রেফারি
দবাদশ
হেনেছে
মোসাদদেক
ইদানীং
ফজিলাতন
অটট
অজান
অহন
আকষেপ
ইসত
ইনন
ইঞচি
ঈর
উহার
ওহ
গাধ
গাইতে
ঘরম
ছডায
জবী
টিনের
ডমর
দসত
দষণের
ধপ
নোভ
পমপে
বততি
ভাদ
মদি
মতরা
রিযে
শোনার
২টায
##ততরে
##শবের
##ীতিকর
##ককষে
##লিত
##পনা
##ভাত
##অযাপ
##উস
পরন
পরোনো
##িকাল
##ামশাই
##বেগের
##াজীব
##াহাস
নিও
##ঙগিক
জনপথ
##ওযাট
##ীযের
পারলেই
সরযর
##মাঝ
##মাগম
রাজউক
পরতিবাদের
বেসট
##ষঠিত
##সিলে
মনকে
থাকলেই
##ীনগরে
##ঞজিত
চললাম
বযাযাম
লিপি
লিডার
উদভত
কাজই
২০৩
আনাম
ধরলো
সনতোষ
##ননাহার
এমিলির
রাখল
##েনটাল
এমনভাবে
হাফিজর
##টটায
ফটিযে
আমাদেরই
জীববৈ
ডাকি
বাহলয
পাঠকের
ফেযার
ডিপারট
পদচারণ
রেখেছি
বিশেষভাবে
বোযিং
রিমি
তলনামলক
১১তম
মহাসমাবেশ
এসডি
গানটিতে
আতমর
উলটা
উললাস
পরসাধ
পরসিকিউ
দবিতীযবার
চযামপিযনরা
নীলি
পোষণ
সাংবাদিককে
পাইলে
মিরসর
বিজঞানের
ওযাহিদ
পলযাট
এটিকে
উইম
নাগরিকপ
বিসতর
জিপিএ
নিঃসব
##নিরভর
শতকের
পরতযাবরতন
##িটাস
ঐকযজোটের
খননের
তাকায
খেলেছিল
##কোটে
উনমতত
পরসতাবের
শরীরটা
অগরণী
যগমমহ
কাঠমানড
দেডটার
অনতরবরতী
দৈননদ
অধিনায
হরিপর
ভোগয
চলাচলকারী
গঠনে
সহজভাবে
সথগিতাদেশ
পরতীকষা
বউকে
পতনের
লোকেরা
লইবার
মিনট
শকাইযা
সবরণালঙকার
বরষীযান
টাকাকডি
সচেতনতামলক
জযেলার
##আপনি
একাধিকবার
পাটগরাম
১৯৯৯
সবকিছই
মোডক
গনাহ
১৯৮৪
টরাসটের
দেযালের
রযটার
পরতযেককে
ওমরাহ
ঊরধবে
অভিভাবকরা
##জমিনে
দনিযাজডে
ঝাপিযে
ভঙগিতে
ডরাইভিং
খযাতিসমপনন
বানদরবান
ভেনটি
তেওযারীর
নতযশিলপী
শরাবণ
কারিগর
আরামবাগ
উদভাবিত
অংশগরহণের
দশচিনতার
সরবতরই
টাওযারে
দোরগোডায
বডাইগরাম
বনযপরাণী
মৈতরী
ঘেরাও
অনমোদনের
গরীষম
সকলছাতরের
সাকো
বরহমচারী
সিপাহি
সোসাইটি
বিকাশের
রপানতরিত
কষণাঙগ
গিরীশ
মোকাবিলার
নকষতর
রখতে
শরদধায
শহরতলির
পরিদরশনে
পনরমিলনী
মেমোরিযাল
সাংসারিক
অসবাসথযকর
যগমমহাসচিব
দৈননদিন
ইছ
গিলে
ছনদে
জঘ
টযাক
ডরা
তাজা
দষ
পতিত
বতত
ভলের
মলা
রঙগ
রপি
শম
শংকর
সিনদ
##হিল
##হরে
##হাকে
##টীর
##শতর
##ীনের
##ফাস
##কিনি
##কথার
##পয
##পযা
##মকা
##ভিকষ
##সলাম
##গনা
##গণে
##আশ
##৭টি
##ানভ
##যামী
পরার
পরিল
##িনো
##িননী
##াযান
##ামতো
##াইব
একসমযের
##নেছা
সমতা
##াবের
সেব
নিধ
দেল
##রেস
##নিজের
আরহামের
পাতি
পাখা
##তাছে
##মনায
##মনতর
এইটা
##াডিতে
##গরন
##বিদরা
যেটক
##টেইন
পারলের
পারশবে
বযথিত
কারডি
সিট
মহায
দিনগলো
আপততিকর
অভিমত
##সতায
উঠিলাম
##সবামী
রহিযাছে
অরণয
অরজনে
কাজও
অসবসতি
সপারের
মারে
বাডিযা
এমবাপ
নতনভাবে
##তরাংশ
লাগলেন
##ারীতি
চারটা
চারদিন
##তিরোধ
বারসা
অপরকে
ভিলা
ভিশন
গিযেই
একটানা
শনবে
পাঠদান
সোচচার
##বোমা
অযাঞজ
ডিপো
##জাতির
পদাত
পৌছান
পরিচালকের
মিলস
রিচার
মললিক
কনঠে
রাসমণি
সংবাদে
##তাহাকে
ফেললেন
বাইশ
পোডাম
জোনে
পাইক
বধের
ওযাটার
এটাকে
খোচা
আরেকট
জনপরিযতার
বানাতে
জিভ
হারিযেছিল
দরতগতিতে
১৩০
শরেণিক
আফতাব
অনিবারয
ছিডিযা
ডরেন
জানতেন
নাজক
নোমান
মেঘে
ভগিনী
##াইতেছে
জরিমান
যদধবি
##ফারিত
বোনাস
২০২২
সোনাগাজী
চযানেলের
পযাকেট
পাইযাছে
পরদরশনীতে
বযেটের
ইকবালর
পরতীকষিত
অশানতি
বিনিযোগকারীদের
##টিসির
বযকতিরা
মছাইযা
বাযদ
##মশাযের
হেলান
ভমিধ
মসলিমদের
চোরাকার
মেশিনের
কবরের
ইনদির
জমিদারি
সষটিকর
কাটিযেছেন
কোরআনের
উদবেগজনক
পরাদরভাবে
মেহজাব
নকআউট
রেজওযান
ফাহমি
রমণীবাব
সচকে
সচিকিৎস
আচমকা
কযামপেইন
গারডেনে
বোলিংযে
দবনদবে
ইবাদতের
##ফোনের
পশচিমাঞচলীয
নেশার
##বৈশা
কণঠসবরের
##দবীপ
নিযামত
যথাযথভাবে
##ষকতায
রওনকের
চেচামে
মাদারগঞজ
সিরিযাস
পিসিআর
টেকনোল
শবাসরোধ
লেবাননের
পরাপয
বাকেরগঞজ
শিষযরা
নিবেদিত
ঠিকাদারি
কৌতহলী
থাপপড
মানবেতর
বানধবী
করমিটোলা
মোজাফফর
মাহাথির
গোলরকষক
পারটনার
নিরবিঘনে
এযাপোলো
তলওযারকর
বারধকযজনিত
পরতিষেধক
অযাশেজ
উসকানি
তোডজোড
অপরতযাশিত
সারবভৌম
ইসতাম
জঘনয
ইমতি
উজান
এটির
এশিযায
কৰ
ঘের
ছাপা
ডাম
ততী
তযাগের
থালা
থাবা
ফাডির
মাইযা
রউ
রনা
রিম
সানা
সানি
১টায
##যীর
##নমাউথ
##িদর
##হাসের
##হসতে
##বাজি
##ডোর
##কডি
##মটা
##ষটার
##সনন
##সতরে
##চকষ
##চাডা
##চেষটার
##গহ
##গাল
##খডি
করদ
পরবাচ
##লাসে
##াইকা
একবিনদ
একমাস
বাবদ
নাথ
নাতা
আমিনের
##কষয
##কষযং
##লিটি
আরট
সবিন
নিরপরাধ
##করতে
##যানযাযী
##বিষ
আসচে
আসতানা
গতকালই
পারতো
##রাশ
##লোড
মেটাতে
রাফাযেল
রাজেন
কাচের
দেখবার
##ডিলে
মানছে
দিযেচি
কেত
মধযরাত
গেই
তোপ
চেঞজ
কোথ
কোক
মনতবযের
দইদিন
##চারি
এরদ
##ভাঙা
গোকলের
সমযও
সমযসীমা
জাতীযকরণ
লিখন
উদাসীন
২০তে
হইযাও
##লারের
কমির
পডলেও
মারশাল
রাখালের
হাজারী
চারদিক
সদসযবিশিষট
##সমহ
ডাকছে
ডাকিলেন
খাটে
##বেশে
কোরস
কালকিনি
##পোরটে
নিজেরই
জামাতা
##ভারি
ডিআর
সংগীতে
কলাসের
হতযাকারীদের
বোষট
রিহ
মলল
পরসতির
পরসততির
ফলমল
কাপিযা
কাপডে
লেখায
হঠাৎই
নীলাপ
আসামে
গহবনদী
ঢাকাসথ
লইযাছে
সটল
বইতে
বইটি
ফেলেছি
জারির
খাদযে
সেদিনও
শৌ
খেলেছিলেন
কযাটর
পরিকলপিতভাবে
টাইপ
মাসেও
গাছতলায
পরতিরকষ
মাঠপর
বাধায
বসতাবনদী
চকরবরত
বিপলবী
যথারীতি
সফিযা
হালনাগ
করলম
মঞচসথ
মেজদা
ওপেনের
রাননাঘর
বরষসেরা
টাকাসহ
কমানড
রাহাত
খোজখবর
যনতরাংশ
আনোযারল
মাগরার
কেরোস
কতকগলি
অগনিদগধ
সটরোক
মহললার
হলিউডের
লঞচের
পেনসিল
বিলাসের
ইনটারনেটে
বোলারদের
সিদধিরগঞজ
জযপরহাটে
হাদিসে
দশচিনতায
অপসারণের
উখিযার
বখাটের
ফাটিযা
বাঢীর
বডাইগরামে
চেহারার
রেলসটেশন
মোনাজাতের
নশংসভাবে
খাওযানো
গরযানডসলাম
দৌলতদিযা
পষঠপোষকতায
বিডমবনা
ডিপলো
আসবাবপতর
দীরঘনিশবাস
##চাহিযা
ধমপান
##নাযেতর
সেপটিক
লাইলী
নেপথযে
##িকরমায
টমেটো
যতরততর
ডরটমনড
চোরাকারবার
ইমতিযাজ
অাম
এএইচ
এজেনসি
ওনার
কেরা
কাদা
কণা
গঞজ
গজিযা
গেনডার
ছলে
জিস
টকরা
তনন
দষটির
ধড
বানা
রথ
##থিযা
##শহর
##ডব
##পিযা
##পকর
##পডিযা
##দফ
##মগধ
##জট
##সদধ
##সভার
##চীর
##গলের
পরফ
পরমী
পরাপতির
পরভেদ
পরদরশিত
##িনগর
বিচছেদের
নাদিযা
আমলের
সমবল
গতেরে
আরতন
সবখানে
সবকটি
জননেতরী
অনার
অনৈতিক
উপহাস
পারবি
পারটিতে
সাও
মেদ
মেস
মানায
শরবত
##বসথায
কেসিসি
বেপ
মহৎ
তোযাক
মননা
চলগলো
ভারে
সরকারে
অরাজ
হইযাছেন
সেইদিকে
তাচছিল
শিম
ভালবেসে
সপন
সপিন
বসিতে
পথটা
বিকর
গণভবন
ফটিক
রোব
হাতছাডা
খেযেছে
হারান
কেনদরবিনদ
পিযার
কালভার
কালবৈশা
ফেস
ভেদ
সারাকষণ
বেশিই
বিপণ
রিভা
কামিনী
খানস
##সংলগন
রাসিক
বদধিতে
কাপিতে
##শরৎ
##শরীর
সাতজনকে
সংবাদপতরের
রপসা
লিগার
ফিরেই
সেখানেও
পোকা
গহকর
সরবপরথম
ভযাযাদ
দঃসহ
দেনা
##ফেযার
ভাগযের
পলকের
উদযোগের
একাদশে
দামের
খোজা
বিসফারিত
রেলমনতরী
পরিবরতনে
গোলমাল
বসনধরার
##হীনতার
বোরনমাউথ
ছেডেছেন
পরতযাশী
চলচচিতরটি
##িকলপনা
চাকায
##এফের
আনদোলনকারী
শেফিলড
যৌকতিক
আযনা
বষটিপাত
ধনটে
সাবান
নজরদার
বসতবাডি
মহিলাদের
সমভাবনাম
করোশ
জঞানের
লিখেছে
বিবতি
সতযের
অসসথতা
রামপরা
সোনিযা
সোনারগাও
সনতরাসবিরোধী
মণালের
বীরগঞজ
বীরশরেষঠ
##িশঙকর
ডেঙগতে
আদরের
রাখিযাছিল
আঘাতের
পিসীমা
পেরেছি
অসমমান
রাননাঘরের
পণযে
উততরাঞচলে
হাতিযার
আছডে
নিকটবরতী
রইলেন
শরিফল
কযাসিনোর
বযাগটা
ঐকযবদধভাবে
উদযোকতারা
উদযানের
দাপিযে
বেডানো
কলমবো
খামারে
অহঙকার
বিশলেষক
দৌডঝাপ
অকতরিম
মালদবীপের
সারিযাকানদি
##হইবে
মাযিশার
জহরল
রাইডারস
নিরবচছিনন
জেএমবির
মদিনা
তদারকি
সমিতরার
লেভানতে
কষযকষতি
হাঙগামা
সিংহাসনে
চিংডি
নালিতাবাডী
দৌরাতময
লিযাকত
কৎসিত
ইনসটাগরামে
সবনামধনয
টেকনিকযাল
সযানিটাইজার
জকোভিচ
আনশকা
ডিসটরিবিউ
ফিলিপাইনের
পদাতিক
ততীযাংশ
ইমের
ইযং
উনের
ওঃ
কডে
গমন
জির
জলি
ঝাকে
ঠো
ডকটর
তও
তরে
থর
নরে
যাস
রী
রিনি
রাকষ
লেনে
লঙগি
শিযা
শযাল
শাডির
সসবাদ
হশ
হিত
৮ম
##াখ
##তীরণ
##েযে
##হিতা
##ঠের
##লিন
##পণের
##ভরা
##চট
##চলে
##ধীরে
##উততম
##ানবিত
পরচছনন
##লেটে
বিবত
আমীন
নিদরা
আরত
জনার
নিরভযে
নেডে
##করিলেন
অনারস
অনবরত
##বরিজ
বিশবসত
##জনদের
কারিনা
করাঘাত
তাহাদিগের
তাহাদিগকে
##বসিযা
##েষটায
বেডাই
দিবি
মোখলে
কোনদিকে
বিশবখযাত
বিশবজিৎ
##দিদির
বরফ
কোকিল
অভিবাসীদের
##চিৎ
ঘটলেও
##ভাঙ
##ভাঙগা
##বললাহ
##িকষিত
##ঞজসয
কেনই
মানষও
সরকারদলীয
বযাশ
করমের
##ারাতি
লিটার
অবমকত
অবতীরণ
লাঙগল
২০৪
##ালেও
বডদিন
বডবাব
সামাল
তাণড
বাসস
সনবনধ
সহানভ
ঢাকাগামী
জেদ
জেএসসি
বলিলে
##িনেস
অনেকগলি
মতযকালে
হাটের
ফটকের
তখনকার
##সমহের
চটটোপাধযায
ডাকাতের
গিযেছিলো
ভাবিতেছিল
লোকটিকে
লোকটাকে
##হিণীর
##হারয
নিশচ
খলশী
করমকরতাসহ
জনমদিনের
মহানবী
শিলপীরা
শিলপকরম
মহাসা
পাকনদ
বাজারগলোতে
কাপা
পরবত
হাইকোর
জলদসয
ততটা
পরসপর
ডেমর
সকোযাড
ফরিযে
পরতিনিধিরা
মোহামমদপরের
গিযাস
তোমাকেই
এনডর
বযসসীমা
করততব
নিউমোন
ওযারল
সটিল
মাদকমকত
১৪২
##িবাদের
তরিকল
উইন
রেললাইন
পরিবরতিত
অফিসারের
সাইকল
সৈকতে
সালমানের
দোকানি
পরিবেশক
উদদিনকে
দোযার
দোহাই
জমিজমা
##ধবনি
ভাঙনে
শভদার
সংগঠনগলোর
লাইলা
মহাভার
যৌতক
বাবলা
বাধাগরসত
ফিউ
সেটাও
কমারশিযাল
বোঝায
নিযোগে
সরেশবাব
##তরিশ
করমচারীকে
২৬টি
বযবসথাপনার
বাজিল
রববল
মাতব
এলডিপি
অলআউট
মণিশঙকর
এযারপোরট
সরেফ
কারযকরী
সযারেজ
ওসাসনা
চাকরী
কযানটন
অকটোবরের
সংরকষণের
সিনধ
ভরমরের
মিনতি
অভাবের
##একবার
মোটরসাইকেলে
বরষায
ইংরেজিতে
চকবাজারে
হসতকষেপে
কাবা
মেশিনে
রাহর
সাংসদ
ঝলছে
শনযতা
রিমানডের
পরাচীর
বিশেষজঞদের
আবরজন
রিযাজল
চনদন
জাহানারা
সিলগালা
##বযাধি
বৰাহমণ
আবিরের
আবিরভত
নাসিরনগরে
দাডালেন
বৈশাখের
কলিকাতার
পরবাঞচলের
তথযানযাযী
জঙগিবাদের
মগদা
অনষদ
নবাবগঞজ
এলিজা
সাহিতযে
আইপিএলে
অযাকাউনটে
নিরমমভাবে
সালাহউদদিন
পরতযেকেই
সেজদি
চৈতনয
সিএমএইচ
দরনীতিবাজদের
লোকালযে
খাশোগি
নিদারণ
ধামরাইযে
কেনাকাটা
ইজারা
পিলারের
জগদীশ
জাকারিযা
সাপোরট
নাঙগলকোট
উপাধি
কেবিনে
মেলবোরন
শযামন
জানাজানি
আতরাই
মোগল
সতীরথ
বিশবেশবরী
রিপাবলিকান
নেশনস
নবাযন
##নধরমী
বরাইটন
শীতলকষযা
কৈফিযত
হোযাটসঅযাপ
পদচারণায
রযটারসের
ইমেরিটাস
আলাই
আঠার
উনাকে
উচছেদে
ওলামা
খাযের
গটি
গাদ
গবাদ
গঙগার
ঘযা
চের
ছডাইযা
ঝডো
ডল
ডেল
ডাসট
তেলে
দামী
দারস
ধিক
নভো
ফাজ
বনি
বমি
বলায
বশে
ভলো
মকল
রগ
রকষে
রাকি
লিস
শিযাল
সাস
হেন
##িয
##তৰ
##তলের
##বাত
##বনত
##বলিতে
##থাই
##থানের
##টেনট
##ফরে
##ডহ
##কীর
##কতার
##চনদৰ
##আবার
##ারোপ
##োচিত
করদি
করাসহ
পরোধ
পরিকরমায
##কেশ
বিটি
##িযাস
##িযেশন
একসি
একাধ
বাষ
নাঈ
নাবিক
সমাদ
সমাপতি
##নাট
##াবোধ
নিতেই
দেবস
##াপতর
আরদর
সবাযতত
নিরণয
##যানে
##থাকে
##গরামী
##বিষট
আসবার
আসাদের
বলছিলাম
বলচেন
উপবাস
উপকারী
সাশর
পরিভা
সরসব
##মাননদ
কাশিযান
##জনযেই
##ডিট
কারাব
কারগো
মানষটির
মহাদেশ
মহিলার
নামকরা
##জেড
কোনরপ
##বংসী
বরম
বরযা
বরণের
সঙগেও
অভিমানের
পেতাম
কিছদিনের
##ঞজার
গোমতী
জাতীযকরণের
অরকষণ
নেই৷
বিরাম
বিরোধে
##তমত
আছেই
বাসর
সহোদর
অধরা
ইসলামপর
বসাইযা
রাখলে
বছরও
লাগতে
লাগাতার
গরাময
ইনজরি
##মদী
বহর
##লাইল
ছেলেসহ
ছেলেবেলার
জীবিকার
ভাষণের
রহমানসহ
চালকরা
খেতাব
রাতারাতি
শিশকনযা
বলিযাছিলেন
সংসদবিষযক
পাঠশালা
পিএসসি
কোরীয
মরার
মরমে
বৈচিতর
চিতরা
ভাবছিলাম
##ভিযার
ভাইযার
পদকষেপের
ভরাড
কযেকদিনের
মালবাহী
শিলপপরতিষঠান
কাপানো
ঘরানার
##াকরানত
##পনথী
পরবদধির
আতমসং
লেখালে
লৌ
ছযজনকে
পরণয
পরণতা
ফলেল
গহহীন
##মাতরায
##াটটা
##কমকত
রাযমহাশয
মযনা
চাপিযে
##ধারায
জিডিপি
গোলযোগ
শোবার
খাদযা
তরণের
চাকরের
২০০২
আযতন
দেখিযাছি
এরপরই
পরিকলপনায
##ঙখলার
পলাস
পেশাজীব
নাজমা
নাসা
সাবর
নিষপাপ
সিংডায
অধিদফতরে
পণযবাহী
সততার
শানতভাবে
চিকিৎসককে
অলকা
১৯৭০
ঢকতেই
সফরকারী
তরিভবন
মেজাজে
ভাষাস
অশভ
##গিরি
জাপার
ভাডাটিযা
সপতাহেই
চযালেঞজের
এককভাবে
##হাসি
সবরগে
অযানতো
জেলেকে
গরিবের
রবীনদরনাথের
সচিবালয
মরযাদাপরণ
কচযা
পাডকোন
মেহমান
সথলবনদরে
বৎসরের
বেকারিতে
পরবাঞচলীয
কাশিমপর
বিতরণে
গরনথমে
গডাচছে
হসতে
মঠবাডিযা
হাওলাদারের
খিলকষে
ছাপিযে
হতযাকানডে
নিতানতই
দেরিতে
সংখযায
সিপিডি
গানধীর
অধিবেশনের
জযোতি
নিরাপততায
যোদধা
হরেনবাব
উদধত
বেলজিযামের
করোযেশিযার
শতাবদীর
নযাদিললিতে
চারেক
##ঘণটা
দখলদারদের
টোযেনটিফোর
কলামিসট
যাতরাবাডীতে
মযারাডোনা
##গোপাল
অপরিকলপিত
হরষবরধন
বিলাসবহল
তামিলনা
জনসাধারণের
ওযাটফোরড
মোতালেব
পীডাপীডি
বযাডমিনটন
টাসকফোর
গেজেট
পমপেও
ভযাযাদলিদ
সমভাবনাময
একাধারে
অরকষণীযা
অট
অকল
ইশার
ওব
কিত
কনে
কসংস
খালিশ
খশিতে
গযার
গলোর
ঘাত
ঘমাতে
চাব
চলেন
চরের
ঝন
ঝে
ঝাক
টিজ
তোরে
ধাত
নগন
পব
পপি
পলাইযা
ভযাল
মাজে
রদ
রতনের
লয
লটে
শই
শাবি
শফী
সাকি
সেশন
হযান
৷ক
##রান
##শাম
##ীকত
##কমে
##লযে
##দলে
##মপের
##ইরা
##জিক
##জোট
##জিজঞাসা
##ভল
##ভদর
##ৈক
##খাদ
##খালি
##ংসন
##োলের
##ানধ
করচেন
বিমো
##িযেছিলেন
##াকো
একমত
বাচার
নাহি
নিভত
নিধন
##কষিণ
##লিখিত
সবাদে
জনসবাসথয
নিরতিশয
নেক
জানোযার
জানিতাম
##রাশি
##মিও
রাজনাথ
দেশবাসী
বযগর
পরতিমা
পরতিহত
##বসম
বেবি
আগৈল
##মেটিক
হাসছে
আজব
হবে৷
করিযাছ
ঘটক
চললো
চললেও
গোমস
করমসথল
রহসযের
উদার
উদবেগের
অবযকত
লাথি
কমেনট
##বদয
পডত
বাডডায
রাখাইনে
##সথিত
ইনসা
নাইকষযং
##যাপার
আদলে
আদিত
হাওযার
##কাশে
গণের
অপরতিরোধ
##ীরাও
মযাক
হাতডি
ইউনিটির
কলসী
হারটের
বঝলেন
বঝাইযা
মরতির
মরিযাছে
ছাতরনেতা
বৈরী
কালচার
কালীগঞজে
##উনট
ডিউটি
নিরবাচনেও
মিলনের
খবরদার
সিনেট
সডকটির
জনমভমি
নারসিং
সথানীযভাবে
##াকরমে
অতলের
বসেছেন
কারযকার
দীডা
জীবনযাতরা
পোডার
##ঙকশ
গিযাছিলেন
বযাংকটির
বযাংকগলো
পরযকত
মাতরার
মাদকসে
যতনে
মযদান
কাটেনি
কমিটিকে
জাযগ
বানদার
বিনয
ধারণের
পনরগ
শারশা
ইতালিতে
খরসর
হরকালী
##ভোগী
যোগাযোগমাধযম
জনযেও
গাডোযান
হাসিবার
##সীমার
অঙগসংগ
কাউকেই
ভযাবহতা
বাজি
বিবাহে
সফলতার
সনতরাসবাদ
মেনেই
বীরউততম
সরেজমিনে
বামনের
ডেঙগজ
পটলি
মঞচের
বিসমত
উদযাপনে
উদযাপনের
বিনিযোগকারীরা
সমতিসৌ
হেলমেট
শামিল
অপেকষাকত
হাওরে
হাওরের
পডিবে
সখীপর
হিনদসথান
সিদদিকা
##চোখের
ভাঙগায
##েশবরীর
পলেট
অপরিহারয
দবীপরা
নাটযদল
গনতবয
##দৌড
সবীকত
কসমের
নিমেষে
##এইচও
খেলোযাডরা
অনপযোগী
সংগীতা
গভরন
যথাযোগয
বিকরেতারা
নিরবিচারে
ইচছায
বিশলেষকরা
তাকাতেই
আশরিত
শিবিরে
##কেনদরিক
কালীপদ
নবজাতককে
জযপরহাটের
ভিকটোর
শানতিরকষা
দবাইযে
ডরেজার
পরেকষাগ
অডিট
অডিটোরিযা
পরদাহ
টযলেট
এমপিওভকতির
ফটপাথে
বাঢীতে
গঙগামা
মতিঝিলে
করমকানডে
কীরতন
দততের
পোলটরি
জোগাড
কলেজছাতরীকে
চরফযা
নেদারলযানডস
কোলন
ভিযেতনামের
পষঠপোষক
রকষণাবে
ফারমেসি
সাউদাম
উজিরপর
ডরিম
গোযেনদারা
লাঠির
পরামাণ
চববিশ
গারডিওলার
রেসতোরায
জযদেবপর
অসথিতিশীল
ফরনটের
বনদযোপাধযায
কোথাকার
এলিজাবে
অযানতোনিও
আগৈলঝ
অপরতিরোধয
অযেল
ইনাযেতর
কসব
কতবড
কডাক
খরা
গজে
ঘষের
ঘটাতে
জবে
ঝণ
ঝিল
ঝোল
টযান
টপি
ডট
থতমত
দাহ
ধমকে
পণড
যথা
রপার
রনির
লাজ
সসং
হরিদ
হকারস
##নাকারী
##িদা
##েকের
##বণ
##বঞচিত
##ীযার
##ীকরণ
##ফিরে
##দাদের
##মরি
##মতয
##মালার
##জানের
##ভোজ
##সযা
##সতরী
##চোরা
##আসি
##খির
##একেবারে
##ঝর
##উপর
##ঘডি
##যাসত
করচ
##ালটি
##ামতি
##াসাম
##াকরম
একমহরতে
##পরসতর
নাফ
নালা
##াদী
##বারা
##বারথ
সেবাদ
সেকথা
নিট
##েলস
##াপের
##াপাত
গতবারের
##োনন
##োননত
নিরঙকশ
##মনদির
অনপরের
##বিশেষ
আসমা
পারস
সাযেম
সরোযার
সরোতে
রাণী
কাফ
দেখাই
##যনতরে
গরতে
মাননীয
মাননানের
শরদধার
হইলেই
কেবিন
বেণীর
আগমনে
মহলের
দিবাল
মোটেই
আজঞা
##জেলা
বরেন
কোসটার
##মারের
উঠছেন
এখনকার
করিযার
মখসথ
বযাটার
কাজলের
সপেস
পডতেই
##োসহ
আশাবাদ
##ননত
হতভাগয
মতযকে
বিকরম
##সযর
ইনসযর
গেলি
ফিরিবার
##যাপনন
তাকেও
গণশন
এসেচে
রেধে
##সমেনট
রাতভর
বাহর
সোফায
দিযাছেন
বৈচিতরয
১৯টি
সারদার
##ভিটা
##কষণিকভাবে
খলছে
আসিযাছেন
আসিযাছিলেন
বদধকে
আবত
হেমা
পেযেচি
##াকরিযা
##গতভাবে
অপপরচার
পরশনই
##বাযোট
আনদাজ
ফেলিতে
নাটযো
ছাডছে
লেডি
ফরেশ
ঘণায
কানড
কানতি
##খানির
মাতরায
ওযারী
হাসানকে
ওযাসিম
পানিবনদী
পলান
শাসত
পরকটর
ফারমারস
শাযে
আসনেই
তরকারি
অভিনেতরীর
দামও
১৮০
১৮৮
পরতিষঠানগলো
সালথা
১৬০
অচিরে
ভাঙতে
ভালোবাসেন
বকটা
##তলয
সংগঠনগলো
সনতরাসের
গলানি
পনরাবততি
বাবজী
কযাশা
##বদধির
আইনজীবীর
আরেকবার
##টিকযাল
সবিধাব
গাছপালা
ডরযিং
সাবযসত
##পরতিষঠ
মেঘনার
ভেবেই
চিতরশিলপী
অগরগতির
৩৫০
গডফ
দিকনিরদেশ
সফট
##শবদে
দরশকপরিয
##টিভিতে
১৯৭৩
হালযা
আডডায
বিসতারের
##বাগানে
কবরে
মেজকরতা
রিকশায
তানজি
গৌরবের
শৈশব
টিকিটের
মকবল
১৯৯২
১৯৯৪
বঝেচি
সবকিছর
হারাচছে
১৯৮৬
জলাশয
তাজউদদীন
রবীনদরসংগীত
বংশের
আসরেই
সাঈদের
বসবাসকারী
ভাবিলাম
পজিবাজারে
গোলাগলিতে
হাইকমিশনের
নিলয
বারানদা
ইলিশের
ভমিকমপের
হাননান
ঘোরা
মজমদারের
অমানবিক
আপাততঃ
জঙগিরা
অহংকার
জলাবদধতার
কোহলির
সরবাঙগে
লডবে
দিতো
বিআরটিসি
বহিরাগত
শকরাচারযের
বিনোদনের
বনদকধারী
টইটার
মাজহার
সালাউদদিনের
১৯৫২
মেগাওযাট
গরতবার
নিবনধনের
উমম
তিরস
৯৯৯
##উঠিল
চৌদদগরামে
শরীমঙগল
ইনডাসটরিজ
অনযমনসক
শতাবদী
পারবতযা
জিললর
পথচারীদের
বযাটালিযনের
অনিশচযতা
শাহরখ
টেলিক
করীডাবিদ
আতাউর
কদমতলী
পারফরমযানসে
বিহবল
##বিজঞানী
জনসচেতনতা
দিদারল
মোহামমাদ
পরাতঃ
বদিউল
পরথমার
খালামনি
কাচামাল
গোযাইন
শাসনামলে
কাসেম
হাতীবানধা
রাততিরে
নিকাশ
জীববৈচিতরয
জরিমানার
পরবাচল
সবিনযে
গতেরেস
তোযাককা
লাইলাতল
পরোধা
সবিধাবঞচিত
অদরি
আবেগে
উদর
উডি
এজি
ওগো
ঘমান
চিরে
জিনে
ঝলক
ঠেস
তবর
তনদর
থম
দনত
নলক
পাজ
পানের
ফতে
বজে
ভাতের
মযাম
মাকস
লঙকান
শদধি
শচীন
ষা
সযান
সাকিবের
০৫
##তাল
##বৎ
##বষটি
##বতত
##বিসি
##থন
##কাহ
##কলার
##পিন
##পাযার
##দপরে
##জিল
##জিনা
##সটিং
##সচক
##খোর
##খানের
##ঝকি
##৯টি
##ারকা
##যাইতে
করাকে
পরীর
পরজা
পরযোগে
##লেম
##লেশন
##লেটের
##বেই
বিচ
##াজাত
হযেছিলাম
দেউ
আরোগয
সবল
জননির
পাটের
##তাপর
##াডের
আসিত
আসছিলেন
পারতে
সরকষিত
মেইন
মেসারস
##মাণের
রাতর
দেশপরে
##ডিযান
শরাদ
কেস
কেএম
মধখালী
সিডির
বরজনের
উঠিবার
তাহারি
##িজা
##তবযে
সরকারী
মিলাইযা
বাসন
তিনবারের
সননিক
পডিত
আশিক
মারকা
##টকও
আদমদী
হাটার
১০১
১০২
১০৬
ছেলেমানষ
ঘটনাও
অপরাহ
অপরীতিকর
শহিদ
সমপরীতি
ডাকাড
হারড
পাচটা
##গেছে
কোরো
মরখ
কালজযী
সারজিও
ভাবটা
ভাবলো
অযাসটন
বেশিদিন
পদকষেপে
মিলিল
দাওযার
##েশনাল
মলান
মলধন
চাইলাম
চাইলেও
হকিতে
ইংর
পরবশতর
মখেও
অপমানের
মাদর
রপসী
লেখাগলো
সৌভাগ
সতরকত
বগি
ফলোর
ভযংকর
##মাতরার
ডাচ
ডাউন
##ফৌটা
গলপটা
বিজঞাপনে
মযলার
দাযিতবরত
ফারনি
লালপর
দামডহ
##ধারিত
##ধারীর
বলিতেছি
লকোচ
নেমেছিল
##শিলপের
সেতটি
মহামমাদ
মহাখালী
পডালেখা
বেসরকারিভাবে
ইযাছ
ইতযাদ
হোচট
ইরাক
পঞচা
দবিবারষিক
ধনীর
অধিগরহণ
বাধতে
নিষপত
বদধিমান
বসতির
অচলাকে
কবিরের
বিধবংসী
চাকরিচযত
বিবাদের
সাদদাম
আমিরাতে
সোনাসহ
অসতরসহ
হরিদযাল
বাছাইযের
##চকিযা
আখের
টরেনটি
ওপারে
সমালোচিত
জাপানে
ইমরোজ
ফোরকান
অভাবনীয
উনিশ
চতরথবারের
বারসেলোনায
মিসবাহ
অবিচার
পৌছতে
দমকল
আগনেযাস
ঝলসে
নিরধারণে
হচছি
বিকলপধারার
হতাশার
সাফলযে
পলেযিং
মানসিকতা
##তপরব
নাহলে
বিজেএমসি
শাশডীর
শেরেবাং
কলিনিকের
সঙকচিত
সমনবযকারী
ভইযাকে
দাডাও
দাডালাম
নিরভরশীল
আবহাওযায
শিকল
কলিযার
##টেকনিক
ডিমের
ঠেকাইযা
জিজঞাসাবাদে
তাসকিন
বৈষণব
লডতে
পরতিনিযতই
ফতললা
ঊরধবমখী
ভিকটি
সেমিফাইনালের
আরোপিত
পরসঙগত
আযারলযানডের
কবিতায
কীরতি
বণিক
শিমলিযা
হিংসর
হিংসা
বিদরোহীদের
নিদাহাস
অবযবসথাপনা
সবপনেও
ইরাকে
সপতদশ
সেলিমের
আগারগাওযের
পারাপারের
মসললিদের
শিলপাঞচল
মিসরীয
অবাধয
চানদগাও
অসতরোপচার
পাউবো
পরতিফলন
গরানাডা
হরতাল
তারণযের
সষমা
মযাসেজ
সংকরামক
সিগনযাল
রিযেলিটি
এসডিজি
আরতনাদ
বিপণন
অডিটোরিযামে
গরতবারোপ
জননিরাপত
পরবশতরতার
লকোচরি
অা
অাপ
অনাথ
ইযাসিন
ইফতি
এশবর
খদে
গীত
ছাতা
জই
জিনি
ঠোটের
তষণা
দণডিত
নিনদ
ফটক
বযানডের
ভতের
ভঞা
মনদা
রচি
সবাচ
সারথ
হদার
##হাদের
##শাকে
##ফাক
##ফানের
##কৈ
##জযা
##জানি
##জেনের
##ভান
##ভাসে
##ষকদের
##চিল
##চডি
##গারের
##ৰহ
##আপের
##ছোট
##োৎসব
##যেস
করনার
##পরাস
##পরতী
নাচের
করেডিট
##াততবিক
সেকষেতরে
##লেনস
আরমড
সবটক
মাওযা
নিরবাহ
নেযাম
নেপোলি
অনী
অনম
অনাহারে
অনবদয
##গরীর
পারকিং
পরিহার
রাবার
রাতরের
কাথা
দেশসেরা
অভয
অভকত
গরভে
শরতের
আগত
কথাবার
নামবে
নামেন
বিশবযদধের
কষীর
ঘটায
কিছদর
কেনাবে
##ানতের
সংসপর
মানষগলো
অরপের
অরগান
##ারথীরা
শেষমেশ
শিকষান
পডেচে
মারজনা
আহরণ
টরলি
ইনটেল
##রণীয
##াধযাযের
##পাটি
শনির
বলিযাছি
পিযং
চাওযার
যদিচ
আলোতে
বৈর
ভাবিনি
পালানোর
কতই
##ফরট
সাহিলের
জানাবেন
ভোমরা
কীদ
দটিতে
পরসকত
ডেথ
দীড
বহসপতির
মোহামমদপরে
##মাতরিক
টাঙ
ঢাকিযা
মজিবল
লইযাই
করতোযা
সটোক
এগিযেছে
সপতাহবযাপী
খোডা
জাযগার
বানর
বানানোর
সৈয
##হীনতা
সাকষাতের
বাইরেও
পরিবেশবানধব
১৩তম
মহিষ
ভালোবাসতে
চরমে
শিকারের
নদীভাঙ
পরযাক
পরযাণ
কাহাল
শরীবর
হাসপাতালটি
টাইবরে
যাহোক
চিরকমার
সথাযীভাবে
##ভোগের
খাতকে
টেনডল
যোগাযোগমাধযমে
গারল
অধিকারের
সইসাই
আসিলাম
জমাট
বাজছে
বাজিযা
দখলমকত
পৌছেছেন
দেডশ
আমিনকে
আদরশের
নেতাকরমী
তরিবারষিক
গণমাধযমকে
কাশীতে
শবশরের
##মশশাই
করিসেনট
পোসটে
লাইনচযত
ফসকা
আরোপের
জনসমাগম
ভমিষঠ
##যাটিন
ললিতার
থেকো
চোরের
পদধতির
পলিটেকনিক
পেলম
দানেশ
কিনেছেন
যানজটে
অজিতের
ভদরলোকের
পরশিকষণের
রাজাপর
পরজনমকে
বরেক
অপরিবরতিত
ওযালটনের
মানসিকভাবে
উডড
উডাল
জাগে
উজজল
তালাক
পযানেলের
মিলনমেলা
পাওলো
শনিতেছিল
সিদদিকীর
রাজযটির
করমকাণডে
অরণযের
ফকিরের
অভিভাবকদের
##গাছায
পরিনসি
নিঃসঙগ
সেরনিযা
রাজজাকের
দাদাকে
আলেকস
পশচিমাঞচলের
নলিনী
মালেকের
ফেরদৌসী
অবাধে
কদরয
তিসতার
ইভেনটে
বারোটা
বাফফের
##িনিউজের
ননদীগরাম
মসতাফিজ
ভিততিপরসতর
সচিবের
বাসসটযানডে
গোডাউন
উননিসার
গেযেছেন
খাওযানোর
শবাসরোধে
কালিযাকৈরে
নেদারলযানডসের
পরভাষক
লোকসানের
আইসোলেশনে
সোসাইটির
এভিনিউযে
ডবলিউএইচও
শোভন
ফানড
ইদরিস
মাযোরকা
##োগরাফি
খরিসটাবদে
খপপরে
মকদদমা
পরদিপ
দেবিদবার
মযালেরিযা
অনপসথিতিতে
বনাঞচল
সকোযাডে
বচচন
পোডামন
মেহজাবিন
কযাটরিনা
চকরবরতীর
বেপারী
সাইকলোন
ফাজিল
গডফাদার
দিকনিরদেশনা
মাজহারল
শেরেবাংলান
ইনটেলিজ
অফর
অলিম
ইলাহ
উকতি
ওভারের
ওযযার
কতি
কদম
খডিযে
গভ
গতর
গাহ
চডিযা
চযামপি
ঠেকে
ডিন
ডিক
দৈরঘয
নযান
বলাইযা
ভগন
মষ
মদদ
মিসেস
রমিক
লিন
লযাটিন
শসয
সঞচার
হীর
##যস
##হিক
##শতঃ
##ঠান
##ডিসির
##পিস
##পাদক
##মিযা
##সনধ
##সচি
##চকে
##গেন
##ৈনিক
##ওডা
##োকত
করমান
##লেশবর
##িনারি
বিতত
একশের
##াজল
##পরযনত
নাডিতে
##বারি
সমগন
সেভেন
সবত
সবশেষ
সংহতি
##োগলো
মাউ
অনশনে
বলকের
উপোস
##টেবিল
পারের
পারতম
##বরেরি
##রাশির
মেকসি
##মাখা
রাউ
রাশে
##কাশন
##ডেড
যাচছ
দেশগলোতে
গরজ
গরমের
দিযেগো
কেমনে
দরপাল
##মেয
##মেটাম
মহাতমা
তোপের
দিবা
দিশা
মোনা
আপস
বরেনদর
বরফের
কোলের
পেজে
দইযে
##ছিলি
##মারক
চলল
মিউ
আলফ
##যোদধা
আইসল
শিপন
##শিদ
##োটাই
অসৎ
সহি
সহচর
কোনোভাবে
নযজন
সদীপ
আশবসত
দলটা
মারামার
##িমাত
গরামা
চারবার
চারকলা
টাকাও
ফিরতি
সাধনার
গণড
ছেলেটাকে
ছেলেধরা
সমপরসার
দিতেছে
ভালোলা
খাচায
দেশেও
পাচলাই
উততরব
উততরণে
বৈকণঠ
ফেই
ফেসে
মানষেরা
বিচারকের
বযাংকার
ছোটবেলায
নিশচিহন
বিপণি
জনমত
নারাজ
দাডাতেই
চাইলো
##ঘটন
বনম
লেভার
কারণটা
থাকাটা
পোষা
রযাগ
সরবশরেষঠ
নৌযান
দঃসাহ
এখানেও
বইমেলায
পলটনের
করমীসহ
তরল
নিরমলে
আসামিপকষের
সাইদল
##হরাব
দরতগতির
অবসথাতেই
বিকষোভকারীদের
বিকষোভকারীরা
শবদটা
সচিবকে
কাহিনি
তদনতকারী
হাসপাতালগলোতে
সনতানরা
পলাযন
চিরকট
জিনিযা
বাচানো
নাজন
বাধের
সনদেহের
##যতনে
যাচছিলো
আফরোজা
অযাডমিরাল
বাঙাল
বিবিসির
গডানোর
বাকিদের
বাজিমাত
##বিদিত
সংগরহে
জলাইযে
অতিথিদের
সবজী
অনতরযামী
ভাসান
গোপালপর
তহবিলে
মসলল
এইচডি
আডত
কঠোরভাবে
ঘাটিতে
ভরমণে
ঝিনাই
মিনহাজ
ছিনতাইকারীর
সমারোহ
বাগমারা
দরজাটা
অরথবছর
সেলসিযাস
সষঠভাবে
দাসীর
১৯৯৮
##সকলের
বডিমারী
##জাহাজ
ফলাফলের
##াবাডিতে
তণমলে
ইফতারের
ধবংসের
মলতবি
গরাহকরা
পরতীকী
কচকা
বদরগঞজ
গোলাগলির
মাহফজর
আগরাসন
দারল
ইবরাহীম
ফটেছে
পরবাসীরা
##পডিল
ককষের
তাকাতে
পডাশোনার
পরিচছননতা
হোযাইটওযাশ
জবলছে
বদলির
বারনলি
ডরেসিং
ইনদোনেশিযা
গাযিকা
বসনতের
হতাহত
১৯৬৬
ফাটল
এবিএম
সরবাধনিক
রযাঙকিংযের
মহাকাশে
জিদান
আকাঙ
ধামইর
পামপ
সেকটরে
খানাখনদে
হেরো
মজাহিদল
ইনডাসটরিযাল
থারড
মোসতাক
শাহজাদপর
রজনী
পরজেকট
নানারকম
এগোচছে
সোনাইম
ঋণখেলাপিদের
আটলানটা
নাতনি
কোনোরকম
দপচা
এনডিটিভি
কথোপকথন
সবযসাচী
ঘোডদৌড
মসিউর
আলটিমেটাম
সবৈরাচার
নোভাক
রিচারড
ফাহমিদা
চেচামেচি
রিহযাব
পরতিরকষামনতরী
ডিপলোমা
এএইচএম
কালবৈশাখী
খরসরোতা
দবীপরাষটর
ফারনিচার
অাগ
অলকষ
আটা
আচারয
ইল
ইজার
এনা
এনার
এহন
এএসপি
ওমান
কিক
কনের
কচছ
গনি
চাকার
জপ
জিনন
টলি
তথায
তপন
দাল
ধসর
নডা
ফাদার
ববি
বদধার
বকিং
বরাতে
ভটট
যাপন
লেনের
সতের
সঞচিত
৬ষঠ
##যগ
##নাজ
##হাক
##থিরা
##টকর
##ফটের
##কযা
##দযের
##দাসী
##মহি
##ৰয
##খত
##ৗঢ
##োলাই
##যাচ
পরযোজনের
পরদানে
পরখর
##লেকস
##ালিযা
বিঘ
বিযা
##তিস
এককে
একফৌটা
বাঘা
##পরভ
##পরাইজ
##াদেখ
##াতারা
আমর
আমিতো
দেবা
সংযত
মাঘ
##ওযালার
নিরততরে
অনাস
অনগরহ
উপডে
পারছিল
পারলম
জানত
পরিদফ
সরকষার
সরবদা
##মাউ
##কাট
দেখানোর
##জনরা
বাংলাদেশিরা
হইব
মধা
নামই
আপাদ
অভিপরায
পেইন
মনসী
থাকবার
ঘটিযেছে
রহমতের
অবহিত
আইএসের
##ারথীর
বাসটি
অসবস
অসফট
সহিতে
কোনোমতে
শিকষাবয
আশাবাদী
বাডযযে
আহমমদ
রাখব
রাখলেন
লাগতো
##বাহির
##ংশে
##চছাদ
পরিচযের
তোমারে
গণশিকষা
এসেছিলাম
বিষম
অনযজন
ঘটনাটা
রোদের
##সমপরণ
##ষটিত
ঘোলা
সোলায
সোলাই
মরযাদ
আলোটা
১৯০
ফেসটি
মাহিযা
গরেড
কেউবা
##ভারতী
কতদর
হতেও
##বযবসথার
পৌছা
গাফিল
বিশেষতঃ
মিলিযা
শাহপর
নরউইচ
পরাণটা
পরাণবনত
এসটেট
পেযেই
সবাসথযকরমী
হঠাত
ফেলল
উলট
কারযকলা
দীডাইতে
লেবার
সাংবাদিকতার
সরবপরকার
বেগমগঞজ
ভযভীতি
যাওযাই
বযাংকগলোর
শিরিন
আকডে
শিকষারথীসহ
যতীন
১৪তম
ডাকতারদের
এটিএম
উইং
কাটবে
উচচশিকষ
চোখেও
১৬৪
##চাষ
পশচিমপ
##তলীতে
লাইবরেরি
মহাশযের
আনদোলনকারীরা
পিছাইযা
শারদাচরণ
২০০৩
৪০টি
ভিডিওটি
লিখি
যাহাতে
ওযানডার
গলাচি
##গোষঠীর
কোমপানিতে
তলিযাই
অজয
খাওযাই
টরাকটর
ওঠায
ভবনটি
কটটর
১৯৭৪
তাডাহ
গাইলেন
তরিপরার
বিসমযাপনন
পথকভাবে
সতরকতার
আগরহে
পযসার
আরিচা
অবিচলিত
পৌছায
উৎপাদনকারী
মেরিন
##আপনাকে
শৈলক
নিরযাতনে
জেলেরা
হতাশায
মনিবের
১৯৯০
কংগরেসে
রহিমের
দবিজবাব
দরদশা
করাইসিস
রাতরেই
অবরোধের
বিডিনিউজের
জাগিযে
ইলেকটরিক
রোজগার
শরিফের
নিরধারণের
মামনল
ফরিদা
হাইকমিশন
কেদারবাবর
নিরভরযোগয
মনোরমার
সবীকতিসবরপ
করমকাণডের
রিপোরটে
বকষের
চলিতেছে
নিঃসংশযে
মেটরো
ভকতভোগীরা
ঝকিযা
টারমিনালে
পষঠায
সহিংস
পশচিমাঞচল
লাফাইযা
ফরানসে
অলিমপিযা
বহিষকারের
পরতযকষদরশী
ঢেকি
পরতযততর
টিউশন
খাগডাছডিতে
খাগডাছডির
শলকমকত
হংকংযে
সমাধা
পরণোদনার
জলপাই
টাওযারের
শরীযতপরে
নিযমে
অযানটিবডি
অযানটিবাযোট
##সাধারণ
সেমিসটার
কশল
পরশংসায
ঝালকাঠিতে
ভানডার
পরোগর
ধামরাই
এহসান
পোশাকশিলপের
পাদদেশে
ইমারজেনসি
সংখযাগরিষঠতা
রমিজ
অগনিসংযোগের
লরড
সওদা
বইপোকার
মানহানির
বেচাকে
তডিঘডি
অহরহ
বোরহানউদদিন
দাউদকানদির
চাটযযে
পরিতরাণ
ঢোকার
শলীলতাহানির
দবৈত
মওকফ
উরগযে
সমদরসৈকত
গজারিযা
পলিথিন
ইননাল
নাগরিকপঞজি
এরদোগান
দেবসেন
পরিভাষায
সরসবতী
কসংসকার
কসবায
ইনসযরেনস
জিনেদিন
জননিরাপততা
পরযাকটিস
মেকসিকোর
অকষম
এতেই
ওল
ওসব
ওমেদ
ওখান
কাড
গযারে
চলায
জটির
জকি
ডবল
ঢোক
তাবি
থাই
নসি
পাবি
ভগে
মঘল
যশো
যবারা
রঢ
রমান
সজিত
হাডে
০৪
৯ম
##যতে
##নাক
##ীদ
##ঠো
##ফাই
##ডকে
##ডেল
##ইযং
##ভঙগি
##চনে
##চেনা
##গমন
##গপত
##আযের
##ছোযা
##এখন
করআন
পরল
পরলে
পরমো
##ালযের
##ামন
##াইলাম
একার
##াজনের
##টিসের
##েনসের
বাঙগাল
নাগর
নাদাল
করেচ
##নেহে
সমারথক
##াবদ
সোর
সেলে
সেটে
সেগলোর
##টাপনন
কিচির
আরাধ
সবীর
জনমা
##োগো
নিরলজজ
##মনাই
অনচছেদ
অনকলে
##থাও
##বিংশ
আসচি
আসথার
বলছিল
বলবলের
##বরগ
বলেচে
সরযো
##লামেলা
রাজাপ
রাজনগর
রাজবাডীতে
##জনীন
কারপে
মানস
শরানত
কেজিতে
সিজন
মোমিন
নামমাতর
##সিভ
বরো
পেস
পেযারা
##যালার
##যালির
বযাথা
করমবরধ
করমশালায
করমযজঞ
রহের
রহানি
অবতার
কাজগলো
হইযাছি
ধরল
ধরলেন
ধরমে
আইএম
##াডাঙগা
বাসনা
অসখে
অসহন
সনন
সনাত
নয৷
দলগলোকে
এমত
##িমির
##টকি
শেখা
চারিদ
গেলম
নামেও
আদনান
বিষের
১০৭
আমাদেরও
রেবে
ভাং
মযাকস
ভিটে
ভিডের
কলোনির
হারিকে
##জঞের
ঘোষের
ওইটা
ওইসব
কোরসে
কোরিযায
দিযাছিলেন
##বানধা
অযাডিলে
মাহাব
পালকি
টেসটিং
##জাতীয
##ফরমার
নিশী
গাঙগ
চৌকাঠ
শাহেদ
দকষতার
মাধযমের
পরাণপণ
১১৭
সকলই
হলফ
হলরমে
ফলক
ফলিযা
কাপতেন
##ভেদে
বিষযগলো
বিষযটিকে
একেই
বিশবকাপজযী
পরশনগলোর
##তমানে
লেখাপ
অফিশ
বাইসাই
##মপনন
পারেনা
যেতেন
জীবনযাতরার
পারিলে
নিরদেশিত
মধযপাডা
মধযবরতী
হলেনN
দেবনাথ
##মোডা
রাযপরা
জানিবার
##চলন
##িযাযী
ডাকতাররা
খোলামেলা
বানদা
কাছারি
##নিরমিত
পরকলপটি
সটেটের
চাযনি
২৪টি
বকতা
শনেছেন
বাদয
বযসততার
২১টি
হাজতে
আযবহিরভত
দেখিযাছে
ভিডিওটা
জোরপরবক
বাচবে
পরষমানষ
বছরেই
থামাইযা
মোকদদ
খাওযাতে
করোনাকালীন
গারডেন
চিতরকরম
বসতঘরে
কবিরাজ
যথাকরমে
সাদলযা
ওঠেনি
দবারপরানতে
দরশকননদিত
মিথযাচার
সামরাজয
ভমধয
ফলাইটের
হাউমাউ
কাউনসিলরদের
কষককে
কযানসারের
হেরেছিল
শযতান
কযামপাসের
বিনিযোগে
পেরেছেন
নযাযবিচার
সিনহার
অলপের
এতোটা
তরাণসামগরী
শকনা
ললনার
হিডিক
পৌছানোর
পরামরশে
নাযলা
নাযিকার
বাচচাদের
সানরাই
ঝলমলে
সশানত
মকতার
জবালিযা
মনিব
১৯৯১
খাতনকে
অকষর
রিযাদের
সবলপোননত
১৯৮৯
নিরধারণী
পরতিবেশীর
##বরেণয
দিইনি
মৌলভীবাজারে
বসিলাম
##রপণের
পযারিস
মরণের
মনসীগঞজে
পরতযযে
পরেমিকের
৪৩তম
##বাকয
দাদী
হসপি
হসাইন
সরদারের
##মালিক
সমদধির
দতাবাসে
পরযবেকষক
অহনা
সবসমযই
থাইলযানডে
নারসদের
জবলজ
মোসতাফা
বহিরভত
অযাটাক
এলিট
ডিসটরিক
আমদানিকত
অকারণ
বঙগোপসাগরের
যোদধ
টিকিযে
মসতাফা
ঠকিযে
চিডিযাখানা
চলিবে
উদদীপক
দরশনারথীর
অযথা
বযাকটের
শরীকানতবাব
##মিণীকমার
এলপিজি
জনাযেদ
জবাবদিহি
টরযাজে
নাইজেরিযার
সাপোরটে
বিকাশে
মাহাতাবের
লোহাগডা
ডিভিশন
মানবদেহের
মালটিমিডিযা
মালটিমিডিযার
আইইডিসি
শিউলি
কীটনাশক
নডেচডে
নদীগলো
অনসারীদের
দরগাপজা
বাযেজিদ
চিরিরবনদর
সেগনবাগিচায
সমঝোতার
কলেজছাতরের
আফসোস
পেচিযে
ডেলিভারি
অনতরবরতীকালীন
যদধবিমান
রউফ
২০৪১
কযানটনমেনট
রাকিবল
সবাযততশাসিত
ভাষাসৈনিক
ইশারায
পরযকতিনিরভর
হিনদসথানী
তিরসকার
পিযংইযং
অলিমপিকে
মসললিরা
করমবরধমান
অসহনীয
অফিশিযাল
অলে
অগত
আটে
আভি
এতি
কঙ
কদা
খাপ
খাজা
গডায
গরাউন
চযন
চোট
ছানা
জডা
জাদর
ডিল
ডরাগ
তাজিক
ধক
ধলি
ধসের
বথ
বকা
বঞচ
ভরণ
ভলিতে
ভঙগের
মতেই
মচকিযা
লাযন
শীল
সকে
সকার
সতা
হহ
হড
হতি
হরণ
হালি
##যনি
##নক
##রঙগ
##রোগ
##ঠিক
##ফাতের
##কমের
##কযেক
##পস
##দাদা
##মসতক
##ইড
##জাকে
##সতন
##সংশ
##সঙগী
##চিক
##চকা
##যৌ
করসিং
পরদর
পরদরশক
পরিযাযী
##লালাম
একটির
একসিম
একজোডা
##েনদি
##েনটারি
##াদাযক
করেছ
করেছো
##াতিন
আমোদ
আমরাই
আমফানের
নিপা
##রেটের
তারাবি
সংবলিত
জনশকতি
##িসতান
মাখা
##ীযমান
##করিম
##দরায
অননদ
অনকল
অনকষণ
অনিলের
##গরভে
বলিনে
যেগলো
বলেছিলে
পরিহিত
সরমার
##মাটি
রাঘব
বিশে
বাংলাভি
কাপরের
কাধের
কিনিযা
পরতিবারের
অভতপরব
কারফিউ
কেবলি
##দিনী
আগামীর
সিআর
গেথে
দিনকষণ
মোচন
মোমবা
আজমির
##কতক
বরনাই
কোটায
অভিমখে
##সতম
পেত
মনট
কষতব
করমপর
করমিস
পরধানের
উদাস
আলতো
অবযব
হইযাছিলেন
বডদা
সামঞজসয
অসঙকোচে
ভালমনদ
##ঞচের
##কষেতর
##কষেপণ
আশগঞজে
আশবাসে
ইসলামিযা
রাখতেই
মাসীর
হতভ
##সথির
লাগছিল
লাগানোর
মতযঞজয
পথসভা
চারটার
##তিকাল
টরফির
ইনজে
অবসরের
##যামপটন
পরাশকতি
তোমারও
গণিত
গণসং
অনযকে
##পৌ
ঘটেছিল
খেযা
##ডিযাল
##চিতত
পাঠকরা
সোমা
সোলার
চাচছেন
##কালেই
লোকজনকে
পরকাশে
বিচারাধীন
গরেট
সথানানতরের
##বযয
বিপৎস
জানাচছেন
সিনেটর
বনদসয
মসলা
শিলপগোষঠী
##মলযের
উৎপাত
##ভেদয
একেকটি
পরবধ
ফেরেন
##চরচা
বনাম
বনপাডা
দাবা
ছাডবে
নবনী
##দীপের
ছবিগলো
##ঙকিম
##পালং
খেলনা
রানীর
আকনদ
##ঘাতিক
১৪০
##জারস
লোড
ভলিযে
পরোহিত
রেললাইনের
জিহাদ
সংসথাগলোর
সাকষীর
সাকষরের
জাতিগত
শোডাউন
দোযেল
কাদির
জিযাউদদিন
##কানন
সলজজ
১৭০
পনরনির
কযাবল
কযালালাম
হরলাল
বদলা
সথাপতয
##গোলা
টেনশন
বাধিল
##পরতিবনধ
##পরতিদবনদ
চিঠিটা
টেলিছ
সংকটময
সমমানে
সইবে
২৩টি
##বনম
সংকটাপনন
সোনম
২৭টি
শিবচর
অলরেড
সারভিসেস
জযাবতী
পৌরসভায
সামরাজযের
ভমিকার
ঘিরেই
পযাভ
অদময
বাছাইযে
মঞচনাটক
করেছিলম
ওঠেছে
অবরতমানে
মহিমকে
সপযানটি
শারীরিকভাবে
কৈশোর
জিতলেই
গজবে
নাযিক
##াজনিত
মেরাজ
পদধলি
নাকাল
আজিজর
সাপে
অলিগলি
টরাযাল
বিসিবির
হদিস
তেলবাহী
##সিযাম
অরধগলিত
ভাঙগিল
অপরিয
দরিদরের
আকবরের
মহারাজের
কেরানীগঞজে
গরাহয
কচকে
নিউজিলযানডকে
মেলান
ভিজা
মেহেনদি
শাডিটা
শতরতা
পললীতে
ফজরের
আগরাবাদ
শিকারে
সহিংসতায
দরগাপরে
দিবারা
কযারিবিযান
নেইমারের
পরযবেকষণে
৪৪তম
করকশ
তাডাশ
বহিরবিভাগ
টইটে
ডরেজিং
##ডিসিতে
##শরেণির
##কহিলেন
জযাঠামশাই
শনাকতে
অধযযন
পিসিমা
মৈতরে
মাধবীর
সোনাতলায
পরজাপতি
আদিবাসী
হারামজাদা
সিকিউরিটিজ
শহীদললাহ
হরেক
সমপরসারণের
জবাবদিহিতা
রাফিকে
শফিকর
ঢালিযা
উততযকতের
ভিননধরমী
অগোচরে
বাগাতিপাডা
পথিকৎ
উচচবিদযালয
বইপোকা
চানদিনায
মানহানি
নীতিনিরধার
নীতিনিরধারণ
নৈশপরহর
ওডনা
বিজযনগরে
কাঙকষিত
সমাজসেবক
ইশরাক
টকটাক
##গাতী
নাযেবে
নিবারণ
নিরবাসিত
জাসটিন
উপতযকায
ইভিএমে
ছাতরছাতরীদের
নীলিমার
কালভারট
আঠারো
সাবরিনা
তামিলনাড
কডাকডি
নাটযোৎসব
অচিরেই
উমমাহর
ইযাছিন
টাইবরেকারে
পরিনসিপাল
ইনটেলিজেনস
গভীরে
পাচলাইশ
ফেসটিভ
দেবসেনাপতি
হসপিটালে
অগতযা
মোমবাতি
কষতবিকষত
অকাল
অশেষ
অবিদিত
কলাই
খডে
খসে
গষধ
চাইল
চনড
ছাত
ছাডি
ছাযার
জিনদ
টগর
ধনা
নপর
ননদন
নযাযের
পজে
মদের
মেরি
যাম
যকের
যতো
রপর
রিযার
রঞজন
লগ
সটাই
সজান
সৎকার
সযতনে
হেনস
##যখন
##যদি
##াতি
##নভ
##নডের
##শহরের
##ীভত
##ফেন
##ফিতে
##লল
##দই
##মম
##মিনি
##মকতি
##জব
##ভণড
##ভযাস
##সথায
##চনের
##গডায
##অর
##অভি
##ধম
##আনদ
##ঝন
##ঘরি
##োহের
##োদয
##যাহ
করস
করানোর
পরোপ
##লাবাদ
##াযরা
##িকসের
##বেলের
##তরিত
##াকষে
##াকাকসিকষত
একবারে
##টিসে
বাথ
##াতল
আমেনা
সেক
সেদিক
##টাছটি
নিসতার
##কারয
সবচকষে
সবহসতে
জনৈক
পাটরিযা
পাচেক
এইরপে
##দরিক
অনাকাকসিকষত
আসিনি
আসিতেই
বলচ
উপনেতা
যেটি
যেদিকে
বিশবর
রাজিযা
রাজপরি
অভর
গরযাজ
গরপিং
কারটন
মানদা
দিযেচে
##াগারে
বেধ
বেসিক
দরদিনে
সিটে
মহে
মহাদে
গেটস
##কেরা
বরমায
##মীলিত
কোড
##সতয
ভারসিটি
##িজি
গোস
গোসাই
সথলে
করমকার
বিভোর
লিট
লিটনের
##োকল
##ালোর
##জিব
আনিল
বডবৌ
বডলোকের
সামি
কমই
তিনশ
মামাতো
মারপি
মারপিট
আহারের
মাসীমা
লাগিযা
টরেনট
ইনফে
##াইযাছে
বহমাতরিক
সাধজী
গণমানষের
##ডারস
রেজাল
##সটরি
হাতমখ
কলমে
পাচছিলাম
##গেজ
শনো
শনিযে
শনিনি
সোভ
পিএইচ
মরছ
বৈষম
হলো৷
##পরিচয
##তানিযা
ভাববে
জামার
লোকসংগীত
সমপাদকসহ
সাহাব
ভারতবরষের
টিচার
##ীতলা
নরজজামান
##বাধিকারী
দিলীপ
রিটে
মালতীর
মোহনা
কনজার
সেনারা
রাসবিহার
মসক
দীরঘসথাযী
দেখেও
যোগদানের
যোগসাজ
আবধাব
বিষযবসত
##শরীরে
আটকদের
রপকথার
লেখেন
বনো
ফেললো
উললিখিত
নাটযা
পরসতি
নবনিরমিত
লেবর
পরণযনের
##মণির
##ঙকফরট
নৌর
নৌকাব
##জীবীদের
আলীম
সটডেনট
অবসথানের
সবাধীনতাবিরোধী
অভিনেতার
কাটানোর
পতরবধ
খোকার
বসিযাছে
উচচপদ
বিকষিপত
জিলা
অফিসারস
গোলটেবিল
ভরতিচছ
সাইট
সাইদর
সংসথাগলো
গাডিচালক
শোচনীয
সাজস
সাজিযা
##ফোরডে
তোরঙগ
কাউনটি
অবসথাও
কমলকে
শকতিকে
লাইভে
আতমা
হনহন
সলট
পডাতে
বাবগঞজ
শারদ
নদীটি
হোলি
আকাশছোযা
কযাপিটাল
পলাজা
শতাংশে
হরির
রাগবি
সথাপনায
বাচব
বাচানোর
গলাভস
মনতরণালযকে
নাজকা
নাসরিন
মাইশা
আমেরিক
অজহাত
গলিসতান
টরাকচালক
##িলিযন
মিরজাপরে
আকতারকে
##লেখার
সইডেন
মডরিচ
সংকচিত
পরসকারের
ফিলিং
ভাইরাসটি
কটকতি
##দিনেই
তহবিলের
পাইযাছিল
অদকষ
অদষটে
কাগতিযা
বনধতবের
সফরকালে
সনদেহজনক
##বকসে
জবলিতে
নযাযযমলয
পরতারিত
ফোরসের
ভাবেই
বিজযীদের
রাইড
জবরদ
চযালেঞজারস
চোরাই
কোনদিনই
বযযবহল
বিনাশরম
বডিচং
যানবাহনে
উডছে
অসাধয
১৯৮৭
আনোযারা
ঈদেও
৩৩টি
এজনযই
বযাটসমযানরা
মোরশে
তালকদারের
শরণখো
পাতাল
পটযাখালীতে
ভাগযবান
শালিস
পযারিসে
ধবংসসত
দাডাচছে
মনোরম
সিএনএন
##শচান
মরণঘাতী
কিরপে
বকষর
ভমিকমপে
হিজলা
পরাইভেটকার
তিতমীর
গডিযেছে
রোহিণীকে
পরযোগকারী
ঠেকানো
ভিসার
অতযাচারে
জঙগলের
বানদরবানে
পেনালটি
পেটরোল
লডছেন
টিউমার
সনতষটি
অকষযবাব
বোযালখালী
##ামাতরই
অবিনাশবাব
রাউনডের
যনতরণায
শরণারথীদের
ইজিবাই
তনময
বরজবাব
সমীকরণ
শামসদদিন
এজলাসে
হিনদর
বালিশের
কপিলা
অকসিজেনের
শশধর
ডিফেনডার
বরাহমণের
লাউঞজে
আনিসজজামান
বিএমএ
##পরসাদ
নাডছে
শবেবর
গোছানো
উললাসে
খাশোগিকে
খেলেননি
বরাশ
কারবারি
লোকসভার
লাখেরও
ভিযেতনাম
যকতফরনট
##বাংলার
ভাটারা
অনিশচযতার
নহাশের
##াবসথায
পলাটফরমে
মজাহিদ
ফারমগেট
থামছেই
বাগাতিপাডায
শমশান
সধীর
হাতিরঝিল
গাউছল
যাদব
ফলযাটে
হৎপিণড
অসঙগত
দরপতনে
সিএসই
মোরেলগঞজে
নহিলে
কালিহাতী
চনিলাল
নিউমারকেট
ডিভাইস
অধিনাযকের
ডিআরইউ
কেরোসিন
খানসামা
ডিসটরিবিউশন
সাশরযী
ঝেডে
কারযকারিতা
অঙগসংগঠনের
জবেলে
টযানারি
গোযাইনঘাট
সননিকটে
ইতযাদির
নিষপততির
সৈযদা
অফরনত
বনমালী
নাজনীন
হেরোইন
সোলাযমান
তাবিথ
অার
অহি
অমল
অঞজন
আজনম
ইটের
ইমানের
উফ
ওম
ওতে
গও
গগন
গটিক
জগত
টিস
টিলার
টটল
থাব
ধোনির
নথ
বজল
ভাড
রেন
লকা
শাযিত
সরাতে
হটট
##াচছনন
##নাসহ
##রবে
##িলা
##ততা
##থাম
##টাল
##ফাল
##কড
##কাদ
##দদার
##ভিস
##সদন
##চাই
##চাগ
##গং
##গঢ
##ধরে
##আরের
##ণায
##ংশন
##ঝরি
##উডায
##ঘম
##ঋণ
করছিলো
পরাগ
##লামি
##ালযে
##িকালে
বিও
##িযেট
##পরসত
আমমর
আমাদিগের
সমখ
সমরাটের
সেলিমা
নিমনা
দেহর
##নিগধ
কিঞচিৎ
গতবার
আরকি
সবটা
সবজনের
জনই
##িসদধ
মাউনট
আসামী
উপাস
পারদ
জানবে
সাযেদ
পরিম
মেযাদি
রাজকমার
বযরোর
##ডিশ
দিযেছিলো
##াগলোর
কেজির
বেটা
দরভিকষ
মহাজন
##সেবার
হাসলো
হাসযকর
বরের
কোযালি
পেজ
থাকলাম
উঠিবে
করিলেই
মানষটি
সমযকার
করমকষেতরে
অবশ
অবগত
অবজঞা
আনলে
ধরলে
বডী
সামদরিক
অসকার
অসচছল
পরতাপ
সপেনে
সদী
বসলেন
আহাদ
অনেককেই
##দেয
##াবিষয
ইনফ
নাই৷
বহবিধ
ছাযায
তাইত
ফটফটে
১০৯
ছেলেটিকে
##সমহে
কলসি
ভালোভাবেই
খাবারে
দেখাও
গিযেছেন
##গাছি
সোহরাব
পিডি
আলোডন
##ধরষ
কালকিন
চিশ
সারজেনট
ভাবো
ভাবনায
দলেরই
সথানটা
বিদযে
নদীত
##ফরেনড
সাংঘাতিক
পদমায
হাতেনাতে
গরেফতারে
গরেফতাররা
বিপততি
সিনেটে
শাহবাগে
পরীকষণ
বাবাও
বোমব
নারগ
গরহের
মহানাযক
চাইতেও
##মললাহ
আটজনকে
রাষটরপরধান
##আইডি
আতমশ
##পরণা
মৌচ
মৌখ
ডেমরা
লেব
আলমাস
রযাং
ডাটা
দরনীতিতে
পাইব
পাইবার
চাহিযাছিল
দেখিবে
সবাধীনতায
দিবসকে
পরোফ
ফারগ
ফারকের
চিনিত
তরটির
সাইমন
সখীর
শোলাক
শতক
কাদে
মহিবল
যবকদের
সেততে
কাউনসিলে
চরবি
করপোরেশনকে
পরভাবিত
শিকারি
বাণিজযিকভাবে
ধারণার
যৌবনে
জরাজ
ইততে
খরী
সনতানসহ
আইনজীবীকে
শতাংশই
সরবোততম
চানস
ধনক
টানেল
নাজিল
বোঝেন
নাসতার
বাধিতে
মোকতার
কষিবিদ
ভগতে
##িলিটি
জঙগিগোষঠী
রববানী
শীতার
জারমানিতে
জযাকস
বীরগঞজে
##চাপের
সাহেবকে
ভালবাসতে
পটল
##এইড
সথগিতের
কাশির
##পরতযাশ
অশানত
বাযোপ
নিমনআযের
পাপিযা
পরাককালে
বাংলাম
সবরণচর
সবরণচরে
জিতল
পৌছার
থেই
পরতিষঠাবারষিকীর
কাবযের
নসরাতকে
ছোবলে
দবিজদাসের
কষতিগরসতদের
নবীনগরে
গনডি
মসলমানরা
রানেই
যগোপযোগী
অনতৰ
##মাসটার
৩৭০
জাদঘরে
সনেহে
শবশরবাডির
কলিনড
অধযকষের
##এইচসি
আকরমণের
##শিকষক
##দেখিযা
##দেখিতে
পরকৌশলীর
শাহাদত
পললব
পালাতে
কলপনাও
সবভাবের
তিউনি
ইনডোর
বিতরকে
গারমেনটস
গডাবে
কলমাকান
##হামদল
নেশায
ফটেজ
##লাগিলেন
মকতিযোদধাকে
মকতিযোদধারা
পেনশন
পেটরাপ
শাবক
পরতগালের
কোতথেকে
বিআরটিসির
সবযংসমপরণ
উপসথাপনের
শরাবণের
আইপিএলের
আতমসমরপণের
ডরেস
নিরাপততাহীন
অডিটরিযা
হাফিজল
পরদকষিণ
মাধবীনাথ
সানোযারের
জনগোষঠী
খেলাধলার
মদরিত
ঝাটা
এমিলিকে
কোমলমতি
অঙকে
রৌদর
তেরো
দরবযমলয
ফিনযানস
সবিধারথে
কটনীতিকদের
শরৎচনদর
ফিটনেসবিহীন
মঠোফোনে
আইডিযাল
মনাফা
কারযদিবসের
গরদাসপরে
পরোটাই
আযাতে
##দষটিতে
আরোহণ
সাউদযামপটন
সোনারগাযে
কষযকষতির
সরোতের
তরমজ
চরাঞচলের
মানবদেহে
গৌরীপর
টরানজিট
সঞচালন
আযনায
মনোনযনপরতযাশীদের
ভাসকরয
ধরষিতা
কটিযাদী
ইযথ
অবিরাম
বকশীগঞজ
বাজিতপর
এমবাপপে
জনারদন
লৌহজ
ইনসাফ
পরেকষাগহে
চরফযাশনে
থমথমে
ষাটের
সৌভাগযের
##পরতীক
কেনাবেচা
সেরনিযাবাত
করমানবযে
সবতবাধিকারী
দপচাচিযা
এনারজি
হারিকেন
জবলজবল
হতভমব
নীতিনিরধারণী
উচচপদসথ
অডিটরিযামে
অাস
অসি
অঘটন
আশি
আযর
আঙগলের
ইতর
ইযাস
জতো
টং
ঠাহর
ডানা
থিম
দচোখ
নবদ
ফনদি
বেষ
বোট
ভেরি
মাক
রিসে
রটিন
সিযা
সনায
সপরে
সসম
##যতের
##াটি
##িমার
##তাক
##হিযা
##বৰ
##ীতের
##ফড
##কডা
##পেশ
##দিল
##দপর
##দটো
##জলে
##জমান
##ভৎস
##সফর
##গনের
##গলার
##গডার
##ৰদন
##উনের
##ারজির
##োপের
##ানরা
##যাং
##যাৎ
পরহ
পরট
পরজাতি
বিফল
##তরটি
##তরণের
##িযেত
বাটা
করেতার
##াতম
সমির
সেফটি
##টাকেই
নিস
নিবাস
নিমিত
নিমীলিত
##বাৎ
তারণয
সবমিল
সংগরামী
জনদর
মাফিযা
নেযার
নেচে
নেছা
নেতানিযা
অনদানের
অনতিকাল
বলকে
পারচি
পারছিলেন
##রাণী
পরিপাটি
সরষটা
##রিপ
রাজৈর
দেখিস
দেখবো
##ডেম
কিনবে
দেশই
বযঙগ
গরতের
##নধা
কারলো
শরাবন
হইনি
আগা
আগমনের
##পিএস
দিপা
নামি
নামবারে
আপিলের
আজহায
কোনটাই
##তনীয
##সিফ
##সতানে
##ডাঙগী
দইবার
কষির
থাকতাম
##ভালে
কিছকাল
উঠিত
উঠিতেছে
পরেত
##িজের
##তবপরণ
মিশিযা
বিভী
আলর
আলহামদল
ইউনেস
আনছে
আনেন
ধরছে
এলাহ
এলাকাজ
সেইরপ
করোনাকে
বাসদ
তিনটে
সনদেশ
মামনের
জৌ
বলিষঠ
আশিকর
এমবিবি
নতনগৌসাই
রাখিবার
মাসদর
বছরজডে
পথসভায
বিকরিতে
নাইকো
ফিরি
ফিরল
বহদর
বিভিননভাবে
হাটি
দেওযাকে
এসেছিলো
বারমিং
অনযটি
##সটিকের
##দনত
অরথহীন
চালিত
##ষটিতে
পাচবার
##গেটের
ঘোমটা
পাঠয
পিপাস
মরবে
##ধরমী
ছাতরাব
ছাতরীরা
সারিতে
অযালেকস
বিচারকদের
হতেন
হামিদল
ভাইজান
পদবি
চেযারমযানসহ
শাহনাজ
পরীতিম
আবদার
বোতাম
মাঝখান
মোহিনী
আহতের
সকলকেই
বলাতে
##এমএস
জালা
কাপতে
আটককতরা
অপকরম
বিমানটি
আটজনের
আটকাতে
গানগলো
আনদরে
১৫তম
মৌমা
পরসকারে
দাবীর
দীকষিত
ফরমে
নিরদেশক
পরণদৈরঘয
পোষট
পোহা
নৌপথে
তোমাকেও
দঃসব
উননযনমলক
মনোনযনের
দেখিব
ওযাহে
বিদেশী
পরোকষ
তরসকে
সনদরীর
সমযেও
বসিযাছিলেন
১৮৭
আরেফ
নিরমলের
উচচৈ
বলিতেন
বিনির
নমবরের
ঘমায
বিললাহ
##উলিযা
##বতীর
শকতিমান
শেযারিং
পনরবার
পনরবহ
বাবই
ইযাং
আফিসের
অনধাবন
বাকলিযা
কলাবগলো
পারবোনা
রকতদান
সবিধায
রাগিযা
গলাকাটা
অধিভকত
##শবাসে
অজসর
##পাডের
নিষকরিয
সমমানজনক
অঙগন
আফরিন
গডেন
আমিরল
ভযেস
এফআর
পযেনটের
বিতরণী
দোষীদের
আনাচে
এযারওযে
বেনগোপাল
লেগেই
বরাজিলে
বরণবাদ
বযেস
##করিপ
৩২টি
অনমোদনহীন
মনোযোগী
ভিততিহীন
##কেটেড
রিকশার
সিকরেট
বাপপী
কইতে
ছটছেন
কোমপানিগলো
পরামরশক
নাযকর
শনাকতকরণ
পডিলে
দারণভাবে
যাতরায
কবরসথান
হাতিযা
রশিদের
১৯৮২
জাগানো
৩৬টি
শিখতে
বহিঃ
জেরার
তালাবদধ
এডকেশন
##ঞছিত
মেহেরপরে
##যনতরিত
##ভাসিত
পরাঙগণের
পাতলা
##িওর
##ডাকতার
হিমেল
পরকতিতে
বেগবান
ইনডিজকে
বৈশাখে
কিরকম
##গাছের
আগরাসী
##হইযাছে
রশীদের
##াহেবের
সিসটে
সাইফদদিন
ডোমার
চিতল
খামারি
টরানসপোরট
ঠেকিযে
পরবাসে
রহমতগঞজ
ইচছার
বিনোদের
নলছি
তাকালাম
কপালকণডলার
মসতক
আঙিনায
শাহিনর
জনসংহতি
বনদকধারীর
তাৎকষণিক
##বিজডিত
পরীকষারথীকে
অযাথলেটিকস
সযলাব
মাগী
হেলালদদীন
খাদেম
চেতনার
সলিপ
কেলেঙ
বযালন
সারবকষণিক
কলঙকিত
উপচেপডা
গিটার
গপতচর
আমনতরিত
শাশডিকে
নযাদিললির
জনাৰদন
মলেচছ
ঈশিতা
হতদরিদরদের
মাধরয
সহপাঠী
পারাপার
অবহেল
##জগতের
পিনট
কানাচে
##সমপরক
কষণেক
টরিপল
রনধন
ঝিমিযে
ডাযালগ
##ছনছ
মহারাষট
মোমেনের
বদধিমতী
##ফোডিল
একগচছ
বিদযতাযিত
পরভাবশালীদের
সবতঃসফর
পরতিহিংসার
ওষঠাধর
ফাগন
পরযটকের
পেযাজের
অযাঞজেল
অামাকে
কেরালা
সহানভতি
নিউমোনিযা
আতমসংবরণ
এলিজাবেথ
উডিষ
দামডহদা
সবাচছনদ
সংসপরশে
দরপাললার
##মহিলা
আপাদমসতক
ইননালিললাহি
সানরাইজারস
##আনদোল
সোভিযেত
শারদীয
থাবায
জরাজীরণ
সবমিলিযে
এলাকাজডে
এমবিবিএস
অটল
আকতির
ঈদি
ঐশবর
খাবি
খটিতে
গিননী
ছডি
জাব
জটে
টমাস
ঢকেই
তক
তছনছ
দপতর
দষণে
ধারের
ধোযার
পচে
ফায
বামে
ভিকার
মই
মকট
যাত
যকষ
রেনে
লণড
শিন
শাই
শাট
শবনম
সাবি
সজজিত
হজে
হযায
##যৎ
##যমে
##নতন
##রন
##রকষা
##বাযের
##বিযায
##থল
##টমেনট
##শাক
##ডযা
##পদী
##জরের
##জমক
##সতিতে
##চড
##চিতা
##গিজ
##ছোযার
##ঙকে
##ঙকল
##খিযা
##যেতে
করনি
করিতাম
পরতন
পরদীপের
##তোরা
##ামোর
বিম
বিপি
বিটিভির
##াকথিত
একঝ
একঘরে
বাঙগা
##পরণের
##পরবের
নাদি
নাচে
করেছিলো
আমপাযার
##বারও
সমননত
##াবিজঞ
সেমাই
নিবদধ
দেবর
আরকাই
সবাদের
সবিতার
পাণড
মাযাব
নিরসনের
নেবো
##যানার
অনকরণ
##গরো
আসিস
আসতান
বলবি
উপসহ
যেভাবেই
পারটিকে
পারিযাছিল
##বরষণ
জানলেন
সরযাসত
##মানবিত
মেখে
রাওযা
রাউজ
রাজর
দেখতেই
##ডেক
কিনারা
পরতিভা
গরিক
গরবিত
গরদেব
কারে
মানার
মানোনন
দরজয
দরধরষ
##পিপাস
মহাক
##ষটান
দিপ
কথাটার
কথাটায
আপেল
কষিজ
থাকিব
ঘটানো
##ঞজির
##ঞজারে
সংসারী
মানষটাকে
মিমি
মিশনের
সথলা
করমজীবী
##ারাতরি
লিকে
##োকি
কাজীর
ইসটারন
বিরদধ
বিরামপর
তিনজনে
সনতব
সনানের
মারমা
##সহীন
এমদাদ
রাখবো
##ৎসর
এমনও
##বহার
বিকালের
বনধবানধব
অবসনন
##জাগর
বহজাতিক
তাইওযান
হালাল
গণআনদোল
এসেও
বারাক
১০৫
ছেলেপলে
শহীদের
ভাণডার
কলযাস
কলকারখানা
দিতেছিল
চালসহ
খাচছেন
বঝবেন
##পাযে
##গাং
চাচ
আলোডিত
উঠেই
##পোরটের
ভাবিলেন
অযাসা
ঘরেফিরে
ভাইসহ
##সালাম
কযেকজনকে
চৌকির
বিভাগকে
দাশের
কোটিপতি
জাটকা
পানীয
সাতটা
সাতকান
হাইক
জলজ
##োপাধযাযের
##ঘরিযা
উলম
সৌহার
নববরষের
##দীঘি
আলমডাঙগা
ফলোরে
পরশাসনে
পনথা
ভযাটের
তালতলী
জাহাল
মাঠেই
##ছাযা
ঢাকাব
##মখীর
মযাচটা
আককেল
মিরজজা
ওযারকশ
অথরিটি
ওযাক
চেষটাও
ভাগনে
তরী
সনদরগঞজ
উইঘর
সিনেমাটি
কাটাকাটি
নাগরিকরা
গোলটি
সাইক
পরতিষঠানগলোর
বলিতেছে
বিনষট
১৬৬
মালিককে
দরতই
মাছটি
জমিযে
বিললাল
কাদি
##তলিযা
তরণীদের
কমলনগর
##এফএল
সমনসত
সলতানের
গলযা
যৌত
হোসে
চিরসথাযী
জিনস
দবিধ
##গোচর
ডরেনের
লেখাটি
লাভজনক
ভারতীকে
নাজিব
নাসার
বাতিঘর
খাদযপণয
##হাটটা
যদধজাহাজ
করীশচান
ঘণটাখানেক
কলযাণীর
শনিযাছিল
রেকরডের
জিনিসের
##ঘাটায
##মিটারের
সফলভাবে
কটাকষে
ঢকিতে
যকতরাষটরকে
জাযগাটা
##দেহী
করণায
হরিচরণ
রোহিঙগার
ভালবাসিত
থাকিলেও
শীতবসতর
কযানট
অশিকষিত
উচিযে
কষমতাধর
কষমতাযন
বিরোধীদের
নেননি
সমতিবিজডিত
বিসফোরিত
আরিফিন
হেলপ
লাইনগলো
##একটি
শামসর
পরচেষটায
জনসনের
ভমিমনতরী
ইংরেজের
ফারকী
চককো
ননান
ছটতে
আসেননি
কোমপানিগলোর
রমেক
গৌরনদ
রতনকে
##কমারি
##হাসযে
হিনদদের
ঠেলা
দানব
বঝেছি
মেসিকে
বেদখল
বীভৎস
১৯৮৮
শিখিযে
রোজাদার
পনঃপরচার
মাশরাফ
বযাটসমযানের
চমকি
রসলের
শযামলী
##সটেরল
সমানতালে
পাততা
পরতযেকটি
পারবতীপর
চলনবিল
শালবন
##দেখে
শোনেন
অরণব
বরিজটি
মগধতা
পরবাঞচলে
সবাগতিকরা
টারমিনালের
##লাভের
মাঝখানেই
তথাকথিত
আলেক
নলডাঙগা
মিশেল
৩৯তম
অযাথলেট
##বিধির
উপমহাদেশে
টিউব
টিউশনি
ফযাকট
দণডপরাপত
মচডে
পরানতের
দরশনারথী
অকারযকর
বঙগোপসাগর
মাইকরোবাসের
জননীকে
ধোনি
অভিশংসন
এমপিওভকত
সথবিরতা
মোহনপর
জীবনযাপনের
হতবাক
মালদবীপে
পরণেতা
পাঞজাবের
সলিমললাহ
দালালদের
আতিউর
আললাহতাযালার
ইনভেসট
দনডপরাপত
উপারজনের
কমলাকানতের
কাঠালবাডী
নাজিমউদদিন
ওযেলস
আনতঃনগর
সেলিবরে
ইযেমেনে
ধরমঘটে
##ঘণটার
অগোচর
ডযাফোডিল
রোমাঞচ
মতযদণডের
জমানো
লিপজি
লোহাগ
চানদিনা
দাফনের
এনটারটেইন
কনসযলেট
নৌকাডবির
কোমরে
খাজনা
অবমাননার
রাজমিসতরি
ফরযাঙকফরট
রোকন
লাইবরেরিতে
অনতিদরে
বাসতচযত
শতবরষী
বালযবিযের
ছেলেমেযেরা
চৌরাসতা
অবিশরাম
জযোৎসনা
ঘরমখো
##মাঝে
২০৩০
কাঠমানডতে
ঠোটে
মহাসাগর
গরনথমেলা
পনরগঠন
আগনেযাসতর
সইসাইড
উডডযনের
কতিপয
চযামপিযনের
অনাসথা
বেচাকেনা
গাঙগলি
বাইসাইকেল
নবনীতা
##পরতিবনধী
নৌকাবাই
শরাবনতী
অবহেলিত
সবতঃসফরত
উপসহকারী
অঞজ
অকষণ
অঘোষিত
আভা
আঞজ
ইলি
ইমে
ইযাম
ইজজ
ইমপ
উচছেদের
এটার
এলার
কেল
কনিষঠ
কবাট
গই
গনে
গহিণীর
জদর
জোক
ঝাজ
দমদ
দখানা
ধাব
নানিযার
পলেন
পোনা
পটর
পসরা
ফিতা
ভলেই
ভাজা
ভালোর
মডে
মযারা
রিল
রষট
লোপ
লাতিন
শোযা
শখের
হনড
##াপর
##ননি
##নশীল
##তযা
##হসত
##বশযক
##ীনা
##ফরা
##কঠ
##পনের
##জালের
##জারি
##ভিন
##ষপতর
##সাপে
##চাইতে
##গহে
##অযানড
##ধাম
##আলো
##আতম
##খিন
##ৗত
##যাদেশ
করছ
করছিস
করসফ
পরভর
পররো
##লেটর
##াযত
##বেষটিত
একাক
একরাশ
বাথর
##পরিকর
নাভি
##িতামলক
করেছিস
##াতত
##নাশের
##াবত
##াবলী
নিচছি
##বাণী
##লিপ
##নিশি
কিটের
##াপড
##কারক
সবৈর
সবদেশে
জনবহল
জনপদের
##তাডিত
##করড
অনলাইনের
##বিদের
##বিশব
আসলেন
আসিব
বলতাম
##িনিং
পারিতাম
জানন
##রিশ
মেক
মেগ
বাংলাবানধা
দেখাইতে
অভিস
##নধে
মানিব
শরমার
বেহা
বেডান
মধকৈ
মধসদন
দিনকাল
তোমা
মোঃ
নামানোর
আপনে
##দিগকে
##সিডি
বরতী
কোণঠ
থাকাই
ঘটলে
ঘটিযা
কিছনা
উঠেন
##হতযাগ
চলিত
গোপী
বযাগে
মিলা
মিশির
##ীবাসী
উদদীনের
অবঝ
২০তম
ধরষণে
সামিট
সামছল
সামলাইতে
সননদা
অধসতন
পডো
পডবেন
##োসিস
নযটা
বলিও
আশঙকার
আশপাশ
পডেছিলাম
বাডিসদধ
এমরান
আহাজার
রাখিযাছে
##দেবের
টরফিতে
ইনবকসে
আদরে
পরাধীন
##কিউ
বলেননি
##বাবা
বারই
ফটকে
##াধযকষ
অপরতল
অপরণা
অপরযাপত
রেজি
##পেটা
ভিউ
কলমব
কলরব
রাতটা
দেখাবে
হোসেনপর
বঝতেই
শনলেই
বলিযাছে
উততরণের
পিছে
##ধরনের
ছাতররা
কালিদ
১৯তম
ফেসট
ভেদা
ভাবির
##ভিষিকত
বঙগভবনে
জামালের
অযাওযার
##গরহের
কতপালং
নদীকে
আইনটি
তেই
##চচা
সাহসিক
ভারতবরষ
কযেকগণ
নিশাকর
নিশচিতে
টিযার
বাডিঘরে
খলতেই
নরদান
তললেন
বছরেরও
মাঝরাতে
কামা
কনঠ
সেনাস
১১৫
শিলপকে
দাবিদার
হলদে
ফলবাডিযা
হেয
হেদা
বলাড
বাজারমলয
ঘরছে
পেযেও
সবাসথযকরমীদের
##শরয
হাইটেক
আটটা
রাষটরনাযক
রপালী
অতযাব
আতমবিস
##চরচার
মৌল
ছাডেন
ছাডাইযা
লেকের
ফরফরে
পোহ
ভোটকেনদর
ভোটকেনদরে
##মাতরই
এনড
এনো
খেলোযা
সটপ
সটযানড
সিদধানতকে
চাপিতে
একদিনেই
১৮তম
বিসকট
নিরমাতারা
বানারী
ধরমম
অফিসিযাল
সংশযের
সাকষাতে
নেমেই
বিশবাসযোগয
দোতলায
পরতযাবর
বিলবোরড
খাদিজা
কাদো
মহিমানবিত
কাউনটারে
চরভদর
খনিরা
শেকবি
হাজীগঞজ
খেলেও
শরীফল
শরীফের
কযাব
কযাকাটা
হাসপাতালকে
##কোণে
আরেকজনের
যাহাই
শহীদজজামান
নিকো
হরন
কমারখালী
চাননি
সমভবতঃ
বোঝাপডা
অপরবকে
দেখিতেছিল
অজগর
ধরাছোযার
খলেছে
গারলস
নানক
নানদ
দৌহি
সিংহের
মোবাইলের
পোশাকশিলপে
বিধবার
সতনধ
৪৫০
৪৫তম
জলাইযের
শীঘব
শিবপর
##বছরের
দৈবাৎ
ঢকিল
দোষারোপ
করণার
পযালে
বিদেশিদের
ভালবাসেন
তিনজনই
আডচোখে
##বাগানের
ভযানে
ভযানচালক
চীনকে
মিডিযাতে
অরথাভাবে
অজঞাতন
পতিনের
কারখানাগলো
সমতিচারণ
করীডাঙগন
##ওযানা
ভমিহীন
জিতলেও
অভিযকতদের
বেলন
সেলস
জাকজমক
সশঙখল
রাধতে
সাডাশি
ইউনিভারসিটিতে
রেসতোরা
হারাণী
১৯৮৫
বজরপাতের
শরিফে
শরিযতের
মমিনের
লোকেশনে
ইশারা
সঙকোচে
হিমালয
নিচতলায
কযেতে
বিধানসভা
অভিজঞতার
আলোকচিতর
সংগঠিত
উরধব
একদমই
পরিনট
আইসকরিম
পরজাতনতর
ঝকঝ
তথযে
পষিযে
লাকসামের
##বাকযে
##সংগীতের
বিকরেতার
নিরবিঘন
##ডামারা
মগবাজার
আশরযে
গরামীণফোন
##বিধবসত
ওযাশিংটনে
ওযাশিংটনের
দরবযের
উৎকণঠার
অসতিতবের
সলোগানকে
শানতিপরণভাবে
খজছেন
জংশন
কামরান
করমশালার
চিরদিনই
তৌহিদ
সটাডি
মহেশখালী
টযরের
ফেরিঘাট
দমপতিকে
ননদীগরামে
বাঢী
ছককার
চিডিযাখানার
কযারিবীযদের
ঝাউ
টিআইবির
##বসথাপক
অযালামনাই
গোডাউনে
##গরাহক
উজাড
মালিবাগ
কযাডারের
নাডিল
সিএমপি
কাভারডভযান
খনিজসমপদ
জডানো
সংখযালঘদের
দৌলতপরে
সোনাগাজীতে
লাবণয
সংঘাতের
সইজারলযানড
লিজেনড
পলকিত
ভোটাভ
তরিশালে
পেটরলবোমা
কাযেশ
কারযদিবসে
পরোটিন
জেরজালেমকে
করীডাবি
চেমবারের
হরমোন
হিলারি
উচচবিদযালযের
পারফরমযানসের
কযালিফোরনিযার
জযেনট
দিগনত
দাবানলে
চিরনিদরায
##ালাইজড
কোটালীপাডায
কযালসিযাম
পরতযাবাসনের
ভাইবোনদের
কারচপির
##দঃখ
মাইকরোস
রঘবীর
উততরপরদেশের
যেরপ
##উপসথিত
নিরলসভাবে
দসতগীর
পলযাটফরম
##গরনথ
পরফেশনাল
পিযারীর
খোজাখ
তওবা
আবরজনার
ঘযাঙর
খালিশপর
শাযেসতা
সারথকতা
অরগানাইজ
টেনডলকার
নডাচডা
সওদাগর
সাদলযাপর
ডিসটরিকট
আইইডিসিআর
অলৌকিক
বিপৎসীমার
অলরেডরা
বেধডক
রেজালট
গটিকযেক
##াবিষযক
রিসেপ
আলহামদলিললাহ
লণডভণড
সৌহারদয
মাশরাফিরা
বাথরমে
মধকৈট
অজঞাতনামা
অকলযাণ
অমলয
আঃ
আলিম
আতিকর
আষাঢ
ইথি
উট
এপার
ওমা
কপা
ঘাসের
চমবন
ছিদ
ছোড
জঞজ
ঝরা
টনি
টাযার
ডাব
ডলি
ডোপ
ঢোল
ঢালা
তমবর
তরত
দক
দির
দানা
দপকষের
নরের
পষট
পতরে
পতনে
পসতক
ফযাল
ফাইল
বঙকিম
ভø
ভিল
মডা
মিনন
মাযার
যবা
রসের
রিলি
রঞজিত
শৰী
সদা
##নতরের
##নালির
##রোধ
##তখন
##হমান
##বডে
##বচনীয
##থীর
##টম
##টরের
##টাইল
##ডনে
##কাজে
##লন
##লইযা
##পশ
##পডি
##পতার
##দীন
##মছ
##মেলার
##ইং
##ইসট
##জানে
##জারের
##জীকে
##জোযার
##ভট
##সীন
##অপর
##ধরি
##ংকা
##ৎপর
##োচের
##যাবে
করলি
পরপ
পরবর
##কেবল
##কেজো
##াযনে
##াযানট
##াসং
##াসমপনন
##পরণে
করেচেন
আমতয
সমবেদ
##াবধান
সেভাবেই
নিযমের
নিবিযা
##বাণিজ
কিসত
আরামে
তারিণী
সবরত
জনাইদ
##িসতানের
পাতে
##োগত
মাঈ
##যানত
অনযোগ
##বিএল
##বিপরবি
বলত
বলট
বললি
সাফা
পরিচছে
সরযার
##মিকে
##ধানিক
রাজন
রাজকীয
##কাও
দেখান
দেশী
গরবের
##নধি
কারার
করাশ
করাউন
কেতর
বেদন
দরগতি
সিডিতে
দিনদপরে
তোমর
দিচছিল
মোহা
নামবেন
আপদ
##ষঠে
কোনায
##তনন
##ডাঙগায
পেতেই
মনড
মনদের
মনিরা
##চারণা
একটিতে
কষিতে
উঠলেও
##সবক
##সবাসথযের
##হতযায
চলত
##চৌ
মিডল
করমবযসত
বিভকতি
লিচর
লিবিযার
লিবিযায
উদযম
উদভাসিত
##োকান
ইসকা
##ষণায
##বাদন
বিরকতির
সেইসঙগে
আইজ
আইরিশ
##ঞচাই
জেট
সদঢ
মারসেল
##টকো
লাগলে
শেখকে
##চছার
ফিরোজা
বহদিনের
তাইতো
##কিঞচিৎ
হাতরাস
দেওযাও
গণনার
বারলিন
বিষগন
ফটিল
করোনাভাইরাসকে
কলস
অরথমনতরীর
ডাকলাম
ডাকযোগে
খাচছি
হারলেও
বাহা
উততরণ
সোফিযা
পিং
চাচি
চিৎকারে
ফেসটন
সারির
নিজেরও
ওপরই
বিচারবহিরভত
কতজন
##বযনালে
চেযারমযানকে
চৌকিতে
জানাচছি
শাহবাজ
নরনার
ফটবলপরেমীদের
চোখা
চাহিদ
বোকার
রিভার
দশটার
কাময
নারসের
তথযমতে
কনডাক
দাডান
মসকোর
বদধপরিকর
মহাসচি
উৎকট
আববার
এসছে
হেলেন
ইংরাজ
ঘরপাক
##ভেটিভ
##োজনে
হাইডর
হাইসকল
##িদির
অপদ
অপশকতি
সতরীসহ
রবিবারের
ছাডব
ছাডলেন
করিকেটপরেমীরা
যেতেও
পনলী
মানবতা
এনটি
এনইসি
দরনীতিমকত
চাহিযাই
ভলব
##আরও
চিনত
উইথ
উইমেন
মযাচেও
কষেত
কষেপে
রাজনৈতিকভাবে
কাটাত
কাটতেই
রেলপথে
রেলগেট
সমাজসেবা
ধরমপরাণ
গোলদাতা
ধারমিক
গাডিটা
গাডিবহ
##চালা
শোযার
শোবি
শোষণ
সাজিদ
শততম
দোলা
ভাঙে
বিলম
শভানধ
বালির
হামলাকারীদের
চাদে
চাদরে
ফোনটি
লাইক
সমনকে
১৭তম
পিছনের
পিছিযেছে
জরায
পনরবাস
ওযেসটার
আযশা
কষতিপরণের
আকাশপথে
কযাশায
পলাসটিকের
তেমনিই
সেটাকে
হরদে
বদলাতে
সথাপনে
##গোপন
ঠাকরদা
লডাইটা
টানিতে
টানটান
মাইনে
করোনামকত
ভেবেছিল
ভিতরেই
খাদযবানধব
##ভোজন
##বিকরম
ডিজাইন
বিধিল
পরিযজনের
পেতেন
দিকটা
পরযকতিবিষযক
গৌতম
সোনাকষ
শানতিনগর
এফডিসিতে
ফাসাতে
মলযবদধির
চকষর
ভাইরাসটির
বীরপরতীক
এযারপোরটে
##কৌশল
আহমদকে
ওসমানের
##াসথানে
##পরতযাশী
ফাতি
২৯তম
নিউজিলযানডে
মজিববরষে
ফোরজি
##একদিন
জনসবার
কডিলে
পাহাডতলী
কলপনায
মিসতরি
তীরবরতী
নাযলার
বযানডে
মেরামতের
মৌসমেও
গযাংযের
সবপনা
বিপরযযে
শটিংযের
আবহমান
##পদক
মেরেছে
##চোখি
রকমিণীকমার
পথিবীকে
পলেযার
জটিলতার
মহাজনের
আছাড
##াবলমবী
নিকটতম
গণতনতরকে
রসাযন
শযামলা
শযামপর
শরণাপনন
ভৈরবীর
অগনিকাণড
টরাইবযনালে
সালামের
সঙকোচের
বদরল
সেনটমার
দরগাম
পললবীর
সৌনদরযয
বাবরি
পিকনিক
পদতযাগপতর
অনপম
গভরনিং
চিততে
দাওযায
খিলখিল
চাওযায
ফসফসে
সরবাপেকষা
জবলিযা
তারপরেও
মোসতাফিজ
হতযাকানড
রাষটরে
মমবাইযে
বারনিকা
সকলছাতরকে
খডগ
রিটারন
ডাযনাম
তাৎকষণিকভাবে
আবিষকারের
লযাবএইড
##কামনা
চিকিত
একতরিত
হযামিল
##াকানদি
কেনাকাটায
ঈশান
কোষাধযকষ
নববইযের
গাজর
কডিল
রজব
জগদীশবর
গণপিটনি
রকষণশীল
##াবসথা
রকিব
পতেঙগা
অদরির
ঘটিবে
লাহোর
মনোনযনপরতযাশীরা
বিশরামে
অতযধিক
দবীন
অশবিনী
পঠিযা
উচচারিত
যমজ
বাঘাইছডি
পশচাৎ
উঠোনে
টানাপডেন
ডিপারটমেনট
উইমবল
মহাযজঞ
##বিষহ
পেনসিলভেন
বখাটেরা
ফটিকছডি
রোবট
মোখলেছর
ডলফিন
আদিতমারী
ডাকাডাকি
লেভারক
এনাযেত
ওযানডারারস
গযারেজে
কিচিরমি
রেবেকা
বযাকটেরিযা
আভিধানিক
কঙকাল
পজেটিভ
নারগিস
বাযোপিক
বাংলামোট
পেটরাপোল
জালালাবাদ
উচচৈঃ
কেলেঙকারি
আরকাইভ
সথলাভিষিকত
যৌতকের
নৌকাবাইচ
কোণঠাসা
ভেদাভেদ
অতযাবশযক
তরতাজা
মিননির
হাতরাসিং
অটি
অতবড
অকেজো
ইদানি
এট
এআই
ওপরের
কতত
খলেই
খাডার
খোসা
গডের
গডিযা
ঘযান
ঘটিতে
ঘডিতে
ঝগডার
ডটক
ডাকার
ডকম
ডেনটাল
তানি
তামান
থা
ধকল
ধেযে
পঞজ
ফপ
ফরা
ফেরে
ভস
ভণড
ভাডায
রফ
রকমারি
লাস
লীর
লডে
শৰ
শঙখ
সতন
সশীল
সপিড
সখযাতি
##াং
##নডি
##তপদে
##হেন
##বিযে
##শৈ
##ডবির
##কিলোমিটার
##পলিশ
##মতা
##মেষ
##মিনা
##ইডি
##জিকযাল
##ভাডা
##সলি
##সরি
##গাই
##অস
##ধরমের
##আমরা
##ঘযান
##ারির
##যাতম
##যেলের
করদাতা
পরনের
পরলোক
##লেমান
##ামস
##াইবে
একমহর
একাটটা
##পরাযণ
নাওযা
##াদিমির
##াহিনী
আমাজন
##ছেনা
##াবতী
সেবক
নিশা
নিলেই
নিমত
তারের
পাডিযা
নেহাত
এইডস
এইরকম
অনচিত
##বিবাহ
##টেকের
পারলার
সাউনড
##খনড
সরানোর
##মাথায
##মাংস
কাযেম
দেখাইল
##জনমে
দেশগলোকে
পরতিবারই
গরভার
কারস
মানিযা
মানিকের
তাহসান
কেইন
বেজ
বেতা
বেডের
বেকায
বেযাই
##তারকা
মধপর
দরদর
দরবিষহ
##টারির
মতামতের
মহাল
মহাব
মহাবয
মোফাজজল
আপার
কোনদলের
বিশববাসীর
বরাস
বরিসট
বরাযান
পেযালা
কষানত
থাকবি
##িকষে
##সবামীর
ভারসিটিতে
মানষটিকে
সরকারপরধান
গোড
গোবর
সমযটায
বযাস
বযাঘাত
বিভেদ
কহিত
কাজাখ
ছিলনা
ইসহাক
আনর
আনো
ধরলাম
ধরষিত
সামল
সামিযা
অনেকা
##শিবির
বেশে
অসনত
সনতাব
সহাব
শিকষিকা
সপটে
জেতে
জেবরা
পডতো
উতথানে
দলবদল
মারশা
মারকেন
বাডডার
বসর
রাখবার
চারঘাট
অবসাদ
বহরে
তাইনা
আপনারও
পাশবিক
হাছিনা
##কাশনের
সাধনায
১০৪
জীবনন
রোভার
সমপরীতির
মযাজজ
হাতছ
হাতজোড
হারাইযা
হারনর
হোসেনসহ
বাহিনীতে
শনিযাছে
পাঠাবে
পিটিআই
চাষাঢ
দিযাও
উঠেছিলেন
সারারাতরি
জামাতে
মকতিপণের
ছোটফ
##কসপি
##জজার
##হাটটায
ভারতজডে
বাডিটি
কলাপাডায
কলাবাগান
খললেন
##তোমাকে
হইতেও
দাউ
দালালের
ফটবলপরেমীরা
চোখমখ
চাহনি
মাঝের
মাঝপথে
দশেকের
বনদীদের
আসিযাই
কনফে
শনিলাম
যাবেনা
যাইতেই
জাভেদ
কাপিযে
ঘরাইযা
১২৬
১২৮
হাইবরি
##শেডিং
##সনতর
জলহাস
ফেরবার
ততকষণে
##তাহা
##টনির
শকরের
১৫১
বাইডেন
বাইজী
ডেসট
ছাডছেন
চৌধরীসহ
সরবশকতি
ভযটা
ডালাস
এনাম
এনফোর
মাতরম
ওযারীতে
বিজঞাপনের
ওযাজ
এগোতে
ফারমাস
উইকে
লালবাগ
একদিনও
কাটানো
পতরকে
রেলি
রেলপথের
উচচতর
২৫তম
দজনার
##খাওযা
##বালার
চোখেই
সখয
বিশবাসকে
সাজাতে
চরণে
শরেণীর
২৪তম
বককর
বকসিং
বাজেযাপত
সনিশচিত
একসপরে
শেকসপি
সলভ
তারকাকে
হাজি
কপোত
কযালেন
##কোটি
##কোথায
ছিদর
অনরপ
চিরচেনা
সবিচার
বদলের
উদবোধনকালে
পরষদ
ডরেনেজ
বাডছেই
আননদম
গভীরভাবে
তীকষন
চনদরনাথের
এনেছিল
ইহসান
কষিদে
ভগনি
আবেদনটি
অগরযাতরা
যদধাহত
যদধবিধবসত
যগমসাধারণ
জিতেই
ডিজিজ
ডিজাইনের
বৌঠান
সবাভাবিকভাবেই
সতীন
সংকলপ
চকতিভিততিক
নওশ
গডলেন
##ফেরত
ফিলডিং
১৯৭৮
পাচারে
হরিণের
পরতিযোগী
জঞানী
দীডাইযাছিল
৭০তম
জানেনা
সসথতার
বযরথতায
সমরণসভায
কিলোমিটারের
মনোনিবেশ
মিলনাযতন
নিমনককষ
চালকসহ
ইমরানের
চমকিত
বরগকিলোমিটার
শামছল
বরষপরতি
ফোটে
টাইগারস
অসটরেলিযাকে
সচেতনতার
রাইস
পৌছিযা
পারলামেনটারি
বাঙালিদের
তারিখের
পডিবার
বাচচর
সরযকে
সাপলাই
টরাভেল
বাধযবাধ
হাবিপরবি
উভযপকষের
আবেদনে
হারালেন
গনতবযে
##তপরায
শিখরে
তাপবিদযৎ
ষডযনতরে
তাজমহল
অপমানে
৪২তম
অযাপার
বেনাপোলে
কচরিপ
মরিব
হোযাই
মিউজিকযাল
আনারস
##বোরডের
##দেখা
পযারোলে
হতযাকাণডে
কযেতের
অবলী
বাবরের
সবভাবতই
ফরানসিস
ঘোরতর
আলাপচার
পরকতপকষে
কালামের
জাসদের
জাসটিস
ডোবায
সংঘের
৪৭তম
মেহেদি
ঝরছে
ঠেকিল
খাইযাছে
বাশঝ
##পটটি
উললাহর
পিরোজপরে
নিনদে
হযানডবল
হযানডলিং
শযযাবিশিষট
রাববী
কোহিনর
উৎকণঠায
উৎকণঠিত
পরতিকতি
মখযযেমশশাই
উপসথাপক
উপসথাপনায
রাজনীতিবিদদের
দাতবয
নাচবে
অনসনধানের
এভিযেশন
সিআইডির
ভেজালবিরোধী
তৌসিফ
তেজগাওযে
নিরাপততাকরমী
উদদাম
দকষিণাঞচলে
রেণর
চলিলাম
বিগডে
করমকানডের
আখাউডায
জিমবাবযেকে
আজহারল
##উঠিযা
মাদরাসাছাতরীকে
চৈতর
বিজিএমইএর
নৈতিকতা
পরতযাশীদের
হরিণাক
জীবাণনাশক
পাঠালেন
খাশোগির
মসতিষক
গহসথের
ফিলিসতিনিদের
কেনাকাটার
অবযবসথাপ
নযাদিললি
গিলিযা
##ঠাকরের
##মণডল
দরভাগযজনক
এখতিযার
ঘমোতে
বিএফইউজে
আরোহীর
উপাধযকষ
আরচারি
শরটফিল
দলাভাইযের
সওজ
ভৌমিক
শাযখল
অবাঞছিত
উষণতা
অসতরোপচারের
মেডিকযাল
ডিঙিযে
ডাযালগের
সকটলযানড
ছাটাইযের
পতিতা
মনজরল
ভরাতষপতর
দরপতনের
টযাংকে
পরতযাবাসনে
করাইসটচারচে
কারচপি
ভেনেজযেলার
বৈরাগী
কনকনে
ভোগযপণযের
ডরাগন
নিধনে
কারডিফ
বাযদষণ
মাঠপরযাযে
মাতববর
ডেলটা
ধিককার
ওবামা
রদবদল
সাউদামপ
পরামাণিক
দিবালোকে
তবরানবিত
সতরকতামলক
অনীহা
মষল
বিপণিবিত
এতিমের
##সংশলিষট
পরদরশনের
ইনজেকশন
লোডশেডিং
রাজপরিবারের
রাসবিহারীর
বকষরোপ
শবেবরাত
কালকিনিতে
একঝাক
ইনভেসটমেনট
ইথিও
মহাসচিবের
কাটাতারের
উচচৈঃসবরে
ইদানিং
বেকাযদায
মারকেনটাইল
অড
অঙগে
আঙগি
আবিদ
উডিযা
ঋতর
ওযারি
ওমানের
কঞচিত
খতি
খটির
ঘির
ছান
ছডিযা
ছডাতে
জসী
জাজির
ঝোপ
টস
টিযা
তষি
দপত
ধামা
ননিগধ
পঙক
পচাত
পিলার
ফোট
বব
বোক
বারথ
বকষে
বানো
বাকর
মলার
যবসম
রমর
রোনালড
লাক
শপ
শবেক
শঙকার
শাকিবের
সযে
সদি
সোল
সধা
হকা
হশিযার
হাবর
হালিশ
৷এ
##াভি
##িষঠ
##ততে
##তাবাদ
##হানের
##বপর
##বিনের
##থাকি
##শালে
##ঠাৎ
##পতের
##পাডে
##ইবি
##ষকে
##চকরের
##চৰয
##গজে
##ণঠন
##ওভার
##ছতা
##উডে
##উজজামান
##ঘোর
##ারায
##োনের
##যেপ
##যেনের
করতার
পরপারে
পরবরতন
##িনহো
##লাত
##লাপর
##লাযেনস
##িকয
##িকলের
##বেধে
বিদধ
##াইকার
একশরেণির
##াজযে
##পরতয
##পরকারে
নাদ
নাডিযে
##িতবের
##নেওযাজ
সমষটি
সমভরানত
##নাথে
সোরস
নিঝ
নিযো
নিথর
##কষীর
##বাখ
##নিঃ
আরল
সংজঞা
##িসা
##িসন
##িসটের
##োগা
##তাছি
নিরৎস
নিরিব
নিরাময
নিরনিম
##যানী
অনবে
বলয
বলযা
বলগের
উপকলের
যেখান
পারিতে
জানাল
জানবার
জানালো
সাউ
##রিজ
##মালায
রাজপথের
রাজপরাস
কাযেত
নিযেছিলাম
বাংলাদেশও
বাংলাদেশিসহ
##াকাটির
কারনি
কারতিক
কারডের
মানচি
দিযেচেন
##বসতের
বেট
বেক
দরপতর
আগলে
গেছিলাম
দিনগলোতে
তোফাজজল
মোডের
মোতাহার
কথাগলা
নামিতে
আপনের
আজাদের
বিশববাসী
বিশবমানের
বরমণ
বরধন
কোদাল
অভিজিৎ
পেডে
পেমেনট
মনষ
এরপরে
উঠবেন
##োধিক
##শনাল
সংসকারে
মখারজির
গোষঠ
গোবিন
মিছ
করমদিবস
উদঘাট
উদীযমান
ছিলি
ইসকল
বাসচালক
অসহি
সননেহে
যাযনা
নিজামের
পডব
পডলেই
নযনা
বলিবেন
সদান
মারবে
রাখলো
রাখলাম
##সথলী
##টকই
লাগেনি
মতযবারষিকীতে
হাশেম
##লাইসিস
দেওযাই
গণঅভ
গণজোযার
অপরদরশিত
রেজার
রেজিসট
##সটাইন
ভাটি
ভাঙগে
##সমদধ
##দারন
কলখানি
অরথদণড
বঝিনি
##গেই
উততরসরি
পিযন
চাচার
মরভমির
ফেঞচ
ভেডামারা
সারভে
##নদরিক
অযাচিত
মাহী
পালিযেছে
কতগলো
ডিবির
হামিদা
বিদযাপী
##বযসতে
##বযবসথাপনা
রেখেচি
গাতর
গালাগ
সমমখের
নগরবাসীকে
দাবার
শাহেন
নরদ
নরননবী
বোচাগ
##াইনড
##থিলা
মোহিত
সতযকে
কনসটর
শনিলে
শনিবারের
সেনবাগ
মসলার
ভোজ
ভোজয
যাইনি
ফলযেড
ফলঝরি
##এমনি
জাফল
##যাসন
পরবব
যবাদের
অপবিতর
##াকষর
##সনযাশনাল
জলিলের
রাষটরদর
লিগযাল
দাযবদধ
লেখতে
বনডেড
ছাডিতে
দীপতি
খালেকের
কানটরি
মানবজাতি
ওযারকিং
কিশোররা
এমপিকে
##শীষ
##মোহর
ধীরেধীরে
নিশচিতের
অথৈ
সবারথের
পলটনে
পলানট
পরকীযা
ডাকতারকে
ফারহান
ফারহানা
রমাল
##নাথপর
ফেলেছিল
কাটছিল
##নদেহ
১৮৯
বিসিসি
সষটিতে
পৌরশহরের
বোরকা
সখি
##চাঞচল
পরেসকরিপ
শোতে
পালনকালে
বিলটি
মহিমা
বকসে
##িংযে
শনেছিলাম
পকষেই
আতশব
হনমান
এমনিতে
বাবাজি
ইযাহিযা
৪০তম
কযাডেট
পলাটন
পলাজমা
২২তম
চানদের
মনতরীদের
তাতেও
আননদিত
হাটিযা
##মাধযমের
মাঠান
সাবলীল
চিঠিপতর
কথাটাও
টেলিফোনে
দৌডা
কাউসার
২৩তম
বিধায
পরিণাম
শরীলঙকান
৪৫টি
এলএ
এলিযে
পরানতর
অনতরভকতি
রাসতাঘাটে
ভাসতে
দাযেরকত
তাহাদেরই
৭০টি
##মহলে
সতরকবারতা
শীতকালে
সবাকষরের
সমালোচ
পতলের
পেরেচি
অসমপরণ
ভিততিক
আওরঙগ
পযঃ
আরিফর
লইলাম
পরচেষটার
সবরণপদক
করেছিলে
বাজেটকে
গোবিনদগঞজ
নাযকের
আপনারাও
রপতানিমখী
বিএসইসি
তাহারাও
জাকের
জাকাতের
ইমপরেস
বিসিএসের
পরাইমারি
##ঘনটা
ছোবল
ছোযায
ভাবতেও
খনিকে
শোকজ
টযাংকার
রকমে
মতিযার
জমেছে
##াবাডির
১৯৮১
১৯৮০
নিতাই
শরীলঙকাকে
ইফতারির
অপমানিত
আবাহনীকে
মাশরাফির
বেঞচের
ভৈরবের
দরতবের
অযাপস
কলিনিকযাল
ভিজিযা
গোলাগলি
সামযিকভাবে
ডিএনসিসির
উরবর
আগরাস
মাধবের
ডাকেন
ইউএনওর
সবাগতিকদের
জেগেছে
গরনথি
দাপটের
পশচিমাঞচলে
ডরাইভ
অতযাচারের
জানালাটা
টরেডিং
সমরপণ
পেনটা
বিলাত
পেটরো
মাহমদা
পরকারের
লডবেন
দিতম
জবলনত
নিষঠা
কেডেছে
সবারথপর
কৌশলগত
ফযাকাশে
থিযেটারের
বেশিরভাগই
ঈশবরের
সাকষযগরহণ
তালেবানের
কিউই
চরণকে
সিগারেটের
অপারেশনস
সমাধি
নেপালকে
গছাইযা
তৌফিক
যনতরণার
##ফেলিযা
পতনী
ইনদোনেশিযায
লযাবরেট
সানতবনা
ফাইভ
শিবনাথবাব
বীজতলা
টটেনহযামের
সাজেদা
শামসজজামান
এজেনস
এজেনটদের
উমমে
চাবিটা
তাবলিগের
মদরার
##বযবহার
##পোসট
গৌরবময
মিউনিখের
সেজেছে
বারিধারার
অযোধ
আতিশয
অনপরবেশকারী
ইনডাসটরিজের
গরীষ
ধরমাবলমবী
অযামবলেনসে
গোযালনদ
এগারো
মেমবারের
সফিযান
মদিনায
বাঞছারামপরে
খিলগাওযে
যদধাপরাধীদের
ভেনযতে
আজিমপর
আবেগের
বাউফল
সংগীতাযোজনে
নাঙগলকোটে
ডযাসিং
অনিরবচনীয
মলযবোধের
হতভাগা
লারমা
রনধরে
হোলডিং
বাউনডারি
যাতরাবাডীর
পপলার
নিভতে
মোহামমদের
মযারাডোনার
বিকেএস
লংগদ
টরানসনযাশনাল
সটডিওতে
রাণীনগর
মানবসমপদ
মহারাষটর
খোলস
পরীকষামলকভাবে
কণটক
দাউদকানদিতে
গেরযা
সকাউট
শাহাবদদিন
কোটালীপাডা
বেহেশ
ফরযাঞচাই
পাডাগী
শরোতাপরিয
রকতকষযী
চিটাগাং
আঙগর
দহনকাল
ফযজললাহ
সটরিট
পরতিপালন
উপকমিটির
বাহযিক
অজানতেই
গাধা
মিরসরাই
ভেনটিলেটর
টযাকসি
সারবভৌমতব
হালনাগাদ
জিসান
ডকটরস
পাকনদিযা
ওযারলডো
শযামনগর
গবাদিপ
বাষপ
মহাদেশের
পেশাজীবী
কালচারাল
##মরিং
পরথমারধে
রাতরিতে
জিনিযার
আলেকসান
সহিষণ
ভালোলাগা
অলকষযে
চারটারড
মেহেনদিগঞজ
দিবারাতরি
ধনাঢয
রপরেখা
##িজিএ
কনজারভেটিভ
নৌরটে
মজাহিদীন
জযাকসন
নাদিম
সাতকানিযা
লিপজিগ
কামাখযা
ভøাদিমির
কিচিরমিচির
হাইবরিড
গণঅভযত
অযৌ
আডিযাল
ইনধ
উলি
কযাস
কবলিত
খক
খের
খরিদ
গৰ
গদয
ঘাব
ঘামে
চাত
চওডা
ছতে
জোনা
জডিযা
জোভ
জিরা
জডস
ঝকে
ঝডি
টযাগ
ডানে
দাতা
দটোর
ধবন
পিজিএ
ফণী
ভেষ
মভ
মলের
মঠে
রাক
রটি
লওযা
শটার
শশর
ষোলো
সঞজ
সেনে
সসতা
সযাব
সসংবাদ
সসমপরক
হযার
০০
৷সে
৷কিনত
##যট
##যিম
##হাসে
##হঠাৎ
##ববা
##বীদের
##শম
##শানতি
##ফকে
##ফাইড
##ডনির
##ডবাখ
##লতার
##পালের
##ইযার
##ভগ
##ভনড
##ভৈর
##ষঙগিক
##সীর
##সেনা
##সবারগ
##চলার
##গোর
##অব
##অনধ
##আগামী
##ওনা
##খলা
##যেসট
করযে
করানত
পরসর
পরমত
পরকালের
##লেশ
##তেজ
##িরার
##ামোগত
বিযান
বিবির
বিইউ
বিমরষ
বিগলিত
##তিল
একদলীয
একসমযে
একখণড
বাধানো
##াদল
##াহাসি
আমে
আমানের
আমলক
আমানর
আমফান
সমে
সমাহিত
##াবহ
সেকি
সেগলি
নিকে
নিপণ
নিগঢ
##েলো
##লিস
আরএম
আরপিও
সবাত
জনমান
##িসং
##োগরাম
মা৷
##ওযাব
##ওযালের
##তাও
অনদি
##বিট
আসতাম
##িনিট
পারিতেন
##বরগের
পরিধি
পরিণী
পরিমো
পরিহাসের
সরকষ
সরাইলে
##মিথ
##মিলে
##মিলা
মেগান
##মাথা
রাধান
রাজকনযা
কাধ
কাশে
কিনডার
দেশবরেণয
বযলার
##াকালেও
কারত
কারাম
মানছেন
হইলো
তাহির
##বসে
##বসব
কেই
বেযার
বেপার
##তারার
দরগো
মতত
মতদের
মতাদর
মহসিন
গেছ
গেইট
গেঞজি
আমারো
##ানেই
মোজাহার
কথাতেই
তিনি৷
নামিদ
হাসযে
হাসাহাসি
আপসহীন
আজমের
##কতজঞ
বিশববাজারে
কোপে
মনসত
##ভাষয
উঠানের
##সবীকত
চলক
পরেমা
পরেজেনট
সংসকরণ
মখজ
মখোপাধযায
সরকারই
রহানের
অবনত
অবিসম
##জিদা
আনব
আনষঙগিক
ধরলা
ধরষকের
##বাসীরা
সামগরীর
আইটি
কমবো
তাযেব
শিলা
শিওর
বাসি
অসাম
সহিদল
সহনীয
পডন
পডক
গেছে৷
আশচৰয
মারিতে
বাডীতে
##সহায
বসলে
বসাতে
অনেককে
অনেকদিনের
লাগোযা
শেখানো
হাজারও
ইনফরম
##পাতাডি
##পতিত
##িকাটা
ফিরছিলেন
বহকাল
##গলোই
আপনারই
সাধযম
এসেচ
বারড
বারক
##ডারদের
আমাদেরকে
অপরণ
অপরাজে
রেইন
সদসযসচিব
ভালা
ভাওযাল
এতদিনের
হারাল
বিএনপিপনথি
পরশরাম
সিটিটিসি
পাঠাই
পিকে
পিআই
চিকিৎসাবিজঞ
কালকে
##এসডি
সারচ
লোকও
##বোনের
অযাসে
অযাকট
ঠিকমত
ডিইউজে
##বীপে
ঘরেও
পদাযন
পদবঞচিত
তেলা
##ালিযার
পৌষ
রোগতততব
নিশান
নিশাত
বিশেষণ
পরিচালন
পরীমণি
হতযাকারী
হতযাচেষটা
##থিব
মোহনায
কামাই
সেনের
১১৬
মহানগরে
লকষমীর
মহাসম
এসবি
সবাসথযসমমত
পানধ
১২১
১২৯
অপকরমের
বসেছিলেন
ফেরানোর
লেখকদের
সিদধেশবরীর
ততটাই
ততোধিক
##মরতির
বাইর
নবতারা
নবীগঞজ
ফরদ
##টাইম
মধযবযসী
পনডিত
ভোটযদধে
গরামেই
দঃসংবাদ
এনিযে
জোছ
খেললেন
শিরোপ
দেবপরিয
ওযাকি
শরেয
সিনেমাটির
১৮৬
অপরাধীর
মিনিবাস
জিএস
সযোগয
সংশযে
শিকষকসহ
জারিনকে
পকষই
কষটকর
কাদেরকে
বিলকষণ
কাউনিযা
মিথযার
চাদনী
মহাপরষ
আতকে
সমনবযের
রযেচে
পরারথনার
হাজবেন
দেখিযাই
কপায
কযাকা
কলাবটি
চিরপরতিদবনদ
নিকলী
##করিযাছিল
রাগী
লকষযমাতরার
খেযেছেন
খেযেছি
কাটাচছে
আসনটিতে
##পরতিম
দেখিতেছি
ইংলিশরা
##সীমায
বিনিমযের
গারডিযান
যাচছিলাম
##োযারা
মহিলাকে
করোনি
বৌদিদি
আসিযান
সবাভাবিকভাবে
বিধাযক
যাইতেছিলেন
রামোস
বিজঞানীদের
রবানা
ভযেই
দরৌ
শানতিক
এফবিআই
শীঘ
##ঘাটি
বোনাসের
দৈনয
যকতরাষটরভিততিক
বীরবিকরম
পরতিযোগিতামলক
এলোপাতাডি
পরেমীয
বাছাইপরবের
জঞানদার
গাইবেন
আবাসসথল
চাষিদের
আরথিকভাবে
বেধেছে
বিনিযোগকারী
পতঙগ
চমকাইযা
পাপিষঠ
মিনিসটার
কষমতাসীনদের
পীডা
বাংল
মিছিলের
আধনিকাযন
গজরাটের
পৌছলে
চযালেঞজিং
পাটমনতরী
সানডে
খাইবার
শৈশবে
উততরাধিকার
লনডভনড
কৌশলী
মযাজিসটরেটের
১৯৯৭
ওসমানীনগর
তাহাতেই
পরশিকষণে
কাগজটা
##ভাইজার
হাকিমপর
পলেটে
মতিযা
অগনিনির
ডাকাতিযা
সৌনদরযে
দিলো৷
ঘাটাইল
বিডবিড
কমিউনিকেশন
অনিযমিত
ইফতারে
পনঃত
পনঃপন
##ানরপ
দরিদরদের
মাগরিব
ডানপনথি
নীলামবরের
সবচছনদ
পারছেনা
মোলযা
কতকগলো
জাহাজটি
ডাযালাইসিস
মরেছে
ইউনাইটে
বদরগঞজে
চারিটা
ওযাসাললামকে
রেজিসটার
অভিষেকের
পযারিসের
##ফিরিযা
কালিগঞজ
ফলাইটটি
পরিদরশনকালে
মাহফজল
কাসটমার
ফকিরাপ
হাডের
তিথি
তৎপরতায
ডালপালা
দরশানোর
৪৩টি
হৈমর
মতবিনিমযকালে
দঢতার
চাঞচলয
ভঙগীতে
সযালাইন
অটোমো
সালাত
তাকাচছে
লোভনীয
ঘনিষঠতা
রেসটরেনটের
ঠাণড
গোপালের
সংখযার
গালিগালা
সিপিডির
টেকসাস
দযালঠাকর
ডবিযে
আমদানিতে
সঙগত
সঙগীত
বটতলা
উদভাবনী
পাটকলে
বিলেতে
গাযিতে
ফাইবার
আলামিনের
কলোনি
মাপের
দকষিণাঞচলীয
খামারিরা
ফাকির
সতরীলোকটি
সভাষিণীর
অযালবামের
উদদীপনা
সারিযাকান
চৌদদগরাম
পযাকেজের
হারামজাদ
জিদানের
রাজাকারের
আনতরিকতার
এডিবি
জিলহজ
সমপকততা
মাদরিদে
সতমভ
অঙগরাজযে
সনিগধার
বালিযাডাঙগী
টরযাফোরডে
নাইজেরিযা
সারকলার
মঠোয
আগারগাওযে
পরকাশন
অপবযবহারের
জেরজালেমে
ইমানযেল
চেকপোসটে
মঈনল
ইনডাসটরির
গামছাটা
উপপরিদরশক
ভারসামযহীন
শাহজাদপরে
কেবিনের
মেলবোরনে
লারভা
শমশানে
বাটিটা
শাসতরীয
নালিতাবাড
কাকরাইলে
ডিঙি
লাহোরে
আযনার
লীলাভ
ফলোরিডায
টযরিসট
টিসিবি
সেনানিবাসে
ঝটপট
কাপাসিযা
রেফারেনস
মরককো
শীঘরই
ইপিজেড
ঘরাণ
পোলাও
পনরদধারের
বেলকচি
বিটমিন
লাদাখ
বাঘাইছডিতে
পরকোপে
পরসাধনী
সচিকিৎসার
ইসতামবলে
ধডফড
তাচছিলয
জলিযান
থরিলার
তাণডব
বিটিআরসি
কাশিযানী
ভরাডবি
খিলকষেত
##খাদয
কীরতনখোলা
##াসামগরী
হেমাযেত
তানজিম
ঘমানোর
গতরাতে
সোনাইমডী
অযাডিলেড
রাঘববো
জিনদাবাজার
চিশতী
মৌচাক
পরোফাইল
থেইকা
ঈদিপাস
ভিকারননি
মহাসাগরীয
##সাপেকষে
করসফায
কলমবিযা
চরভদরাসন
দৌহিতর
মধকৈটভারে
জনসবারথে
লেভারকজেন
অতযাবশযকীয
হাতছানি
বকষরোপণ
আঙগিকে
বানোযাট
রমরমা
অসহিষণ
নামিদামি
অবিসমরণীয
অপরাজেয
অরি
অংকের
আকি
ইমদ
ইকো
উপরি
ওআইসি
কযর
কাডিযা
খোপ
খটিযে
গনড
চাবির
ছন
ছাযানট
জস
ঝঞ
তখ
তানোর
থাইর
দযারে
ধতি
নজি
পেকে
পীত
পোপ
পাপন
ফোনা
ফলার
ফিসট
মিক
মটর
মিতা
মিনা
মযারি
যমের
রবার
রাকস
রাকিবের
লবি
লরি
লগে
লাকী
লণঠন
শষে
শইতে
শইযে
সতি
সতো
সৰব
হনী
##যরে
##নবী
##হানি
##হোল
##হীত
##হদয
##থিতে
##শিত
##ঠায
##ফীর
##কিযা
##কিনা
##লকে
##পিত
##পেলে
##পাইল
##পনিক
##দদের
##মথ
##মাসে
##ইনে
##জোর
##ভাকে
##সাকে
##সতরা
##গজ
##গডি
##ধোলাই
##ণযে
##এলের
##ঝরা
##উলের
##উচচ
##৫০
##ারন
##োকা
করের
পরকে
পরানা
পরাদেশ
পরাসত
পরসিদধ
পরচলন
##বেনা
বিমস
##াসান
##াসতব
##তিবযসত
##িযামিন
##াকশন
একদণড
##াজান
##টিটি
##টিপি
##েশা
বাও
নাতো
##াবিযা
##াবাধ
সেটার
সেবনের
নিৰ
নিহিত
দেডেক
##রেটর
##বাশ
##নিশ
কিসতি
##াপদ
আরসত
সবাম
সবিদ
সবচাইতে
সংবি
জনকলযাণ
নিরসতর
নিরততর
##করসিং
##মনীয
অনরথক
##গরভ
আসলেও
বলরাম
##টেসট
##টেকস
পারছিনা
পারথিব
জানব
জানবেন
পরিশরমে
সরবদ
##মিশে
মেছতা
##মাঠে
রাজউ
কাণ
বযতিবযসত
পরতিঘাত
##াকাটা
কারর
মানিল
মানসমপনন
হইবেন
##াগণ
মধপরে
দরগার
সিবিআই
দিনটিকে
দিছে
হাসিন
আজগর
কোনখানে
##দিযার
##তনতরে
বরকল
পেপে
কিছকষন
উঠেনি
##সবীকার
কেনায
পরেগন
বযাটে
বযাধির
বযাচেল
বযাবহার
##ীবাবর
অরন
অরকষিত
উদভরানত
অবকষয
কহিবার
ইউলপ
আনিযে
##বাদে
বিরলে
বডদের
বডোর
বডগৌসাই
সামস
আইযার
আইএসআই
আইটেম
শিখা
##শিখ
বাসযোগয
বাসাবাডিতে
শেষবারের
অসচেতন
সনমান
মামাকে
সপা
জেড
আশয
বাডল
এমনে
এমএন
আহাসান
##িমায
এবারেও
চারবারের
##বহীন
টরডো
##চছো
বহদদার
##যাপন
আদব
##রণা
হাচি
হাযাৎ
##লাইবার
গণধোলাই
অনযথায
ঘটনাগলো
অপরযোজন
অপরাকল
রেগ
রেহানা
রোহান
চোপড
মযাকরো
করারও
ভিভি
কলষিত
অরথেই
ডাকলেন
বঝিযাছিল
বিরদধেই
বিরদধেও
সাধারণের
সাধারণভাবে
##সরেশ
শনছি
শনবো
কেনদরগলো
উততরোততর
কোরসের
কালর
ফেলায
ভেড
ভেতরের
জামানের
লোকো
বরিজে
অযাসি
অযাওযে
মাহিন
মাহেনদর
গরেপতার
##গরহী
ডিও
ডিঙগ
##বেরা
পদটি
পদচারণা
হাতেখডি
ছোটক
সংগহীত
রেখেছিলাম
বাডিওযালা
নগরকান
কলাউডা
##বিতীয
শাহনেওযাজ
নরজাহান
জনমগত
জনমসথান
বোমার
তলসী
দশটি
কামনার
কনডি
পরাণনাশের
সেনটি
১১৪
১১৩
বদধাকে
হলফন
যোগী
ফলিযে
দকষিণখান
পেযেছিলাম
১২৭
১২৫
হাইসকলের
##শেড
অপপর
জলদি
সংবাদমাধযমে
তলেছিলেন
ফেলিলাম
উলঙগ
বরতমানের
নাটযদ
ডেকো
##দীঘির
লেজিও
নীতিতে
পরণীত
পোসত
কানদ
কানদি
দঃসময
এনাল
##পালকণড
বযাংকক
মাতরাতির
বিষযেই
সটলে
ওযাশ
দিবসটির
রাযপরে
রাযগঞজ
রাযসাহেব
ভলতরটি
শাসিত
শাসতরে
শাসতরের
##আরআই
লালপরে
সপতাহখানেক
কাটান
##তবযসক
বিশববিদযালযগলোর
রেলকরসিং
নিরমাতাদের
উচচমাধয
জিআরপি
সাইকো
খেলাকে
গাডিটি
বিশবাসঘাত
সাজাইযা
ঘমধম
দোষের
পরতযাশার
জবাবটা
##শিলপীদের
পাযতারা
বালচর
শনেচ
হামলাকারীরা
তরণরা
ঐকযজোট
সেদিনই
কমল৷
শকতিতে
মহাখালীর
আতাত
নদীগরভে
সমমেলনকে
কাহিনীর
শরীদে
খরশীদ
কযাশ
পরিকলপনাকারী
ইরার
কলাবকে
কলাবটির
কষণক
ছিপ
ছিটক
যাহাদের
পরদানসহ
দবিজর
##জানডার
সাহেদের
পরষকে
কলকাত
খেযেই
পরবেও
হাটছেন
অধিগরহণের
থামানো
থামিলে
এনেচি
বোঝানো
নাসিক
মাইকে
আধারের
আধযাতম
মেঘলা
গলিসতানে
ভেবেচি
ভেবেছিলেন
টেলিগরা
নিষকাশনের
খারাপের
কমেডি
করোডে
সইডিশ
চরমরোগ
পাসওযারড
পাসপোরটের
যথাসথানে
জমাযেত
##কিছই
ওঠো
ওঠান
শনিযাছি
পরেরণা
বিবাহযোগয
শিবচরে
অনতরায
দৈব
১৯৭৬
পাচারকারীদের
ভোগেন
কযলার
ইনডিযার
বেনিযামিন
সাকষাৎকালে
ফখর
বিশিষটজনরা
চতরদিক
মিলেমিশে
নেতাকরম
রাজলকষমীকে
চাষাবাদ
আখডা
নিরযাতি
আডষট
ইকবালকে
চমকপরদ
রিকসায
ঘাডের
লইব
মজিববরষের
রাঙা
জিতলে
জিততেই
সমপরণরপে
১০০টি
হিফ
আলাদাভাবে
মেরকেল
সংশোধনীর
ইলেভেন
পলিটিক
মরদেহটি
সানজিদা
হাবিবল
##চিনতা
রাধিতে
##তিকরমে
মনিরীযা
জেনেও
পদতলে
হাকিমের
পলেনে
রেসপন
ধারাভাষয
##পীডিত
মোডানো
রিযাদে
বীণ
##কণঠের
ভটানে
গাডিতেই
শিখর
শিখিযা
যগানত
অশরর
অজঞাতসারে
বাসতবাযিত
মাসটারপল
চমপা
মমতার
সপিকারের
অযাপের
পাততাই
৯০০
ডিএসইতে
ফরমযা
বরাদদকত
ভিজতে
হানিফের
উৎসাহে
উৎসাহের
কোলেসটেরল
সংগঠনে
কিরণ
ফরেস
চলিতেছিল
চসিকের
বেকারতব
পরজাতনতরের
ভেতরটা
গোবিনদলালকে
ডোম
হসপিট
ঝরঝর
রদধদবার
##মালয
সনদি
সনদবীপ
ধীরাননদ
এসিড
আশরযের
৪১তম
ঈশবরদীতে
লকষণীয
চরণের
ধনীদের
দবীপপ
নিপীডিত
সোবহানের
তৌহিদল
বিধিমালা
অযাথলেটিকো
চেচিযে
সানতাহার
১৯৬৯
উনমোচিত
অনভতির
দরশনীয
সাধযি
ধোযায
উডোজাহাজের
টপকে
মতিঝিলের
সথলবনদরের
সৈকতের
বৰজেশবরী
টঙগিপাডা
দযামযীর
সেজদা
রেলসটেশনের
দরশনারথীরা
শশবযসতে
৭৮৭
এইটকই
বাসতবিকই
কশারী
অযতন
##িকসড
বিদরোহীরা
রাজাকারদের
এনজিওর
সারজিকযাল
গোছাতে
উললাপাডায
গপতধন
ধামাকা
সবিধাজনক
শাজাহানপর
##ভযতার
বাডাচছে
পরভাতে
১৯৪৭
বখতিযার
সটিভেন
সটযাটাসে
ওযেলফেযার
গরচরণের
অসবিধে
হাপানি
ভটটাচারযয
জেরজালেম
গণপরিবহনের
তাৎপরযপরণ
রসিকতা
বিবরতনে
মোসতফার
লিপসটিক
বিততব
পরোডাকশন
ফিলিপাইন
ভিজিএফের
এনটারপরাইজ
কাটিতেছিল
আংকেল
রাণীনগরে
ফলযাটের
টযাবলেটসহ
পরামাণয
গরাউনড
পরদিপের
অসঙগতি
কবিগরর
মিঠাপকর
চিরিরবনদরে
করণাটক
রেঞজারস
মোরেলগঞজ
কোটিরও
কমপিত
জারনালিসট
মহাপরিকলপনা
ঘেষিযা
রিসোরটে
বেআইনিভাবে
নাবযতা
কষধারত
এইজনযই
ডমরিযা
পরসিকিউটর
সবখানেই
সপনসর
মহাভারত
লেখালেখি
টিজিং
নাইকষযংছডি
সমতিসৌধে
ঝোলানো
হরিদাস
বহিরাগতদের
দেশপরেমিক
নেযামত
শরীবরদী
নযানসি
গরামাঞচলে
কচকাওযাজ
পরিদফতর
সোলাইমান
তাডাহডো
শৈলকপা
ডবলমরিং
মাহাবব
হলফনাম
গরাউনডে
গণসংহতি
সাপেকষে
চনডিকা
গরযাজযেট
মারপিটের
ইজিবাইকের
আতমশদধির
মৌখিক
বেষটন
নিমিতত
জনদরভোগ
নাযকরাজ
বহিঃপরকাশ
বাঙগালা
আলেকজানডার
সেলিবরেটি
কালিদাস
জাকজমকপরণ
চোখাচোখি
ওযেসটারন
বযানডেজ
মহাবযবসথাপক
এনফোরসমেনট
রেজিসটরি
জোনাযেদ
জডসড
ভেষজ
ভিকারননিসা
পরাদেশিক
বযাচেলর
হলফনামা
মাতরাতিরিকত
আধযাতমিক
অপরে
আতল
ইষট
ইঙক
ইমো
উচিৎ
এশা
এপাশ
ওষ
ওভালে
কশার
গডাই
গঙগায
ঘচে
চিতা
চিলি
ছৈ
ছাতার
জোস
ঠকে
ডক
ডবির
তস
ধলেশবর
নট
নখ
পঙ
পবা
পেষ
বম
ববিতা
ভঙগী
মথর
রমন
রোস
রমানা
রযালির
লযান
লটিযে
শলে
শনন
সযানড
সগম
সেশনের
সকরি
সশরী
সষম
হকাটা
►আগামী
##নালি
##রকত
##িদে
##তাজ
##হোর
##হাতের
##বাজের
##ীকরণের
##কণ
##পিসি
##মডি
##ইলা
##জলের
##ষিযা
##ষোড
##সকো
##চান
##চোর
##গিযে
##গডে
##গিযাছে
##অত
##অপ
##ধিতে
##ধনী
##ছই
##খযায
##ংকে
##ঝির
##ঘেষ
##োম
##ানগতিক
পরষে
পরদীপত
##বেট
বিউ
বিলাই
##িযাত
##াকালের
একন
এককোণে
##েশোরে
নাডি
##াদারের
আমিনা
সমতান
##নাশ
##াবরত
##াবাবর
সেমিতে
সেহেত
সেজনযে
##কষনে
##ঙগো
##বাৰ
##াপার
গতানগতিক
সংঘাতে
জনমদ
পাষণ
##োগানের
মাছে
মাছি
##োনিযা
নিরদয
নেভ
##করী
এইদিকে
##গরতবপরণ
##বিবে
আসবি
আসমান
আসতো
বলছ
বলচে
উপনীত
উপসাগর
পারসেল
পারিতেছিল
জানিল
জানতম
জানতো
সাগ
পরিপনথী
##মিডিযে
##ধানের
কালাই
##জনমের
বযতয
##াকাঙ
##ডিকেটেড
কারডিও
মানচিতর
##নদনের
কেচো
বেটি
বেমান
##তারে
দরজি
##পিলে
##পিণড
দিনটির
তোডে
##সেফের
হাসন
আজান
##তনগর
কোষঠ
কোচি
##সততার
পেযার
মনন
মনোজ
একটিও
ঘটনাই
##ীনগরের
কেনিযার
করিলেও
গোছা
সমযটক
সমযসচি
মিঞা
বিভাজন
##ারাও
অরবিনদ
উদবতত
উদভট
অবজার
অবনতির
##ানাশক
আনিকাকে
ধরবে
ধরবেন
বিরতিহীন
এলাচ
বডদিদির
সামরথ
আইচ
আইএফ
শিষটা
বাসদেব
তিনগণ
সনির
সনসান
সনমখের
##লপিন
ঢাকাকে
সপিনিং
পডানো
অভিযোগও
নযনে
আশানরপ
দলবল
মারটিন
বাডেনি
আহলে
রাখেনি
##ারেটর
##দেহের
বনধনে
টরনে
##মদরে
বহিতে
ছাতি
আপনারে
গণডি
গণযোগাযোগ
এসেছ
ফটওভার
১০৩
ছেলেই
রোম
চোঙ
চেযারের
হাতডে
কলির
কলঙকের
অরথো
ডাকিতেছে
এতদর
খেলাম
পাচচি
বঝাইতে
##গেলেন
##পাও
শনব
শনযে
সিটিজেন
পিএ
পিটার
পিটারস
মরবার
মরশিদ
আলোচয
##পারিল
দিযাছি
কালার
ভেডা
ভাববেন
লোকসভায
করিতেছিলাম
টেম
হামজা
নদীব
ছোটলোক
##চচো
সাহসে
##জজায
পৌষের
টিএসসি
নগরজডে
বিপথ
জানালায
##গমনের
সডকগলো
শাহের
শাহিনের
নরক
নরেনের
##াইনস
##াডিযান
দশজন
কামান
নারিকে
হওযাই
চেযেছি
সেনস
তৈল
শিলপনগর
লকষী
পাকাপ
হেমন
ঘরছেন
ঘরদোর
পেযেচে
##াকরিতে
বিষযকে
দটিকে
১২তম
পরবপাডা
আটককত
যবন
জযশরী
আতমনি
আতমজীব
##িনীকে
ফেলব
ফেলিবার
বযকতিতবের
সৌদির
ডেডিকেটেড
সকাই
পারিশরমিক
মধযপর
পরণিমার
পোকার
পোলিং
ভোটগরহণের
গহাযন
কানাডিযান
মানবজাতির
বহসপতিবারের
গিযাই
জাহানের
জোযারে
জোসেফ
খেললেও
বযাংকগলোকে
বধবারের
##ামাটা
ওযারক
সটাম
বাডিতেও
ওযাদদ
সবাধীনতাবির
রাযমশাই
নিতেন
বযাপত
লোপে
##চলিযা
পলওযা
ভলতা
শাফিন
উইকিল
লালচে
কাটল
##ধারীরা
খোদা
সমাজবিজঞান
উচচপর
বানদাকে
বযবসথাকে
চোখেমখে
১৬২
দঃখীর
শোযেব
অনযাযভাবে
ঘমাই
ঘমাইতে
শতকে
দোতলা
আললাহকে
বিলিযে
পরকলপগলো
শভাক
##শারট
চলচচিতরটির
কযামবরিজ
ভালোবাসো
কাউনট
বযবহারকারী
বকলের
বালখালী
শবদটির
মাসেরও
সপরধা
সপরশে
বাদীর
ইনটারভিউ
ইনটারমিডিযে
মহাশ
##এফসি
কণঠিত
হযাক
আলাপন
হোমনায
খরব
জোরেশোরে
অনিযনতরিত
##কোথাও
ফিওর
পরবেশে
পরদানকারী
কমারের
গলাটা
##গোবিনদ
ঠাকরঝি
উনমখ
টেনিসে
গবেষকদের
মজত
সহযোগীদের
সাবমের
ইংলিশদের
মেঘালয
সরেশকে
খলেছেন
নিষকতি
অঙগলি
বসতত
বসতভিটা
মহিলাটি
৩৫টি
সইং
সইডেনের
আসিবেন
বিধাতা
বাঙলা
লিখেছিলেন
ইহারও
##টাকেও
সাদামাটা
বাজান
বাজনা
বাজিতে
কাঠগডায
গাযেবি
এলএন
শীলা
##ফরনট
দেডটায
##পোডা
হিসাবর
রাসতাটা
ভাসাইযা
১৯৭৯
সারভিসে
লাগেজ
সাংগঠনিকভাবে
হরিমতি
লকষযেই
অরথনৈতিকভাবে
দাযেরের
পাইযাছি
আমিনর
সবেগে
উপদেষট
মসললির
অরথনীতিকে
আডতে
মঞচেন
ওসির
আডাইটায
বেধেছেন
কবজি
মেজবাহ
পরতীকষার
ষোডশ
মিডিযাকে
অসহযোগ
ফাটা
পতাক
রিকো
আশরযণ
মাহববে
খলনাযক
কষমতাসীনরা
ফোরবস
লাইনস
লাইনসে
##একজন
চকচক
রসলপর
পাহাডধ
চালাকি
গজবের
ঘনবসতি
অবিভকত
হসতকষেপের
দমডে
অপহরণকারী
মেরিনার
মেলাতে
আগনেয
সানধয
অলিখিত
ইমামের
ঢকেছে
হদযনতরের
পেরো
উভযকে
মিনিটেই
হিসাবের
পরিতী
ভাবিযাছিল
মঞজরল
ডাকাতরা
পরতিরোধক
##কাঠী
পরযোজনীযতা
দেহটা
১৯৮৩
সবীকতির
বজরপাত
সিলভা
অষটাদ
পরতযেকটা
##এইচএস
সাযমা
মেহমেদের
সপরশকাতর
কযেদি
কযাসিনোকান
##টরিযার
বেগনি
নিরীকষার
খোকনের
অযালার
অযালারজি
কিরগিজ
ফরেসট
সবভাবতঃ
সটরোকের
হিজাব
সংযোগের
ঠাকরম
গরনথের
পষঠার
দাদির
ডিসিপল
খামকা
শরিকদের
ইরানকে
সঞচযের
শরেষঠতব
গদামের
দাগনভ
ধীরগতিতে
ভাইযাকে
নযাপলটন
৭১তম
ঈশবরদী
দেরী
সবযংকরিয
গণসংযোগে
নবাবগঞজে
আলিফ
ডিসক
হাদিসের
ডবিযা
অরথাযনের
খজিতে
জযোতির
তাগাদা
টরলারে
তৌকীর
কঞজনাথ
ইভান
ডাইরে
##যনিরভর
কসমেটিক
আমানতের
ধোলাই
শাহজাহানপর
তলিবার
মেসেঞজারে
সমীকষা
পাগডি
দারিদরযের
বডাইগরামের
পিপিপি
চলিলেন
সিলিনডারের
বাকসবাধীন
ইটভাটায
ঘোডাঘাট
নিকষেপের
তেতলিযায
ঢেউযের
ধাওযার
ধাধানো
জেনেশনে
একেকটা
আবাদি
পরেকষাপট
টাইমলাইনে
সানোযার৷
মরহমার
উললাপাডা
শতাবদীতে
কলারোযা
এগারোটা
টেলিফিলমের
মযাগাজিনের
শবাসকষটে
সাকলযে
##াহাটি
মজলিস
অঙগরাজয
মযরাল
পথচারীর
গরীবের
সমনতই
সথিতিশীলতা
হাপিযে
খিচডি
বোলড
বিডমবনায
সটিযারিং
ঋতপরণা
মাওলা
মিশরিত
মনোভাবের
কানাইঘাট
হেলিকপটারে
##ফাযারে
পরজেকটের
সটযানডারডস
মোকাববির
রকিবল
নাডাচাডা
পিটনি
হাতিরঝিলের
ডিভিশনের
কাকরাইল
মেডেল
##নিবেশিক
সবেচছাশরমে
বাযোটেক
কযালিফোরনিযা
আপনাকেই
মনোযারা
দেবিদবারে
বিশরামের
বিজযনগর
পরিতরাণের
কাঙাল
খলিলর
##বামাতরই
সমঝোতায
পাডাগীযের
জেকেজি
বালযবিবাহ
অনিচছক
কাতালানরা
অযানডরযেড
করদাতাদের
বোষটম
পরমীলা
কেনদরবিনদতে
নজরদারিতে
রাকষসী
নিশচপ
ডেমরায
নভোএ
টাসকফোরস
কিতাব
লাজক
কোসটারিকার
বাহরাইন
সফটওযযার
পারবতযাঞচলে
কথাবারতার
রাশেদল
আলফাডাঙগা
আইসলযানড
মারামারির
সমপরসারিত
অাগে
সতেরো
গাফিলতি
##ামনতরীর
চযনিকা
বঞচনা
ইনফেকশন
পিএইচডি
সাজসজজা
রযাংকিং
ধনকবের
অনতৰহিত
পললবীতে
লৌহজং
পরটোকল
ওযাহেদ
তকমা
মাযাবতী
রাওযালপিন
এমদাদল
হাইকমানড
সমনসতই
চককোততি
নানিযারচর
নাভিশবাস
পরতযাবরতনের
কারসাজি
ছোটফপ
হোযাইকয
জসীম
নিরিবিলি
##চাঞচলয
আওরঙগজে
ধবনিত
বিযানীবাজার
চিরপরতিদবনদবী
গালিগালাজ
লীলাভমি
রাজউকের
নাটযদলের
ওঠানামা
ধলেশবরী
►আগামীকালের
বযতযয
আতমজীবনী
সবাধীনতাবিরোধ
অঝ
ইকর
ইযো
উকত
এডাইযা
কলিম
কপাট
কিলিযান
খরি
খনড
খইযে
চটি
চনার
চালে
ছব
ছাতক
জলো
জযনত
জোযা
টগ
টালি
ঠন
ঠায
ডাইন
ডগায
ডবরি
তট
তযা
তীব
তালি
তাকালে
থের
থামে
দোস
দাতের
দদিনে
নগ
নবান
পগ
পোক
বেকে
বেষট
ভীর
ভাসে
মযাল
মীম
যাজ
যগল
যিশ
যমনার
রিনা
রামর
রথী
লেল
লযামপ
লোগো
শনার
সতার
সদিন
সযাল
সগার
সচছল
সশরীরে
৷এই
##নডে
##রতি
##ততব
##তযাগের
##বদর
##শযে
##ফেলে
##ফিকার
##ফযাক
##ডিন
##কব
##কও
##কযে
##লযের
##লজজা
##পালে
##পাসের
##দযে
##মধয
##মণের
##জক
##সষট
##চিনি
##চিকিৎস
##গৰ
##অপরাধ
##আসিল
##আললাহ
##খায
##ঢের
##ঢোল
##ঢালা
##৮তম
##¤œ
##োষ
##োদের
##োহন
##ানড
##যাতে
করলা
করাল
করযের
##ছেলের
##লাষ
##লাদের
##াযণের
বিংশ
বিতাডিত
##তরঙগ
##তিযাক
##াইস
##িযেনট
##াকডির
##াকীরণ
একভাবে
একদা
##েনডের
বাবস
নাঃ
নাযেব
##াতীত
##নেসা
সমীর
সমকাল
সমাপন
সমাগত
সমাবরত
হযেছ
##াবলে
##াবশেষ
নিভে
নিযত
##ঙগম
##লিকে
##নিষ
আরনত
আরটিভি
তারলয
সংযম
সংবেদন
জনকের
জনশনয
জনবানধব
##োরধব
মালাই
মাযায
নেহা
এইটাই
এইবলিযা
এইজনযেই
অনাদ
অনবাদ
##বিদায
##বিলাস
আসকত
উপগরহ
##দধারে
জানালে
জানাবো
জানালেও
সাযেন
##মানডর
##রিকে
রাধা
রাফির
বাংলাকে
দেখছিলাম
দেখলম
দেখাদেখ
##ডিপির
গরদ
কারেনট
মানয
##নদদিন
বেত
বেওযার
দরহ
দরভেদয
আগসতক
সিথি
মহোৎসব
মোটে
মোডা
কথা৷
##সেবায
নামও
নামলে
নামায
নামানো
আপকে
আপলোড
##ষঠীকে
##জেই
কোনপরকার
##ঙগেলা
বিশবাসে
বিশবনাথে
##তনির
বরণে
##নারাযণ
কোপ
অভিষিকত
অভিবাদন
মনটাকে
##ীগলো
##ীগহিণী
কষটি
কষমার
কষণঠ
থাকিস
##ভাতে
চললে
কেনে
তাহারাই
ভারোতত
মখিযে
গোমেজ
অবতরণের
লাঘ
কাজি
কাজির
ইসপাত
আনল
আনিযাছে
হইযাউঠিল
ধরত
শিমর
শিযরে
বাসসথান
শেষদিকে
অসপ
তিনদিনের
সননাত
জেডিসি
জেসমিন
পডাই
নযসত
দলবেধে
মারট
ইসলামসহ
##সহিত
আহর
##িমকত
রাখছি
রাখিলেন
##টকায
লাগত
চারটে
##তিকার
টরন
ইনশা
##চছবি
ফিরব
আদান
পরাচয
হাটর
গণি
গণাগণ
##যাযনের
বারিক
বারডেম
বিষাদ
অপরকাশ
##সটপ
মযাজিক
হোসটেলে
##োলির
ডাকলে
ডাকবে
এতগলি
খৌ
খেতের
দেখাশ
পাচটায
শিশপতর
বাহক
পরশবাস
##সরোত
পাঠের
পিচচি
কোরিযান
##পারস
চলেছি
ভেসতে
জামাক
জামাইযের
##মযানের
##বযসক
সদরশন
ভরত
আইনপরণে
ছোটদের
ছোটজাত
সাহারা
কযেকজনের
কলাপাডা
জানাবে
খবরN
দাঙগা
সডকপথে
জনমায
জনমিল
জনমজযনতী
তলানিতে
বনদনাকে
কামিল
কনযাসন
##যমলক
তৈযব
যাবেই
যাইবেন
দেখেচ
পাকের
উৎকর
ফলহযাম
ওরকম
পাননা
১২২
১২৪
পরশনটি
বিমানবাহিনী
##সনত
রাষটরকে
রাষটরপকষ
লেখে
লেখিকা
##তাহাদের
##তাহারা
উলফস
##োভন
অতিমাতরায
সৌদ
দীঘি
কারণও
পরিসীমা
জিজঞাসাকরি
সারাটা
সীমার
##টাইতে
ছবিটা
গহরের
গহকরমীর
কানায
ঢাকনা
মজিবের
লইযাছিল
এনএস
জোফরা
রানওযে
রানীনগর
রংযের
ওযারেনট
সটাইল
হাসানাত
পরযোজনও
ওযাচ
১৪৩
রাযহানের
##গরিকাল
ডাকতারবাবর
লালমোহন
মাথাচাডা
রেলিং
উচচকণঠে
অপরাধীরা
বানান
ধরমপর
গোলক
নিরমাণসহ
সাইবের
জারগেন
পকষানতরে
বিনীত
খেলাটা
পরতিবাদী
১৬তম
সাজানোর
সাজঘরে
দরতবে
১৩২
বকনি
গরতবের
দলীযভাবে
কামালউদদিন
পরিবারকলযাণ
বরাহমণপাডা
ইনটারকন
##বততির
মহাখালীতে
একসপের
হনডি
আনদোলনকে
গলিযে
রযেট
হযাকার
হযাজার
বাসতবতায
ওযেলিং
আযতনের
শরীপরের
বাকিরা
ভিডিওর
হাসপাতালটির
অনিষট
পলাজার
ফিতরে
ফিগার
পঞচদশ
নিকটেই
গাছগলো
ঠাকরমা
খাতির
পরসতাবটি
ডরাম
আননদঘন
এনেছি
নাজমন
নোটিশ
মাইগর
##উদদিনের
মেঘাচছনন
গলিসহ
করোনাকালেও
টেলিগরাম
সংকটকালে
খাদযমনতরী
##োযারড
##ভোজনের
চডই
বসতায
অগরাহয
পারবেনা
পেছানোর
বঝতেও
শহরকে
চাকরিজীবী
সোহেলের
আনিছর
রামপর
রামপাল
কাঠমানডর
পরেরিত
পরেরদিন
পরযকতিতে
দবারাই
মাতম
##বিদযা
জিনিসটি
ফাসানোর
শিবপরে
অনতরভকতির
কটমব
ঢকছে
ঢকলো
দিদিমণি
চিনতাভাবনা
পবিতরতা
##িকরিযা
পযাকেটে
সবেমাতর
বরণবাদী
কানেও
আডং
সসথতা
বিচারকাজ
আসাদল
ভকতের
কষমতাযনে
বাযর
২৯টি
##বলিলাম
সংরকষণে
মহাপরিচালকের
মিনির
ছিনতাইকারীকে
অভাবী
অভাবিত
করীডাঙগনের
বাগমার
চকলেট
কেজিপরতি
পৌছানো
দমকা
আরজেনটিনাকে
গোপনীয
বাচচাকে
ইলেভ
ইলেকশন
কৌচার
খাইনে
##শনারি
##গলাডবাখ
টিকিটে
দেবেনদর
কবরী
পাখিদের
ছোকরা
১৯৯৫
রাধিকা
দযালের
দযাখো
মিলিকে
ভদরমহিলা
জেনেভায
হাতিযায
বাসতবাযনসহ
পলেগ
অকষত
পীরগঞজে
কারাভোগের
পঞচমবারের
শভরর
রইলে
অটোরিকশায
অনতপত
তফান
মিলনকে
মিলনমেলায
শযামাস
পরদিনই
ইউএনএইচসি
বেনাপোলের
পাডিল
নিমজজিত
সরেনদরনাথের
সাযরার
ইউএসএ
পজিবাজার
ভিজিযে
শালকে
চেহারাটা
আইসিজে
নযাপাডা
মযনাদ
শাহাদাৎ
সচকের
আগরতলা
হাডড
পরতযষে
পরবাঞচল
দরশনা
অরধেকের
##থেরাপি
উচছবাসে
বাচচাটা
নাগাল
অমানষিক
টরানসফরমার
ভাবিতেছিলাম
লঞচঘাট
মোতাযেনের
৫৭টি
তাসলিমা
লোভী
বিলপতপরায
শাবনর
পেটানোর
নাসিমের
কযাসিনোবিরোধী
সকলছাতরসহ
অরণীকে
##বাসেডর
কামরন
তাগিদে
সবারথেই
ছোযাচে
##ঠাকরন
পতনীতলা
সখেই
সিডিএ
কমপিউটারের
আগমনী
উখিযায
কলোনিতে
ধোকা
তলিতেই
খালাতো
মোহনগঞজ
ফাটিযে
সমীচীন
মিলাদননবী
উদদীপনার
মদরায
পষপমালয
অরপণের
অবকাঠামোগত
মনোহরগঞজ
জানিযাও
পোলযানড
অনপরবেশের
গোলডকাপের
টাইমসের
নিরবিকার
গরহণযোগযতা
শবেত
শবেতা
রাকিবকে
সৌভাগযবান
পামপের
লেবাননে
লাববাইক
ডিভোরসি
পরলোভনে
অধীনসথ
দিঘির
মাজারের
ভলিবল
অধোবদ
##মণডলীর
করোধের
##জগৎ
কাপালিকের
ফারমেসিতে
ফালগন
সমাগমে
ইমারত
অনিরাপদ
ইউকরেন
বানধবীর
থারটি
সকরিন
নিবেদনের
পিতামহ
পিতামাতার
ভৌগোল
কাচাবাজারে
মকসদপর
##াগাছ
জানাজায
দাফনে
ভিজিএফ
সবেচছাচার
আংটি
শোরগোল
লীলা
কেনদযা
অপরিকলপিতভাবে
গরাফ
শিউরে
ফিসফিসিযে
কাওছার
অতযকতি
গচছিত
পরাসাদ
সমাজসেবী
মিঠাপকরে
দোলন
এমএজি
সগনধি
কলেজছাতরীর
পরভাবশালীরা
টকটকে
জনসমরথ
বরধমান
রকতকষরণ
চিটাগং
নওযাব
সেকেনডে
হজযাতরীদের
উইমেনস
শরেণিককষে
উসকানিমলক
কোকিলের
অরাজকতা
নজরদারির
ডেমরার
বৈচিতরযময
গোমসতাপর
মাদকসেবী
রকষণাবেকষণ
আগৈলঝাডা
ঘোরাঘরি
টেলিকম
বিচকষণ
শরাদধ
ইংরাজি
অাপনার
গণডগোল
উততরবঙগের
লরডসে
নসিমন
সরযোদয
আইএমএফ
চারিদিক
চৌকাঠের
হালিমা
টেলিছবি
পযাভিলিযন
মৈতরেযী
সটাইলে
গোসলের
বৈষমযের
যোগসাজশে
শরণখোলায
হটটগোল
নিমনাঞচল
সাযেদাবাদ
বোমবাই
কারলোস
বিভীষিক
মহারাষটরের
সবাচছনদয
লিকেজ
গৌরনদীতে
রিলিজ
ভিলিযার
অপদারথ
ফাতিমা
সেনটমারটিন
পেনসিলভেনিযা
তামাননা
ভগনিপতি
যবসমাজ
গরীষমের
ফরযাঞচাইজি
অযৌকতিক
সযাবিন
পরমততা
সবাতাস
দরগোৎসব
রাঘববোযাল
অপরযোজনীয
রেগলেট
উচচমাধযমিক
বেমানান
চোঙদার
মঞচেনগলাডবাখ
ঘনবসতিপরণ
ইনটারকনটিন
অরে
অতন
অমক
আকে
আচছ
আবরণ
ইভা
উমর
উডাইযা
ঊন
এটিতে
এগরিকাল
ঐশী
ওজনে
ওভাল
কডাই
কচক
খনে
খবি
খজি
খোস
গহতযাগ
চাস
ছার
ঝিকর
টলিতে
ডগ
ডোর
তিব
তিলার
থি
থমাস
দলপ
নচে
নফল
নটিং
নহেন
পই
ফলি
ফণীর
ফরিদর
ভখ
ভের
ভবা
ভযাপ
ভকতির
মফ
রবে
রেষ
রলের
রপাত
রীত
লভ
লপত
লঞচে
শেন
শরা
শশি
শশা
সকেল
সজিব
হোর
হবহ
হঙকার
হেনা
##রিক
##রোধে
##হালী
##বদের
##বতার
##বিনে
##বিকা
##বশতঃ
##থক
##টাস
##টটা
##টানো
##শাযী
##শংক
##ীস
##ফাকল
##ডাল
##ডেনে
##কিম
##কমল
##লতে
##পটা
##পনিবেশিক
##দটি
##দদর
##দশা
##মহার
##জাই
##ভিনন
##ভিনে
##চত
##চছিলাম
##গঙগা
##অধ
##অনত
##ৰত
##আপে
##ঞী
##ছাড
##ঙকারে
##ঃশবাস
করনদন
পরবস
পরাইযা
পরকালে
পরহার
পরসথানের
##লাও
বিযন
বিদা
বিকেলের
##িলত
একতা
এককের
##টিঙগেল
বাকে
বাদর
বাধি
##পরিত
##পরারথ
নাযেক
##াদিযা
##াতাম
আমলি
সমসবরে
সেটক
নিবো
নিটল
নিসপ
নি¤œ
##রেই
##দেরও
##াপট
আরদ
আরজে
আরমেন
আরএফএল
তারাব
সবাস
সংকল
জনবলের
পাউনড
##ওযাই
##করার
এইড
এইটি
অনিনদ
অনসার
##বিএন
##বিএম
বলগনা
উপমা
উপাতত
##িনিধিতব
সাথ
বলেছ
বলেছিলম
পরিশর
পরিশেষে
##মিশন
##মানয
##মাট
রাফিযা
##লামের
বিশঙখল
পরতিতে
অভির
##ডিআর
শরীনগর
শরবণ
দিযেচ
##াগাদি
দরার
দরিযা
দরশনে
আগযের
দিনটিতে
হাসনা
আপডেট
কোনোকি
বিশবম
বিশববাসীকে
বিশবকবি
##সিবি
##েখে
বরড
বরযাতরী
##মীন
অভিয
অভিষ
অভিপরা
##সতানের
পেই
মনী
মনঃ
মনসির
মনগডা
দইজনের
##ভাষ
##ভাষী
##ভাণডার
##িকষা
উঠত
উঠব
উঠতি
চলছেন
ভারাকরানত
পরেসার
পরেকষিতে
পরৌঢ
##িজম
করিমিন
গোলপ
গোতরের
গোডায
গোসবামী
বযাঙের
মিশা
উদী
উদদীপত
অবন
কাজিন
মনেমনে
ছিলোনা
##জিযান
##জিমা
আনিযাছিল
ধরতেই
সামার
সেইসব
কমায
শিশি
শিবানী
শিলাব
বাসদের
বাসাবাডি
অসথ
অসটিও
তিনটার
সনদের
সহকারে
সহকরমীদের
অধর
মামনি
জেটিতে
পডান
নযই
নযজনকে
বলিলেই
মারি
মারলে
ইসলামাবাদ
এমসি
বসবেন
বসিযেছে
আগেকার
##িমেনট
রাখিস
রাখিবে
বছরখানেক
হতাম
গরামবাংলার
পরথমটি
##ংশয
##ংশনে
চারল
##তিকালে
বিকশিত
ইনডে
ইনফো
টাকা৷
টাকাগলো
নাইটিঙগেল
ফিরলে
ফিরলেও
ফিরাইল
আদিল
##লাইজ
##লাইনার
বারসার
ফটিকের
##কলিন
অনযথা
রেম
রেসি
রেসট
রোদন
চোটে
ইউনিটি
ইউনিটিতে
ভিলে
হারাই
দেখালেন
পাচক
পাচদিন
হোসেনপরে
শিশকাল
শিশবিষযক
বঝাতে
গিযেছিলে
পরশর
পরশংসার
শনাইযা
বলিযাও
##গাঢ
পিপ
কালির
কালপনিক
উঠেচে
সারাদেশ
লোকগলো
অযাজমা
করিতেলাগিল
সথানটি
রেখায
##বীপের
বযাংকারস
পদদল
পদশবদ
আইনজঞ
##শাচিক
ছোটবোন
তেডে
##কসিক
রেখেচে
টিএস
সমমতির
জানাচছে
সিনেটের
শাহান
নরওযে
অংশই
দিলারা
রিডিং
রিলেশন
তলছেন
তলদেশে
বনদি
সিরিস
১১১
তৈমর
উপজেলাকে
চাইবেন
পাকিযে
##মলযে
আবছা
##এমএ
ঘরটায
সাথেও
##োজার
১২০০
পরবশরত
সাতদিন
অপসার
অপছনদ
অপবযয
পরশনফাস
জযশ
জলফিকার
আটটার
রাষটরপকষে
ফেরেশ
##চরযের
উপলবধ
দবিতীযার
নববধ
করিকেটপরেমীদের
ছযবার
ফরহাদের
সীতার
বিজযে
##খানিতে
##জীবাননদ
গিযাছিলাম
জাহিদর
ঢাকামখী
এনআইডি
জোডায
##মখো
খেলো
পাইলেই
রংধন
বযাংককের
আযোজকরা
সটকে
বইমেলার
সবাধীনভাবে
##কমলা
রাযপরায
শীরষনেতা
বযাপিযা
মেযরকে
##মবারগ
পরকীযার
ফারমের
ফারনান
চিনিযা
তরজন
তরযো
উইনড
লালিত
কাটেন
১৮৪
নিরমলেন
নিরমাতার
বানায
গোলশনয
##যেনট
সংসথাকে
##যাগো
অচিন
ভাঙলো
কাদায
চরচার
পরভাবের
বকসের
##তলীর
বিকষোভকারী
সেদিনকার
এলাকাকে
সনধযাবেলায
শকতিধর
লাইসেন
১৭৫
গলজার
পনরদধারে
হযাওযে
হযাওযের
শারটের
মযানফযাক
তাকাই
দেখিযাছিলাম
কযাচ
কযাডারে
##কোযার
কষণপর
তইও
লিখিযাছে
রকতপাত
সরবোপরি
চিরাযত
##পণযে
হরিন
বষটিপাতের
অধিবাসী
চনদরিমা
সহযোগীকে
সপারভাইজার
নোযেলের
আধিকয
ধরাধরি
ভগিনীর
##ামরশ
পরসততিটা
মকতিযদধকালীন
গারমেনটে
নানন
বযাপারটি
খাদযগদ
অচলাবসথার
জিতেছিলেন
সবাভাবিকের
সততরের
জীবনেও
একাগর
##লোকটি
গডন
সাদমান
সাদশয
সিরিজটি
কালোবাজার
সোনামস
ভবনসহ
ভবনেশবরী
দরেই
চিকিৎসকসহ
শহরেই
গরপপরব
২৭তম
অনতরঙগ
মনদার
রাসতাটি
বোনসহ
জযাডি
ইনিই
ইচছাও
বামপনথি
লজজাকর
কারযকরের
পযাট
আদরশে
আডমবর
আডাইটা
ধারাবাহিকভাবে
বযেজ
##করিবার
কবতর
শীতকাল
জবলিতেছে
মিডিযাম
অশনি
উচতে
কষমতাচযত
সপষটই
বিরোধকে
জডিযেছেন
ভাবেনি
অযাসিসট
ফেসবকসহ
সবরণজযনতী
বরষবরণ
দেবদা
সমপরণভাবে
রাইফেল
আবদললাহর
আবদললাহপর
আকরো
আকরষণের
পরতিবেদনটি
রাশিদা
মৌসমেই
মাদরাসাছা
মাদরাসাছাতর
পরতিষঠাবারষিকীতে
পরিসথিতিতেও
কাবলে
আজিজের
সাননি
##দোযান
শপথবাকয
সখী৷
দষটমি
মকনদ
কবরসথানের
ছোলা
পালিযেছেন
অসহাযদের
দযাখ
কিনেছে
ভাঙগার
পথিবীটা
পথিবীজডে
ভিকষকের
দশযপট
অকষযের
মাশল
আবরারের
অযানডার
মোডল
রিযালের
চেষটাই
মিজানের
বিডালের
জলাঞজলি
ইলেকটরিকযাল
এডমিরাল
রোজিনা
আবাহনীতে
মাসটারের
বংশধর
ভৈরবে
ইশতিযাক
সরবসতরে
সরবসমম
বসিলে
##হাতির
অনাচার
অনাগত
নিচছিলেন
গিরজায
ডিএনএ
ডিএনসি
কযেকের
৭৫০
করিযেছেন
অরণদা
##কথাটা
রিকশাওযালা
##গাছী
ফজিলত
ফরেমে
বকষবযাধি
হানাহ
শিকলে
ডালিম
সেরাদের
সেরকম
গরনথা
উচছঙখল
৪৭টি
জডেই
ঠেকানোর
আযেশার
দাসীকে
##রাগী
হেফাজত
গদগদ
অটোচালক
রহমতললাহ
ইচছামতো
নেইমারকে
পরযবেকষ
গীতা
আশরার
গণপরতিনিধিতব
মারাতমকভাবে
##ভালবাস
বনযারতদের
আঙলের
বহিরবিশ
চিকিৎসাসেবার
##ধারীদের
আফগানিসতানকে
নিযাজ
নাচোল
জবালাতন
আরামবাগের
খডীমা
কপালকণডলাকে
রাজারবাগ
পোরতো
পলাশবাডী
বজজাত
মহেশখালীর
কযলাখনি
বরেকসিটের
মমিনদের
৫৩তম
টিকতে
নিযমন
নিযতির
সরঞজামসহ
তলিলেন
ডাযাবেটিক
নযাডা
কাপরষ
ওযেবসাইটের
বনযহাতির
গোলাপগঞজ
হতবদধির
উদদীপকটি
ইটভাটার
দীডাইতেই
মনোহরদী
পৈশাচিক
পরজারা
সমবাযমনতরী
বাঙগলা
পাথরে
বডিগঙগার
ধাচের
বারিধারা
উজবেক
বদধিজীবীদের
চডাও
আনতরিকতা
তাতী
তাতকষণিক
রেশমা
ভযালেনট
ধোযাশা
সরবসবানত
মণডলের
গোছের
মসতিষকে
ধামরাইযের
লেবানন
ডিভোরসের
বরবরোচিত
একদফা
গাজীর
নৈরাজযের
হাপাইতে
জযামাইকা
কেশবপর
মাধরী
বিদবেষের
মনাফার
ঈদগাহে
ঘমোও
বরকতময
লসকর
হাসেম
রনজি
অভযারণয
শানতন
গোদাগাড
হতভাগী
মাঝেমধযেই
হরিশংকর
ফিলিপাইনে
চরাঞচল
বিকেএমইএ
পরথিতয
পাউডার
দইজনেই
রপনগর
##াবানধব
অহরনিশি
পজোর
তেহরিক
নৌকাডবিতে
চবিযে
মকদদমার
টিসিবির
মধযাহন
দিগনতে
সেনানিবাসের
কাওসার
মোমেনা
কাসটমসের
অণর
বিবরতকর
কাপাসিযায
##দাডাইযা
রেফারির
ফযাকটরিতে
নিরদদেশ
জাদকরী
রাজমিসতরির
উৎপততিসথল
আহামরি
চাইনিজ
ফরেনডস
লাইবরেরির
কাটিবে
পশচাতে
বানিযাচং
এজাহারভকত
##কাসতের
এসএসসির
আতমরকষার
পলযাটফরমে
সষটিকরতা
রেজওযানল
সচিকিৎসা
রিমোট
শৌখিন
তাচছিলযের
হাইকোরট
ফিউচার
গাদাগাদি
চেরী
বরযাকের
টাসকফোরসের
গযারান
ঝনঝন
সসংগঠিত
অনপরেরণা
পারসোনাল
আদমদীঘি
এশবরয
নদীভাঙন
বাঙালীর
ধামইরহাট
বিঘœ
অযানটিবাযোটিক
লেখাপডার
কদাচিৎ
ফেসটিভযাল
সজানগর
শোলাকিযা
খরীষটান
পরীতিমযাচ
এযারওযেজের
জাবালে
শাইখ
আসতানায
রাউজানে
অযাসাঞজ
রোমাঞচকর
এনটারটেইনমেনট
মযারাথন
সেনাসদসয
করীডাবিদরা
অরগানাইজেশন
জঞজাল
পষটিকর
সমবেদনা
বেদনাদাযক
কনডাকটর
পনরবাসনের
মোসতাফিজার
হাতরাসিংহে
বেতাগী
সনতাবনা
সহাবসথান
শরটফিলম
ধামাচাপা
শবেকদর
কাযেতপাডা
পাডাগীযে
ওযারলডোমিটারের
ঘাবডে
ইনফরমেশন
দরৌপদী
পরেমীযগলের
ইউনাইটেডের
খোপায
থাইরযেড
হনীলা
বিবাহযোগযদের
বীণাপা
যগানতকারী
পেষমন
টেমপার
বিপথগামী
নারিকেলের
সাবমেরিন
এলএনজি
মেরিনারস
কযাসিনোকানডে
হোযাইকযং
দেখাদেখি
বেওযারিশ
কষণঠাকর
রেগলেটরি
তিলারধ
রীতিনী
লভযাংশ
মযানফযাকচার
সোনামসজিদ
সরবসমমতিকরমে
অাল
অপি
অখণড
আভ
আতো
আলাল
আপরাণ
আঙগলে
ইরি
ইযোগ
ঈগল
এগরো
কমা
কাবি
কসর
কশীল
কশিযার
গগ
গঢ
গাজার
গোনা
ঘটিত
ঘিওর
ছরির
ছাযান
জরে
জেনি
জযানত
টযারি
ডের
ডাস
ডানস
ঢং
ঢিল
তজ
তনর
তফাত
থামা
দন
দযের
দলেই
দদিনের
দষকত
দাহয
পালের
ফজর
বচছ
ভৰ
ভজন
ভসম
ভপা
মারণ
যী
যজঞ
যথে
যগান
যখনি
রযাম
রেশন
রচয
রটিযে
লমপ
লটারি
লটারির
শবাশ
সাড
সাযী
সফিকল
সকেলে
হটস
৷তাহার
##যমান
##যলার
##রকে
##িটি
##তলি
##তৎপর
##হনে
##বটে
##বালি
##বযাক
##ীচ
##ফফার
##ডবে
##ডানো
##ককার
##কাজের
##কবলিত
##পলা
##পিক
##দিত
##ইযের
##জজে
##ভিযা
##ভতের
##ভীরা
##ভকতরা
##সড
##সই
##সখ
##সকা
##সানের
##সানা
##সাহেবের
##চটে
##চছিলো
##চমবন
##গচছ
##গাযের
##অতি
##অশর
##ধনের
##ধাবি
##আছেন
##ণর
##ৈরের
##ঢাকা
##ঝা
##১৫
##৯তম
##ঘটে
##৮২
##ানদার
##যাকট
##যাকস
##যাতরীর
পরসে
পরাতে
##ালিন
##ালিকায
##িকোতে
##ামবর
##ামযী
##বেশি
বিহীন
বিলাপ
বিটিসি
বিটিভিতে
##াইটস
##িলযানড
একানতে
##টিলা
##টিশন
##টিএফ
বাটন
##পরীতি
নাছি
নাবাল
##াহাড
##াহারের
আমবাগান
সমতল
সেলাম
দেবের
দেউলিযা
আরজ
আরজি
তারিন
সবীয
সবসত
সবাযী
সবসতিতে
পাতরের
নিরপ
নিরগত
নিরজীব
নিরাশ
নিরদলীয
নেতাই
##করতবয
##মনো
অনড
অনগত
অনটন
অনশনের
অনপরাণ
##বিচছিনন
আসকতি
বলছিস
পারসয
পারদরশী
জানিলেন
জানাইতে
পরিযত
সরেন
##মিছি
##রিযারের
মেহন
##মাছ
রাগার
রাজপতর
রাজসভা
কাচি
কাফর
কাঠি
কাফের
দেখবি
যাচচেন
দেশটিকে
দেশগলোয
দেশপরেম
বযথ
পরতিবার
পরতিমার
পরতিসথ
পরতিমনতরীর
গরহা
মানেন
মানবো
শরীব
##াগি
আমি৷
বেতের
দরবসথা
##মেচার
সিটের
সিফাত
##পিটনির
দিন৷
দিচছিলেন
মোনে
নামাতে
নামলেই
আপততির
আজো
আজকেও
##ষঠের
বরেনট
কোলা
##সতকের
##ডাঙগার
মনীর
মনছর
দইশ
এরাই
##মারীর
##িকষণ
উঠন
উঠবো
##োধের
##িজাত
সংসরব
গোট
সমযোপযোগী
মিঞার
মিথিলা
রহিমা
উদবাস
অববাহ
অবাসতব
ছিলই
ধরছেন
বডরা
সামন
সেইজনয
আইও
আইযের
আইইউ
কমবলের
শিখার
শিযরের
বেশযা
শেষকত
অসটরিযার
কোনোমতেই
যায৷
সপেয
##কষেতরের
পডচে
পডতাম
পডিতেই
পডেই
এমএস
আহনিক
আহামমদ
রাখচি
##তরেই
গরামটি
পরথমত
পথিকের
চারতলা
বিকতি
##বনধে
বযবসথাই
বনধসহ
টরেলার
##চছিস
##পাতার
ফিরিল
ফিরলো
ফিরতেই
আদার
ছাউনি
##কিশোর
দেওযাসহ
গণপর
গণপিটনির
পরযনতই
ফটনত
অনযসব
##াধয
অপরসতত
ভাবার
##সমাজে
##দারক
কলটা
জেলাকে
জেলাগলোর
শধরে
হারি
পাচবিবি
বঝার
##পাচ
##সরো
শনলেন
কেনদরগলোতে
পাঠশালায
সোণার
পিষে
পিএম
পিংক
পিডিতে
মরগান
ছাতরসংগ
ভেবো
সারকেল
ভাবাই
জামানত
লোকজ
অযামেচার
মাহিরা
কতদিনের
ডিগর
বিদীরণ
##বযবস
##বযবসথায
সদরপরস
ভাইদের
ভরতা
##সাং
সাহরি
সাহাবি
রোগটি
কযেকদিনে
টিআর
টিফিন
গাথা
কলাগাছ
কলাকশ
##তোমাদের
মিলক
শাহরিযারের
ফটবলকে
চাহিতেই
হতযাচেষটার
মালটা
মাঝির
বনদকের
সতযটা
খানজাহান
চেযেছিলে
##যমকত
শনিলেন
শনিমহার
পরারথীই
পরারথীসহ
পরসততিকালে
বদধাশ
চাইব
চাইতেই
চাইবো
হলদের
উৎপল
উৎপনন
উৎফলল
আবাদের
আবধাবি
এসএমই
হেম
হেমনত
##ভেদী
##ভেঞচার
বিষযটির
##গতদের
১২৩
পরবঘোষিত
অপৰব
##সনাত
আতমসবীকত
##পরণোদ
##শযযায
নাটযনির
বেরিযেছে
##দানকারী
লেজ
জীবনমান
জিজঞাসাকর
ফরাজী
ফরোযারড
বিদযতস
পনথায
গহিন
গহকরতা
##সিংযের
ঘণয
জাহির
জোহ
রানাকে
রাননায
পাইযে
করতাবয
বাংলাদেশেই
যতবার
যতনের
ওযাকত
বেলাযেত
শীরষনাযক
মযদানের
##চললিশ
তরকার
তরসত
তরফে
শরেণী
ফেলেছিলাম
কাটাকাটির
খোলে
খোটা
বিশববিদযালযগলো
১৮৫
টাকারও
উচচককষ
উচচরকত
অপরাধবোধ
বাননা
বানভাস
সযোগও
শিকষকতা
বযবসথাও
বিনমর
১৬৫
দঃখই
জমিনে
##ফোরডের
১৩৭
##শিলপীর
সটেটে
বযবহারকারীদের
বকিতে
বালকের
শনেছে
থাকবেই
এলাকাটি
কমলগঞজ
টেসটটি
গলফের
রযেছি
জরডান
হাজরা
ফরিদগঞজ
হোমনা
ছডিযেছেন
কযাফে
বাকসে
অনিমেষ
##কোটের
কষণিকের
ফিকে
রকতবরণ
রকতনাল
অনরগল
নিকিতাকে
মোটাত
ওযানের
সিরাজের
দষটিভঙগি
দষটিগোচর
ডরেনে
আননদবাজার
আননদময
ভেঙেছে
হাটহাজার
অধিষঠিত
চনদরমখীর
সমরথনের
থামিতে
চযাট
জেনারেলের
বোঝবার
হাসিবল
নিষকাশন
ঈদযাতরায
অঙগের
অঙগপরতিষঠান
অধিদপতরের
জরিপের
দোকানদারের
শানতিচ
বিরাজমান
##গলোতেও
জঞানে
বিধবসতের
যাইতেছি
গডল
সাদাসি
সাদললা
শনিযাই
শনিযাছিলাম
রবিনা
কালোবাজারে
ইনটারনযাশন
অগাধ
এফএম
এফডিসি
এফডিসির
ভোররাত
অনতরগত
জারিফ
দাওনি
কটম
কটীর
ভাসা
জযাকলিন
ফটবলারকে
পাচারকালে
ভমিতে
হরিহর
কযরা
ভিননতা
বনধতবপরণ
কনযাশিশ
বনদরনগরী
জটলা
আখডার
মডেলিং
আডমোডা
মখযযের
কারাদণডের
কারাদনডের
টারগেটে
অশানতির
উচছি
নিযনতরণহীন
মনোবল
৩১টি
##তকণঠে
তানজিন
ঝিনক
ঝিনকের
মিননিকে
রমেশকে
পীচেক
বাংলো
করীডাচকর
জনসভার
আশবাবকে
কথারও
রাইখা
গজরাট
ঘনটার
মিসির
আকরষণে
মনতরীরা
অসংলগন
রাহেলার
##করমীকে
খোজার
##হাসিযা
সতরাপর
জেলখানায
সাফিন
মনিটর
রাধিযা
জেনেই
পরিতপতির
সমভাবনাও
##ভারেজ
পলেস
ভীড
অপরিমেয
বাঘাইড
অকষটে
চামড
নবীনাননদ
অযানিম
ডাকাতদের
রমজানকে
বেডাবে
৩৬তম
সনতানেরা
ধবংসয
৩৩তম
জাহাননাম
৪২টি
মিউজিকের
মোলযার
সনেহার
ভাবিবার
অভিমানী
পরাচীনতম
৪৮তম
পিরামি
সরেনদরের
ফরমের
##মবাযে
বৰহম
অনাবত
অনাবশযক
নকশ
শালিসে
হাইকমিশনে
বরাজিলকে
হরেনদরর
ভবানীর
আশীরবাদে
মাহফজা
শতরর
পললীর
পললীব
পালাবে
অভিভাবকের
পিকচার
পিকআপের
##গাছার
পরতিশরতির
আবহাওযাবিদ
শিকড
বেকারতবের
হাসিমখ
##হইযাছিল
##যাশরম
কলিজা
রোনালদোকে
মহললা
ইনদরিয
তথন
কলমবিযার
ঝরনা
##মালিনয
ইউনসের
জভেনটাসে
জঙগির
কোরআনখানি
অযামবাসেডর
ইচছাকত
ঘরণিঝডের
রাববানী
বিলপতির
শাবকের
রিসক
মরতজার
মেতেছে
ইনটারনেটের
চেলসির
জোরেই
মহেনদরের
মহেনদরকে
শাহিনকে
বিনামলযের
কোটচাদ
ডিসপলে
যোগযতার
বটগাছ
বোযালিযা
বোযালমারীতে
বযানডদল
উদভাবনের
পিএসজির
##ফেলিল
লাঠিচারজ
নৈকট
তেজগাওযের
জনমশতবারষিকীর
একসপরেসওযে
অযাথলেটিকসে
বসনতে
নিযমান
১৯৫৬
আশেপাশের
ফেরিঘাটে
খালাসের
হেডকোযার
পদোননতির
মহিতের
লবণের
পিসিবি
মদরণ
সচিতরা
পরহরী
দযাময
মাখানো
চেতনানাশক
মতযদনডের
মোনাজাতে
কলেজছাতরকে
হাযদরাবাদের
##থাকতে
অসনতব
মযানেজমেনটের
আতিথে
মালিবাগে
মতযদণডপরাপত
জীবাণর
কাইফ
কাইযম
অনযমনঙক
অনযমনকক
কামারখনদ
জেএসএস
##মহাশযের
টেলিফিলমে
পাইপলাইনে
কাঠালিযা
জনাব
সরিষ
ডেনমারক
ভবানীপর
লিজা
যদধাপরাধী
জৈব
নডিযায
১৯৩০
বিডমবনার
মঠোফোন
উহাকে
অপারেটিভ
এভিনিউতে
মফিজল
মাওনা
ঋণখেলাপির
পোরটাল
ইনডাসটরিতে
ইমারজিং
বিবরণী
সবিসতারে
##ভিরাম
জনপরতিনিধিদের
হকারদের
দৰতপদে
বিএবি
উদঘাটিত
কনসযলেটে
দীরঘনিঃশবাস
গাইডলাইন
মিডফিল
মিষটানন
তেহরানের
ফলোরিডার
দাবানলের
বেইজিংযে
নদীগলোর
কইনস
দরভাগা
কামরাঙগীরচর
কামরাঙগীরচরে
ছতরভঙগ
বিদযতাযন
করাইসটচারচের
ইশরাত
খতমে
লাদাখের
মাসিহ
কলোজআপ
কাটাইতে
ছদমবেশে
সেকেনডের
গঞটীর
ললাট
ইছামতি
দষকর
শমসের
পরিলিম
নিধনের
সষটিকরতার
পারটনারশিপ
মেসিরা
গহকরতরী
কলমবোয
গাদদা
সাসলো
নাঈমের
টোযেনটিফোরের
পবালী
বেবিচক
ডরিমলাইনার
সেবাদান
কাফনের
এজিএম
নলকপ
অপরাহন
শেরেবাংলানগরে
দেবাশীষ
জনমাষট
মোকদদমা
তাজিকিসতান
বকাঝ
বাথরম
সলটলে
বরাশফাযারে
দেহরকষী
উপাসনাল
শীতারতদের
কলিনডরেস
বোটান
##াতমীয
জৌলস
পাঠযপ
ছাতরাবাস
দঃসবপনের
বরণবাদবিরোধী
চিতলমারী
শিনজো
হনডির
##বিশববিদযাল
পোহালেই
নিকোলাস
সৌহারদযপরণ
দিরাই
শৰীকানত
পরপোজ
পরবরতক
##বাণিজয
গাডিবহরে
বারনিকাট
ডাযনামাইটস
অটিজম
ঘযানঘযান
উইকেটর
ইহসানল
খতিব
ঘিরিযা
বেকসর
নযনাভিরাম
সদাননদর
বোচাগঞজ
ভোজযতে
লযাবরেটরি
আলেকসানডার
জোভান
পরিণীতি
হারামজাদী
সংবিধানে
নগরকানদায
পোসতগোলা
বিততবান
হলফনামায
কশারীগহিণী
##অতযনত
পাষণড
উপসাগরীয
কোষঠকাঠ
উইকিলিকসের
উচচপরযাযের
ফিওরেনট
উপদেষটাম
রিকোযেসট
টগব
সংবেদনশীল
শবেতাঙগ
এগরিকালচার
নচেৎ
অভিষেকে
##কমলাকানত
পরথিতযশা
টযারিফ
ভপাতিত
সাযীদ
অনপরাণিত
সদরপরসারী
বিদযতসপষট
অৰ
অখযাত
অঞজলি
আটি
ইকার
ইতিকা
উগান
এটে
ওজ
ওগলো
ওযেন
ওপাশে
কিযে
কবা
কযেল
কফির
খডের
খাইল
খলিতে
খালার
গোন
গোধ
গঞজে
গডাতে
চণ
চডায
ছযেক
ছোপ
জডায
জগো
ঝোপের
টাল
টডে
টালমা
ঠযা
ডম
ডযানস
ঢি
তকত
থৈ
দড
দধে
ধইরা
নমনার
পটা
পদা
পাপা
পষটির
ফযাট
ফডিং
ফযানট
বদন
বপন
বটিযা
ববলী
ভজ
ভলেও
ভাযের
ভঙগি
মতর
মছিল
মছা
মোনাল
মগডা
রেলে
রবের
রগন
রসতম
রওযানা
লনা
লোন
লচি
লাপাত
শইল
শশীর
শঙখল
সারে
সিনা
সতেজ
সউচচ
হালের
হেরি
##যথ
##যকে
##হপর
##হলো
##হিলেন
##হসয
##হযেছে
##হকষণ
##বযাপত
##থলিক
##টযানট
##শধ
##শনিতে
##ীক
##কসম
##কশনের
##কাহার
##পতে
##দারী
##মতর
##মাইনড
##জমি
##জজন
##ষির
##সাস
##সিত
##চই
##চালের
##গলায
##গাডিতে
##আগে
##খাত
##খিতে
##এপি
##এখানে
##ঝিতে
##৭৭
##ঘের
##ঘিতে
##ঈল
##™ভত
##ারসের
##োভা
##যাসের
করবা
পরকাল
পরবহ
পরজার
##িনহোর
##কেনের
##তেমনি
##িরের
বিযার
বিমখ
বিধে
বিএল
##তরকের
##িযাও
একসট
একখান
একবেলা
##াজীর
বাটিতে
##পরানত
##পরষের
নাবিলা
##াদিদির
করেসট
আমবিযা
সমানে
সমধর
সমদয
##নাগার
##াবনধ
সেস
নিবি
##কষটে
##বাকে
##নিযন
কিমের
কিটস
##াপাডায
আরচ
আরএস
আরডিএ
তারার
তারকের
তারতম
সবজে
সবভাবে
সংকো
পালে
পালায
পাতরীর
মাঙগল
থেকে৷
থেকেছে
নিরসত
নেমন
##করেন
##যানসে
##দরো
অনলিপি
##বিচারের
আসথ
আসসালাম
বলদ
বলবলি
##বরণের
জানাব
জানতেই
সাতরাস
সাথিযা
সরওযার
##লোভ
##লোকদের
##মাগ
রাও
রাধি
রাজপত
বাংলাবাজার
##কালেও
কাণে
কাভার
কাশিযা
দেখালে
দেখিনে
দেখতাম
দেখভাল
##যেরা
কিনছে
কিনলে
কিনিতে
দেশজ
বযঃ
পরতিদান
##তরীক
গরবে
গরিস
গরভাব
কারযে
কারবন
মানলে
মানবের
##াগডি
##বসন
কেযা
বেডার
বেহার
বেচা
বেদম
মধার
মতভেদ
সিজি
সিঅযানড
মহিন
মহসীন
গেডে
দিনার
দিবালা
মোছ
নামলো
আজানের
বিশবযদধে
##দিলেন
বরকে
কোনে
কোলব
মনিকা
মনাইকার
নিরবাচক
##মারির
##মারকের
ঘটিযাছিল
##ভাষা
##িকষণে
উঠতেই
উঠিলে
ভারসিটির
পরেছে
সমযকে
বযাগের
মিশক
লিঃ
লিফট
লিবিযা
##ীবয
##ীবনের
আলমারি
কহিযাছিল
##োকায
##নীতে
সামছ
সামির
সেইটা
আইভি
আইরিন
আইপিও
কমডা
শেষকালে
অসংশযে
তিনে
ভালক
সহনশীল
অধিকত
##লপনীয
শিকষামনতরীর
জেসন
করেনা
##োসট
বলিভিযার
দলিত
মারসেই
মাসকে
মাসদা
বছরকে
লাগলেও
লাগিযাছে
শেখার
শেখাতে
এমনটিই
##দেহে
মতযহার
পথও
পথশিশ
বযবসাযের
##টরিকের
ইনকাম
##চছলে
##চছলতা
##যামের
আদযোপ
সমপদে
সাধিত
গণক
##কলিক
##ভাইরাসের
জীবনা
জীবনী
শহরা
রোহ
রোযা
রোশান
সদসযপদ
##সমাপত
##সমপাদক
চোপ
হাতা
হাতপা
হোসনে
হোসটেল
কলয
কলসম
দিতেপার
ডাকাইযা
ডাকঘর
খাচার
এতোগলো
খেসার
হারটে
পাচচ
##জঞানে
বাহতে
বাহাদ
বাহবা
পরশানতি
##পাথর
শনযের
শনবেন
##গাছে
চাষা
চাচছি
চাঙা
মরশে
মরিতেছে
##ধরিযা
ছাতররাজ
##পারটি
সভাপতিসহ
কালীর
কালিজ
চিবক
উঠেছি
সারবিযান
ভাবক
ভাবের
##ভিট
##ভিতর
##বোজজবল
বিচারহীনতার
মাহির
মাহিনা
ডিএ
বযাংকস
বিদযার
##বযসে
হাতেও
ছোটো
সাহসের
##ালিটি
নিশচল
টিলা
গাও
##বিততের
মিলটন
সডকগলোতে
শাহে
শাহী
করছে৷
বোমবাযে
রিফাতের
তলল
দশের
দশযত
সতযজিৎ
কনটেনট
##যমখ
##সংসারে
সেনার
সেনগপত
যাচছেতাই
##ফাটা
শিলপনগরী
দীরঘকাল
দীরঘসতর
দেখেছিলেন
দেখেছিলাম
হকমে
এসকে
হেক
দকষিণপাডা
ওরিযেনট
জাযে
জাযেজ
পেযেছ
আনতরজাতিকভাবে
##হেড
##হেলা
পানন
##পনথিরা
##শরতিতে
পরবাল
যবতীর
অপচেষটা
অপমতয
##াকষি
##সনধান
রপকথা
##আইসির
বসেছি
ফেরেনি
লেখকরা
দবিতল
বনশরী
ফেলন
শকরবারের
পরসারের
অতিথিরা
বেরোতে
ছাডলে
ছাডলো
সকযান
দীঘির
ফরায
ফরসত
ফরাইযা
খালেদার
চৌধরী৷
নিরদেশনার
ছবিও
ভোটযদধ
আদালতকে
ঘণার
মঙগলবারের
ডাঙগী
ডাযেট
এনডিসি
দেনার
##রথর
বিষযেও
##াটেকে
কিশোরীদের
সটযাম
বেলাব
১৪৫
##লীলা
##ভরভ
পলযা
##আরএফ
চিনিনে
তরকে
তরিনো
তরবারি
লালনের
উদযোগকে
কাটিযাছে
পরীকষারথীরা
ধরষণচেষটার
আরেহ
উচচতার
বানদাদের
নারাযণপর
নিরমাণসামগরী
সাইজের
##হরার
পকষী
সালথায
কাজেও
খেলাঘর
১৬০০
মালিকসহ
##চযতির
দরততার
জমিযা
দোহাজারী
পরতযাশায
ভাঙল
কাদিল
##শিলপীরা
পাযখানা
পাযপথের
বালিকার
অবসথাটা
সংগঠনকে
সপরশিযা
কথাক
চাকমার
উপসথিতির
কমললতার
একসকল
সলঙগায
সলইস
কণঠরোধ
১৭৬
গলফে
যারাই
তাকওযা
ওযেজ
সমমেলনককষে
আফসার
কপণ
কযাথলিক
পলাশে
আরেকজনকে
টাইপের
লিখিলেন
পরবেশপথে
হরদ
##করিযাছে
২২০
ঠাকরন
ঠাকরকে
উনাদের
পরষমানষের
টেনশনে
লেখাটা
শরীরকে
শরীরামপর
চনদরমখী
সমরথকের
থামো
চযাটার
ইহাতেই
নাজাতের
কাউনসিলরের
নোফেল
নাসতিক
বাধিযে
মোকাম
সাবের
সাবরা
মিযানমারকে
খাওযাদা
ভেবেছে
টেকনি
চলিযাছিল
পডিযাছিলাম
সংকটসহ
সিংযের
আকতারজজামান
বসতবাডিতে
অগরযাতরায
পররাষটরমনতরীর
যদধবির
##ছানল
ডিজাই
শহরটি
শহরটির
চাকরিটা
চাকরিপরারথী
পাসতরিত
সোহান
আনিসের
রামদা
রামবাবর
##কিছতেই
পরযকতিপণয
দবারিক
মাতাম
তাকিযেই
হযতোবা
অনষঠানটির
গাযেব
এলডিসি
ফাসিতে
মলযসফ
বযাপারেও
গরপটা
পরানতরে
শিবগঞজের
জারমানরা
##ফেরাত
বিতরণকালে
সনতরাসবাদের
মিথযাবাদী
নিরমিতবয
রেকরডটি
ভমির
সোনাডাঙগা
ভোগে
ভোগের
ইনডিপেন
পরিমাণও
ভিননমত
লেগেছিল
##চকরে
আটকেপডা
আসবেই
চতরদিকে
পাইলস
কানেই
কাপডটা
##শাসতর
সবরাষটরমনতরীর
চাকরটা
টারকি
শবশরম
সমরণকালের
জববারের
মেজদার
পরতীকষায
অশোভন
পিসটি
ফাখ
পতৰ
শাসতিকে
বাযনা
নিমনচাপ
মশাবাহ
ভাডাটে
পাপল
পাপপ
তানহা
লইবে
ছিনতাইকারীদের
ছিনতাইকারীরা
ফোরামে
সিকসারস
বাগদাদের
শকন
পাঠিযেছিলেন
চালাবে
জিতলেন
গলোতে
পৌছিতে
পৌছালে
অভিযকতকে
গৌরবরণ
গৌরবোজজবল
কৌটা
বেলট
যৌথবাহিনী
উততরাঞচলীয
হদযঙগম
জেলখানা
মককার
দাসদাসী
ছোডে
১৯৯৩
মাটিচাপা
ডিএমএস
পরশিকষক
পরশিকষিত
জেনেছি
কাগজখানা
সদযসমাপত
ভীতিকর
অপরিচছনন
ওযালশ
হারালে
গনছে
অভযনগর
৩৬০
তাপসী
পরকরিযাজাত
লটাইযা
অশরদধা
গমভীরা
অনতকে
মেহেরন
মাসটারমাইনড
সলতানপর
৩৮টি
রসগোল
বারসেলোনাকে
সেনাবাহিনীকে
নিরমলবাব
কচলাতে
দগধরা
শবশরবাডিতে
পাতানো
কলিনটন
ফরিদল
নেপথয
নিমেষ
সমনবযহীনতা
সতীশের
চলনবিলে
বিরকতিকর
আদরশিক
বদরউদদিন
মানবাধিকারকরমী
গোলাপের
নকশায
ভাগযলকষমী
পযারে
ভবাননদের
বিশবসাহিতয
মযনার
##পরবণ
বিধানসভার
মশফিকের
শতরতার
তফসিলি
মৎসযজীবী
মরণফ
পালাকরমে
নবীনের
আগরা
শিকাগো
শিকদারের
হাডারস
ফরানসকে
নিঃসংশয
একাততর
অসথিরতার
কলিগ
ভকতভোগীর
ঠাকরাণী
সাউথইসট
##লাভিযা
গরনথে
৫২টি
ডোবার
বেডাল
বেডানোর
সাইফললাহ
চিততের
ফযসল
আজকালকার
##িকিউটিভ
নবকমারকে
মানবিকতা
কোরিযাকে
বাশখালী
বিকরেতাকে
ভঙগর
তামাশার
ভরাটের
রাশেদজজামান
ইচছাই
রণকষেতরে
নলডাঙগায
দেইনি
পরিচছননত
লডছে
আরসেনালের
ঠাষটা
আঙকেল
শোভাযাতরায
হযরানিমলক
চিকিৎসাসেবায
সিপিবির
মচলে
রনিকে
জানিতেও
শানতিরকষী
দবাইযের
খানেকের
এসেছিলম
শরীফকে
ভতডে
বঝিযাও
অভিশংস
দকষিণাঞচল
সননযাসীর
জনগোষঠীকে
বনদেসলিগায
মাগফেরাত
বরজবাবর
সপেশালাইজড
হতযাযজঞ
ডিজিটা
অকপটে
অকলপনীয
ঝাডিযা
কযামেরায
বালিশে
ঝামেলায
কালেকট
সমপাদন
আকসমিকভাবে
যথাসাধয
উদধতি
জেনোযা
শৈলর
বরিসবেন
শিখেছি
জনপরতিনিধিরা
পাঠাবেন
ধমকি
বেডিযেছেন
বিবিএস
খাওনি
জগননাথপর
কামারখনদে
শবাসরদধ
ভাতিজার
কিছরই
জোযারদার
বখাটেকে
মরমাহত
কলহবি
বখাটেদের
পষটিগণ
কোষাগারে
চডিহাটটায
পিবিআইর
খালেকজজামান
খানাখনদ
সিসিটিভি
গহকরমীকে
বালিযাকানদি
জগদীশের
##মণডলে
বিসততি
উহানে
নথিপতর
সটিমার
হৎপিন
কাযেস
সহপাঠীরা
আবেদিন
ধরিবার
ফারাবীর
কনসারটে
ইঞজিনচালিত
##জগতে
বিহারের
বিএফডিসি
আযাকস
অগণতানতরিক
কৈলাসচনদর
কৈলাসচনদৰ
চিলডর
সিডনিতে
বিতষণা
পরতিকারের
মকসদপরে
আতমবিশবাসী
হাতিরঝিলে
কৌতহলের
অমঙগল
অমাবস
নকষতরের
বাদেই
আমলাতানতরিক
দাফতরিক
দরগনধে
##বাটীতে
সঞচালনায
আযাতললাহ
সপটনিক
তেহরান
সকটলযানডের
ফলোরিডা
চণডীর
চণডীগ
সেনানিবাস
এপিবিএন
গারডিওলা
নিমিষেই
ঘমাচছে
জৈনতাপর
লতফর
পাংশা
নিরাশরয
কটিযাদীতে
কাসতে
কবেরের
##সঙগত
মনানমখে
লাওসের
সোমবারের
মওকফের
কলিংবেল
বেণখা
ওষঠাধরে
কনসালটেনট
ইহদিবাদী
চেষটাকালে
মহাপাপ
উঠোনের
##বিরোধের
অবিশরানত
গফরগাওযে
গাধার
পরনোগরাফি
মলাদী
পরিলকষিত
বাযদষণের
ভমিধস
গেইলের
গেনডারিযায
সাওতাল
অনষদভকত
শযামনগরে
আলাইকম
ওলামাযে
গবাদি
খাদযাভযাস
৷কমল
পোডারমখী
ডেঙগজবরে
সংগীতাঙগনে
গঙগামাটি
##াজাতীয
নিনদিত
অনমতির
মিউজিযা
রযাগিংযের
ভাসানটেক
আকাঙকষা
কচছপ
দালান
শাহপরান
সেমিসটারের
ওলট
জকিগঞজ
যশোদা
রাজাপকষে
কারপেটিং
আজমিরীগঞজ
করমপরিকলপনা
পরবধলা
যামিনী
আবধাবিতে
মোরশেদের
পেটরোলিযাম
ফারগসন
পোহাচছেন
নলছিটি
##জাগরণ
ফযাকটরি
ইজজত
আতমবিসমত
খেলোযাডের
মাইকরোসফটের
খোজাখজি
##কিঞচিৎকর
বাহাউদদিন
বেজোস
অসনতষট
কনফেডার
ডেসটিনি
শেকসপিযরের
কপোতাকষ
বাধযবাধকতা
আলাপচারিতায
অবযবসথাপনার
বিপণিবিতান
ওযারিযর
বিদযাপীঠ
শাহেনশাহ
কনসটরাকশন
গণঅভযতথানের
কারতজ
ইমদাদল
পীতামবর
ফিসটলা
এমনেতেই
মাসটারপলযান
হসপিটালের
শিষটাচার
ইনটারমিডিযেট
বাকসবাধীনতা
সবাধীনতাবিরোধীদের
ডাইনামো
ভারোততোল
লাঘবে
জামাকাপড
হযাজারড
বাগমারায
ইলেভেনের
শযামাসনদরী
শশাঙক
অনসারীরা
দরারোগয
অভিযকতরা
অভিপরাযে
নিরমলেনদ
হানাহানি
গযারানটি
কশিযারা
ইনটারনযাশনালের
উচছিষট
নৈকটয
মাসিহজজামান
পরিলিমিনারি
বকাঝকা
বোটানিকযাল
কোষঠকাঠিনয
ফিওরেনটিনা
টালমাটাল
লাপাততা
আদযোপানত
মরশেদী
ইনডিপেনডেনট
অখ
অমানষ
অঘোর
আডা
আঙকার
আটটায
ইদ
ইযর
ইডবলিউ
উলামা
ঊষা
ওএসডি
ঔপনিবেশিক
কিনি
কটন
খাক
খণডিত
গাদা
ঘেন
ঘনী
ঘষে
চনন
চিম
ছানি
ছোল
ছততি
ছটাছটি
জও
জালের
জিনের
ঝির
ঝনা
ঝাডি
ঝাট
টাইল
ডোন
ডবো
ডিনার
ঢাবির
তঞচ
তৎস
ততো
তেলি
তিলে
তমাল
থথ
থবডে
দবে
দাতে
দানের
ধতে
নটর
নমর
নকলা
নিতাম
নচছার
পচ
পচন
ফন
ফসে
ফযাদ
ফফাত
ফযানের
বোগ
বটের
বথে
বদৌ
ভষণ
ভদৰ
রচ
রচনার
রতনা
লকে
লিল
লাদ
লেকে
শমভ
শাডী
সৰ
সিকি
সকরণ
সানী
হালে
হনত
##যপরি
##যহিক
##াটে
##াচছে
##নিত
##রিযায
##িউ
##তালি
##হতে
##বকষ
##বযাগ
##বৎসর
##থনি
##শৰ
##শপর
##শেখ
##শসয
##শাযের
##ফাকে
##ফরের
##ফজজামান
##ডবি
##ডকির
##ডরো
##কনিষঠ
##লই
##পঙখ
##দব
##দীরঘ
##দহে
##দদিনের
##দণডে
##মডা
##মোট
##মাসী
##ইলে
##ইপমেনট
##ভযতা
##সস
##সবার
##সকি
##সরণ
##সচেতন
##সনদেহ
##চযা
##চকি
##চলিতে
##চংযে
##চমবী
##গযা
##অপরব
##ধাক
##ধনর
##আসে
##ৈকয
##ঘেরা
##োয
##োডা
##যাড
##যামে
##যেও
করর
করিনা
পরলাম
পরচছ
পরগাঢ
##িনট
##কেহ
##লাসের
##ালিক
##ালিকার
##ামপরের
##বেষী
বিজন
বিবিধ
বিহারে
##াসম
##তিকে
##তিষঠিত
##াইত
##াইক
##াকরে
একজিমা
বাপে
নাউ
নাভাল
##াদো
##াদানের
##িতিক
আমিত
আমাগো
আমাদিগকে
সমতায
সমানতর
সেতব
সেকস
সেচের
নিধনয
নিবিষট
দেম
##কষীদের
##বালাই
##লিপিতে
##লেনট
কিডন
##াপলত
আরএক
তারিকল
সবয
সবলে
সবদেশের
সবঘোষিত
সংগরাহক
জনপদে
পাগলি
পাভেল
মাষটার
##ওযাও
##ীযসী
নিরাম
নিরঘাত
নেযে
##করন
##করিতেছে
এইডা
অনচর
অননযা
অনশো
##গরভা
##গরীব
##গরোভ
##বিও
##বিখযাত
আসচেন
বলী
বলির
উপকত
উপবযবসথাপনা
পরিযন
পরিচছ
পরিমল
পরিপতর
সরত
সরপ
সরজ
মেধ
মেকান
বিশন
রাজকে
##কাতরে
কাষঠ
দেখলেও
দেখেশনে
কিনারে
যাযা
দেশটা
পরতিও
পরতিভাব
পরতিভার
পরতিধবনি
অভিযা
##াকেও
গরজিযা
গরিসের
কারান
মানদায
শরমের
হইবো
##নদাজ
তাহমিনা
বেবী
দরপ
দরানত
দরখাসত
আগাইযা
আগনত
মতপরায
সিবি
সিবিএ
##পিছ
##চছেদয
##ছিদর
##ষটের
দিচচ
মোসট
মোছা
মোশত
নামল
কোনকালে
কোনদলে
চেহ
##সিযার
##সিমের
##বাচিম
বরই
কোযান
অভিলাষ
অভিভতের
পেচা
মননি
কষধায
থাকাকালে
থাকাকালীন
ঘটত
ঘটানোর
##সবাই
##শনিযা
ভারতব
সংসকত
গোখ
সমযমত
মিঠন
মিষটির
সথাবর
সথাযিত
রহি
লিঙগ
##ীবাসীর
আলগা
অবকষ
কহিতেছিল
লাখে
##জিকে
ইসমা
আনলো
আনমনে
##ষণার
হইযাগেল
ধরমা
ধরপাক
বডছেলে
শিবলী
##তমখী
বাসাইল
বাসাতেই
##োটিন
অসদাচরণ
অধঃ
অধরার
অধযাদেশ
মামি
উপজীবয
##ঞচির
##বদলে
জেফ
উতসব
উতথানের
অভিযোগকারী
নযজনের
আশী
দলও
দলছে
দলমত
মারিল
মারবেল
বাডলে
এমস
এমটি
এমিরে
মাসহ
অনেকদর
পরথমদিকে
পথয
চারজার
বনধই
বনধযা
টরযাক
##টরো
ইনিযে
##চছায
##িকাপর
নাইম
আদিতয
##কিলে
দেওযালে
দেওযালের
এসেচেন
বারবাড
জানিযেছিল
বিষাদের
পরযনতও
অনযকিছ
মেযেই
মেযেও
জীবদদ
রেট
রেহমান
রোহেত
ইউনিসেফ
কলমের
দিতেছি
ডাকো
ডাকবেন
ডাকবো
ডাকচেন
নিরবাচনসহ
খেতেই
রাতদিন
শিশস
বঝেন
##পাটন
শনচি
##মেরা
সংসদকে
সোপান
পিশা
মরনিং
মরভমিতে
ছাতরছাতর
##পারব
##পারক
দিযাগো
কালও
চিকেন
ভেটের
সারহান
ভাবন
ভাবচ
ভাবিযে
ভাবিত
ভাবগাম
নিজেরাও
লোকবল
অযালি
অযাঙগেলা
পালট
কতকষন
হামাসের
একজনই
##ফরেনডের
সাংহাই
ভরতিতে
আইনান
##শাখা
সাহাদ
রেখেছিলো
পৌছি
##হাটা
##হাশয
ভারতবরষে
টিশারট
চৌগাছা
খললেই
মিললেও
মিললাত
খবরও
##গময
নরকে
সনধে
সনধিকষণে
চাহনির
হতযাসহ
বোদা
রিপলে
দশদিন
বনদীর
কামরায
সিরডাপ
হওযাটা
তথযই
খানমের
কনই
গরহিত
১১৮
দীরঘাযিত
চাইচি
কীসের
সকালবেলায
যোগবযা
ফলিক
ফলপর
ফলশরতিতে
এসির
হেই
##এমজি
##এমসির
সবাসথযসেবার
##শরিত
দটিই
হাইট
অপলক
##সনান
সংবাদমাধযমের
রাষটরদ
আতমহতযায
মামলাগলো
রবিবারে
##গনিযা
বনযাক
বনভোজন
১৫৭
দাবদাহ
দবিতীযটি
ডেড
ডেটা
ছাডাহ
সকচটে
দীনের
দীকষা
নবীর
লেদার
সতরমতে
করিকেটকে
ছযটা
ছযতলা
জীবনাননদ
ফরসে
নিরদেশের
ছবিটিতে
##ঙকন
সাংবাদিকসহ
গহায
গহীন
সরবকষেতরে
##সিংহ
মাঝেমাঝে
বলতেও
নৌপথ
টাটকা
ঢাকঢোল
এনএসআই
জোবাযের
##পালার
খেলিযা
##করাফট
বযসকদের
বযসভিততিক
##বনদনা
##ফেলা
ওযারীর
মাদকসহ
দেখিলেই
বিজঞানে
বইবে
ওযাং
ওযাহি
রাযান
জানিলে
লোম
লোহান
দাযিতবের
শাসনে
ফারাক
চিনেন
চিনতাই
তরতর
লালদীঘি
উদযোগী
কঠিত
পতরবধর
খোপা
পরীকষারথীর
১৮২
বিসখ
একাদশের
জিপি
তোমাদিগের
সযোগই
সযোগটা
##পতৰ
পরিচালকদের
##যাগলি
বলিতেছিল
লকো
লকানো
যেমনটি
সখিপর
##নামযী
নেমেছিলেন
শোও
পরিবেশনা
জমমা
১৩৬
ভালোবাসতেন
বকতার
বালবাহী
সপরতিষঠিত
চাকতাই
লাইটার
একসিকিউটিভ
খনসটি
সটারট
হযাকিং
বাসতবতার
বাসতবমখী
বাবলের
মযানসিটির
মযানগরোভ
##চালকদের
ওযেটিং
আযতত
দেখিযাছিল
কষতিগর
ভারতীযদের
হোমিও
কপিযেছে
অনিযমে
কষণচডা
টাইটেল
ছিটে
লিখব
লিখলেন
লিখলো
রকতনালির
জিনাত
রাজনীতিকে
রাজনীতিবিদরা
দবিমত
গাছটি
বদলায
বদলাইযা
কমারী
মোটেল
সবপনকে
বষটিতেই
ঠাকরপোর
উনবিংশ
ডরযের
লেখাঃ
গভীরতা
থাকিযাও
তীহাকে
হাটছি
হাটবাজার
হাটাহাটি
চনদরা
টানছে
থামলো
থামেনি
নোভা
নাসিমা
ইউনিযনকে
চিঠিখানা
কষিধে
কষিপত
খাওযায
##পরাঙগ
ভেবেছিলম
গারমেনটের
বযাপারই
অধিদপতর
খাদযদরবয
মহরী
বসতটি
সমভাবযতা
করোডের
করীডাম
গঠনমলক
কবিরহাট
##োহণ
##োহিত
সইচ
২৩০
বঝিবে
চরমপনথি
চাকরিজীবীদের
লিখেচে
পাসপোরটে
##ইলর
নেততবেই
২৮০
২৮টি
সতধ
রামনাথ
রামপরায
বাকিটা
কাঠামোর
মাতভমি
ভবনটির
এলডিপির
রেকরডিং
শানতিন
শীষে
আলমগীরসহ
শেযারহোল
ফিলমি
পরতিপকষরা
মোবাইলটা
জযামে
২০২৩
পাচারকারীকে
হরিবালা
অপেকষাও
##পিএল
বেনামে
তাডাইযা
পযাচ
পযাথল
পরসততকারক
রকমই
রোহিঙগাসহ
চতরদশ
তরিমখী
তরিশাল
এইচএস
এইচআই
##মহলের
##শাসক
চাকরদের
টারন
ভাষাকে
নিযমিতই
করমীরাও
মিলনাযতনের
পরযোজয
শাসতিমলক
পেরেছিলাম
জিমমায
মশাল
ভাডাটিযার
তানডব
মিননি
বিজযাকে
পরিশদধ
শবাসনালি
ফারকীর
চকচকে
শরদধাঞজলি
অপেকষমাণ
নিতযদিনের
নিতযপণয
গলোকে
##কষমতায
দেবতাকে
##বিলমবে
মেরকরণ
হাওরা
ভালোবাসাটা
যাকের
রাখালকে
কৌসলি
মেশানো
রাহেলা
দজনেরই
খাইলে
জনগণই
উভযই
খাযনি
মিলিবে
মিলিটারি
জেনেভা
রাজাপরে
পীরের
অসাধারন
##াবাডিযা
শিখাইযা
বিদরোহের
জলাধার
অশরস
অশরপরণ
পরতিবনধীদের
শাশড
জানোই
মাযাবী
অফিসারকে
অফিসারদের
এএফসির
বযাটিংযের
মোরগ
৩৮তম
কিংবদনতির
কেরাম
কসমকে
পরিশোধসহ
সমানভাবে
মরিবার
বিপরদাসবাব
অধযকষকে
নিমপাতা
গিযেছিলম
সতীনের
তামিমের
বসিবে
সংসকতিমনতরী
ভগবানকে
নিচছিল
পযারাস
পযারাগ
ধবংসাতমক
কযেদির
মরণোততর
অরণযে
পরকৌশলীকে
পিযাজসহ
সচেষট
পরতিশরত
আগরায
আচলের
পরিনসেস
তিলা
মাধবদ
পরেমিককে
একপরানতে
##কলযাণের
##রাজঞী
গারডেনের
দারন
##টেকটিভ
সংগীতান
নিশবাসে
শেখরদা
নাগেশবরী
ঘষি
অগনিকানড
খামারের
আলেযা
আলেমদের
থিযেটারে
বানিযেছেন
ননদীর
বাশবাডিযা
বিছানাটা
ধীরেনদর
হযানডসেট
হযাটটরিকের
লোভের
নযাপলটনের
নতযকলা
শরতসাপেকষে
রেডমি
ছিটানো
ঠানদিদি
পরতিকলতা
ফযাটি
দেরাদ
অবিনাশের
বোলাররা
খসডায
গণসংযোগকালে
সমরাটকে
আলিঙগন
ডিসিসিআই
শরাবণীর
বিদযাশিকষ
ডবতে
দেখেননি
সোহাগী
সোহাগের
বিলাসবিহারী
মিঠাম
উততেজনাকর
সালাহর
##ঠাকরপো
##বিজযা
পরীকষারথীদের
রওনককে
মরাদনগরে
ফেবারি
##কনযার
জঙগিবাদে
অভিশপত
টযরিজম
সরঞজামাদি
লযাবের
উপকারিতা
বরজেনদর
পদারথের
হতযাযজঞের
ঠকিযা
খাটতে
শামসননাহার
এজেনটের
গোলাপী
পরতিদবনদবিতাপরণ
দেওযানি
দেওযানগঞজ
সবসতিদাযক
মাধবপর
জবানবনদিতে
হিনদধ
সপোরটিংযের
পাঞজাবী
##সাধয
সাকষরতা
নিশচিনতে
ধাওযান
নতযা
বারিধারায
উজানে
হযামলেট
সারবজনীন
একেকজন
কিবরিযার
তেরখ
পরতযাশীরা
এডিটর
কাউনটারের
সামপরদাযিকতার
দরবযমলযের
শিখেছে
বিএমডিএ
পাঠাচছে
সামরথযবান
ফাতেহা
পললবীকে
ঝরেছে
দনডিত
০১৭
আনতজেলা
৭৪তম
বাডালেই
পথচারীরা
হেলপারের
এহতে
এহছানল
পরবাহের
পরতিদবনদবিতার
সিমফ
ভিযেতনামে
ঘটাচছে
মোসলেম
সিসিইউ
ছিননমল
জাকারতা
সারকাস
রহসযজনকভাবে
শিষযদের
নিসতবধতা
এখখনি
বিহারি
সমপরচারিত
সীতাকণড
বিআরটিএর
কেলেঙকারিতে
রোমাঞচিত
উজিরপরের
তনযাকে
উপনযাসে
লরডস
টিনশেড
বেলারশ
শমশানের
সিংহাসন
গিরীনের
অইলো
শাযলা
পিটিযেছে
##বিজঞানের
মাযেদের
ছোটভাইযের
##সপনদন
ছেলেমেযেদের
##ললাবাদ
পরাতযহিক
গৌরীপরে
মডারন
মাইনড
হিরণ
আইইবি
বাযোমে
##একটখানি
ফেনসিডিলসহ
বেরোবি
মকতাগাছায
আটলানটিক
দবিরকত
কোনোরকমে
আফিঙগ
হরতালের
পরাসঙগিক
একমঠো
দরগাপজার
গাংনীতে
চাটমোহর
সবযসাচীর
শলীলতাহানি
লাওস
বিভরানতিকর
মেইঞজ
পরতিহিংসা
গণযমানয
মধযসথতায
উরগযের
রযযালস
##চরিতর
ইভিএমের
ললাটে
মাতিযেছেন
শেফালি
বাচচারা
ডমরিযায
সনতোষজনক
আতমরকষা
জযেলারস
সিনদকের
##আশবাব
ডিপোতে
শরেণিককষ
ভমিধসে
ঘেরিযা
সানাউললাহ
নাতাশার
ওনারস
অনারারি
অরাজনৈতিক
পাকনদিযায
কাবাঘর
একসিডেনট
সমাদত
কাশিযানীতে
চিতরাঙকন
অকলানত
গোমসতা
ভিকটোরি
পষঠপোষকতা
রকষণাবেকষণের
পারবতযাঞচলের
শরাদধের
বৈরতে
টাঙানো
মাউশি
সবৈরাচারবিরোধী
ভটটো
শিকষাবযবসথা
উলটাইযা
পশচিমপাডা
অযানটিবাযোটিকের
পরোগরামের
কাডাক
বাঙগালীর
[...]
